{"<|endoftext|>":0,"!":1,"\"":2,"#":3,"$":4,"%":5,"&":6,"'":7,"(":8,")":9,"*":10,"+":11,",":12,"-":13,".":14,"/":15,"0":16,"1":17,"2":18,"3":19,"4":20,"5":21,"6":22,"7":23,"8":24,"9":25,":":26,";":27,"<":28,"=":29,">":30,"?":31,"@":32,"A":33,"B":34,"C":35,"D":36,"E":37,"F":38,"G":39,"H":40,"I":41,"J":42,"K":43,"L":44,"M":45,"N":46,"O":47,"P":48,"Q":49,"R":50,"S":51,"T":52,"U":53,"V":54,"W":55,"X":56,"Y":57,"Z":58,"[":59,"\\":60,"]":61,"^":62,"_":63,"`":64,"a":65,"b":66,"c":67,"d":68,"e":69,"f":70,"g":71,"h":72,"i":73,"j":74,"k":75,"l":76,"m":77,"n":78,"o":79,"p":80,"q":81,"r":82,"s":83,"t":84,"u":85,"v":86,"w":87,"x":88,"y":89,"z":90,"{":91,"|":92,"}":93,"~":94,"¡":95,"¢":96,"£":97,"¤":98,"¥":99,"¦":100,"§":101,"¨":102,"©":103,"ª":104,"«":105,"¬":106,"®":107,"¯":108,"°":109,"±":110,"²":111,"³":112,"´":113,"µ":114,"¶":115,"·":116,"¸":117,"¹":118,"º":119,"»":120,"¼":121,"½":122,"¾":123,"¿":124,"Â":125,"Ã":126,"Ä":127,"Å":128,"Æ":129,"Ç":130,"È":131,"É":132,"Ê":133,"Ë":134,"Ì":135,"Í":136,"Î":137,"Ï":138,"Ð":139,"Ñ":140,"Ò":141,"Ó":142,"Ô":143,"Õ":144,"Ö":145,"×":146,"Ø":147,"Ù":148,"Ú":149,"Û":150,"Ü":151,"Ý":152,"Þ":153,"ß":154,"à":155,"á":156,"â":157,"ã":158,"ä":159,"å":160,"æ":161,"ç":162,"è":163,"é":164,"ê":165,"ë":166,"ì":167,"í":168,"î":169,"ï":170,"ð":171,"ó":172,"ô":173,"Ā":174,"ā":175,"Ă":176,"ă":177,"Ą":178,"ą":179,"Ć":180,"ć":181,"Ĉ":182,"ĉ":183,"Ċ":184,"ċ":185,"Č":186,"Ď":187,"ď":188,"Đ":189,"đ":190,"Ē":191,"ē":192,"Ĕ":193,"ĕ":194,"Ė":195,"ė":196,"Ę":197,"ę":198,"Ě":199,"ě":200,"Ĝ":201,"ĝ":202,"Ğ":203,"ğ":204,"Ġ":205,"ġ":206,"Ģ":207,"ģ":208,"Ĥ":209,"ĥ":210,"Ħ":211,"ħ":212,"Ĩ":213,"ĩ":214,"Ī":215,"ī":216,"Ĭ":217,"ĭ":218,"Į":219,"į":220,"İ":221,"ı":222,"Ĳ":223,"ĳ":224,"Ĵ":225,"ĵ":226,"Ķ":227,"ķ":228,"ĸ":229,"Ĺ":230,"ĺ":231,"Ļ":232,"ļ":233,"Ľ":234,"ľ":235,"Ŀ":236,"ŀ":237,"Ł":238,"ł":239,"Ń":240,"en":241,"er":242,"ch":243,"Ġd":244,"ei":245,"un":246,"ie":247,"st":248,"in":249,"an":250,"Ġs":251,"ich":252,"ein":253,"es":254,"au":255,"ĠS":256,"Ġun":257,"Ã¼":258,"Ġw":259,"on":260,"ge":261,"al":262,"te":263,"Ã¤":264,"Ġund":265,"Ġm":266,"ung":267,"Ġdie":268,"sch":269,"ar":270,"it":271,"Ġv":272,"as":273,"Ġein":274,"Ġb":275,"el":276,"or":277,"Ġder":278,"ĠA":279,"at":280,"ĠD":281,"ĠB":282,"Ġz":283,"Ġi":284,"Ġn":285,"hr":286,"ten":287,"Ġau":288,"ur":289,"gen":290,"der":291,"em":292,"ĠM":293,"Ġf":294,"Ġh":295,"Ġin":296,"ter":297,"ĠE":298,"den":299,"ĠF":300,"ĠK":301,"et":302,"Ġk":303,"Ã¶":304,"ĠG":305,"ĠW":306,"ĠP":307,"Ġzu":308,"lich":309,"ti":310,"ab":311,"ir":312,"ol":313,"ach":314,"le":315,"Ġg":316,"am":317,"Ã¼r":318,"de":319,"ĠT":320,"ĠH":321,"ĠI":322,"eit":323,"ck":324,"Ġdas":325,"ĠV":326,"ber":327,"ier":328,"Ġge":329,"ĠR":330,"ĠL":331,"Ġden":332,"Ġmit":333,"ro":334,"is":335,"Ġer":336,"il":337,"icht":338,"Ġan":339,"us":340,"re":341,"om":342,"âĢ":343,"Ġvon":344,"Ġist":345,"ig":346,"Ġauf":347,"ut":348,"um":349,"ra":350,"sen":351,"eh":352,"ÃŁ":353,"Ġal":354,"isch":355,"and":356,"ĠfÃ¼r":357,"Ġver":358,"ĠN":359,"se":360,"ann":361,"Ġo":362,"rei":363,"Ġim":364,"Ġl":365,"ben":366,"len":367,"ent":368,"Ġ1":369,"ĠZ":370,"ĠU":371,"ft":372,"ion":373,"nen":374,"Ġsich":375,"Ġnicht":376,"Ġwir":377,"ser":378,"Ġbe":379,"Ġ(":380,"ĠSch":381,"Ġsch":382,"och":383,"men":384,"ĠVer":385,"Ġaus":386,"ĠSt":387,"Ġ2":388,"ind":389,"ĠJ":390,"Ġdes":391,"Ġeine":392,"Ġp":393,"eu":394,"ff":395,"ahr":396,"kt":397,"ĠC":398,"sp":399,"Ġauch":400,"ag":401,"Ġes":402,"Ġdem":403,"ĠSie":404,"ehr":405,"ell":406,"ĠâĢ":407,"Ġbei":408,"sten":409,"ah":410,"ĠIn":411,"ĠAn":412,"ungen":413,"iel":414,"Ã¤n":415,"Ã¼ber":416,"uch":417,"Ġso":418,"Ġab":419,"ing":420,"Ġst":421,"..":422,"Ġj":423,"Ġt":424,"eich":425,"ĠDie":426,"Ġwer":427,"ver":428,"ĠO":429,"ien":430,"ik":431,"ern":432,"etz":433,"Ġwie":434,"Ġoder":435,"Ġich":436,"esch":437,"ĠÃ¼ber":438,"Ġals":439,"wei":440,"Ã¶n":441,"und":442,"Ġwerden":443,"ungs":444,"ation":445,"be":446,"mer":447,"Ġhat":448,"ot":449,"Ġsind":450,"enn":451,"hn":452,"os":453,"uf":454,"Ġhab":455,"00":456,"ĠEr":457,"ort":458,"Ġsein":459,"im":460,"Ġvor":461,"tig":462,"ĠUn":463,"oll":464,"Ġsie":465,"Ġum":466,"ĠEin":467,"ĠSp":468,"est":469,"urch":470,"Ġnach":471,"chen":472,"Ġ-":473,"ad":474,"rau":475,"eil":476,"ischen":477,"ul":478,"ri":479,"ed":480,"Ã¼n":481,"Ġdass":482,"Ã¤t":483,"hal":484,"ger":485,"he":486,"end":487,"la":488,"op":489,"aus":490,"Ġwird":491,"Ġihr":492,"eg":493,"anz":494,"Ġwar":495,"wer":496,"kti":497,"ĠPro":498,"Ġeinen":499,"ech":500,"ang":501,"auf":502,"all":503,"01":504,"tel":505,"tern":506,"Ġeiner":507,"eine":508,"scha":509,"tet":510,"gt":511,"Ġzum":512,"ru":513,"ler":514,"Ġkann":515,"Ġman":516,"Ã¼ck":517,"ick":518,"Ġzur":519,"Ġda":520,"ĠkÃ¶n":521,"zen":522,"âĢľ":523,"Ġeinem":524,"Ã¶r":525,"zu":526,"ĠAr":527,"eiter":528,"pp":529,"Ġent":530,"Ġdurch":531,"Ġnoch":532,"rie":533,"Ġam":534,"rÃ¤":535,"iv":536,"ste":537,"ner":538,"lichen":539,"art":540,"Ã¤r":541,"bt":542,"igen":543,"orm":544,"Ġunter":545,"ĠJahr":546,"ĠâĢŀ":547,"gel":548,"Ġnur":549,"fÃ¼":550,"uss":551,"eiten":552,"ĠGe":553,"iert":554,"Ġhaben":555,"schl":556,"ĠAl":557,"Ġr":558,"ster":559,"arb":560,"Ġaber":561,"og":562,"ank":563,"pf":564,"hl":565,"ische":566,"Die":567,"ĠIhr":568,"aten":569,"geb":570,"schen":571,"ĠAus":572,"Ġsp":573,"Ġ3":574,"schaft":575,"Ġmehr":576,"liche":577,"ers":578,"lin":579,"Ġunser":580,"stell":581,"ieren":582,"ĠMit":583,"acht":584,"eben":585,"Ġ\"":586,"ess":587,"elt":588,"ige":589,"Ġbis":590,"Ġwur":591,"ĠBe":592,"ĠkÃ¶nnen":593,"ehen":594,"che":595,"ĠÃ":596,"ĠâĢĵ":597,"eut":598,"ass":599,"atz":600,"cht":601,"gr":602,"bl":603,"bar":604,"ĠEn":605,"dern":606,"ex":607,"Ã¤l":608,"keit":609,"utz":610,"...":611,"ÂŃ":612,"hen":613,"her":614,"Ġ201":615,"ommen":616,"Ġander":617,"gl":618,"ht":619,"ĠDas":620,"assen":621,"ĠGr":622,"ĠBer":623,"Ġdies":624,"ist":625,"ahl":626,"ellen":627,"heit":628,"lei":629,"Ġneu":630,"ĠAb":631,"glich":632,"ert":633,"Ġre":634,"ĠDer":635,"fen":636,"du":637,"Ġuns":638,"ill":639,"ok":640,"rit":641,"omm":642,"ob":643,"ĠVor":644,"Ã¤hr":645,"etzt":646,"ffen":647,"Ġwenn":648,"unden":649,"ÃŁen":650,"ant":651,"ges":652,"Ġall":653,"Ġber":654,"rÃ¼":655,"eigen":656,"ont":657,"sam":658,"mal":659,"ktion":660,"ic":661,"Ġdann":662,"ss":663,"alt":664,"iz":665,"ild":666,"ĠAuf":667,"eb":668,"ehmen":669,"ap":670,"me":671,"Ġkl":672,"Ġweiter":673,"ken":674,"ekt":675,"ast":676,"fahr":677,"Ġges":678,"Ġ4":679,"Ġje":680,"pl":681,"wie":682,"form":683,"bst":684,"ze":685,"nis":686,"ak":687,"Ġbes":688,"Ġwieder":689,"Ġgen":690,"ĠRe":691,"Ġwurde":692,"Ġsehr":693,"war":694,"age":695,"Ġdar":696,"rag":697,"ne":698,"od":699,"ĠAu":700,"per":701,"Ġwas":702,"kl":703,"Ġ5":704,"ĠZu":705,"Ġsoll":706,"Ġhier":707,"ial":708,"Ġet":709,"Ġschon":710,"ibt":711,"fer":712,"Ġimmer":713,"att":714,"ĠWir":715,"Ġdiese":716,"ohn":717,"Ã¶glich":718,"Ġlie":719,"imm":720,"ÃŁe":721,"Ġhin":722,"ĠHer":723,"eits":724,"fach":725,"ĠZeit":726,"leich":727,"ark":728,"einen":729,"iele":730,"Ġc":731,"Ġ19":732,"Ã¼t":733,"lie":734,"ack":735,"Ġviel":736,"Ġgew":737,"lo":738,"ho":739,"itÃ¤t":740,"Ġgro":741,"Ġher":742,"ts":743,"mit":744,"ĠSo":745,"Ġvom":746,"fol":747,"Ġgibt":748,"Ġganz":749,"ĠEs":750,"Ã¤ch":751,"elle":752,"hnen":753,"eld":754,"achen":755,"gend":756,"ĠUm":757,"eln":758,"Ġhabe":759,"Ġmir":760,"fe":761,"schie":762,"Ġsel":763,"dem":764,"eite":765,"was":766,"lu":767,"ĠMa":768,"dig":769,"osten":770,"Ġbest":771,"inden":772,"sche":773,"Ġalle":774,"lung":775,"ĠGesch":776,"ĠGes":777,"Ġdieser":778,"ĠMen":779,"zeit":780,"fÃ¼hr":781,"hne":782,"onder":783,"qu":784,"Ġzwei":785,"Ġa":786,"rin":787,"ud":788,"ragen":789,"reis":790,"lÃ¤":791,"ĠBei":792,"Ġmich":793,"inder":794,"los":795,"ord":796,"pt":797,"ĠIm":798,"ĠÂ":799,"agen":800,"tigen":801,"halten":802,"ĠDaten":803,"ĠOr":804,"ĠArb":805,"ĠÃľ":806,").":807,"ĠIch":808,"Ġgegen":809,"ĠNach":810,"ationen":811,"ĠEnt":812,"amm":813,"gesch":814,"In":815,"ĠKl":816,"kte":817,"ĠDeut":818,"ichtig":819,"ett":820,"Ġle":821,"ierung":822,"Ã¼hr":823,"vor":824,"aut":825,"Ġ6":826,"Ġgem":827,"ÃŁer":828,"ĠUnter":829,"Ġdu":830,"ma":831,"adt":832,"bur":833,"onn":834,"Ġeigen":835,"cken":836,"Ġgut":837,"Ġeinfach":838,"id":839,"ollen":840,"Ġsowie":841,"ran":842,"lau":843,"erson":844,"issen":845,"rank":846,"spiel":847,"Ġkeine":848,"icher":849,"Ġe":850,"ĠCh":851,"Ġmein":852,"ale":853,"Ġeines":854,"olle":855,"inn":856,"reich":857,"iger":858,"Der":859,"eist":860,"Ã¼s":861,"Ã¶ch":862,"Ġger":863,"ate":864,"Ġwo":865,"itz":866,"for":867,"wick":868,"amit":869,"angen":870,"ĠPl":871,"net":872,"Ġmal":873,"atur":874,"gab":875,"Ġbek":876,"ĠÃľber":877,"ĠBl":878,"tige":879,"ĠKon":880,"eht":881,"Ġbet":882,"nah":883,"ĠUnd":884,"ke":885,"ielen":886,"esen":887,"wischen":888,"ktiv":889,"ĠEur":890,"ĠWer":891,"ĠLeben":892,"Ġpro":893,"stÃ¤n":894,"Ġgesch":895,"ativ":896,"unde":897,"eute":898,"we":899,"ater":900,"),":901,"pro":902,"Ġohne":903,"ine":904,"ĠSpiel":905,"bau":906,"Das":907,"reu":908,"wend":909,"Ġ|":910,"Ġson":911,"br":912,"off":913,"eim":914,"Ġgr":915,"ĠTh":916,"Ġihre":917,"alen":918,"Ġselbst":919,"tion":920,"Qu":921,"Ã¶ff":922,"ĠLand":923,"yst":924,"abei":925,"ĠWas":926,"Ġbeim":927,"ay":928,"geben":929,"zeu":930,"Ġwen":931,"ĠHand":932,"satz":933,"ade":934,"arbeit":935,"Ġjed":936,"arten":937,"ia":938,"teil":939,"so":940,"weise":941,"ften":942,"fall":943,"ĠRech":944,"Ġwel":945,"Ġmuss":946,"Ġdiesem":947,"ard":948,"ez":949,"ha":950,"ĠBet":951,"Ġ200":952,"ĠMar":953,"Ġbie":954,"Ġetwas":955,"Ġhatte":956,"spr":957,"ystem":958,"Ġange":959,"Ã¤h":960,"omp":961,"eren":962,"Ġerst":963,"Ġ7":964,"stand":965,"ding":966,"zt":967,"Ġdeut":968,"Ġdir":969,"Ġanderen":970,"Ġseine":971,"Ġ8":972,"ĠFrau":973,"ternehmen":974,"ow":975,"ov":976,"ĠQu":977,"ĠSe":978,"ucht":979,"ĠIhre":980,"line":981,"ĠMenschen":982,"Ġins":983,"aufen":984,"kel":985,"ruck":986,"Ã¶l":987,"ren":988,"Ã¤u":989,"tem":990,"oren":991,"amen":992,"io":993,"Ġgel":994,"nung":995,"fl":996,"Ġ/":997,"vers":998,"ost":999,"ition":1000,"dr":1001,"ommt":1002,"rechen":1003,"Ġdamit":1004,"cher":1005,"ĠRei":1006,"Ġfinden":1007,"aum":1008,"innen":1009,"Ã¤lt":1010,"ieder":1011,"Ġob":1012,"ce":1013,"ĠProdu":1014,"Ġgleich":1015,"halb":1016,"schland":1017,"ĠDu":1018,"gang":1019,"ierte":1020,"ĠAut":1021,"Ġgef":1022,"Ġja":1023,"ĠIhnen":1024,"St":1025,"Ġneue":1026,"Ã¶s":1027,"ichte":1028,"201":1029,"Ġmachen":1030,"Ġgeht":1031,"bes":1032,"ogen":1033,"stellt":1034,"ange":1035,"ĠGer":1036,"Ġschn":1037,"Ġ9":1038,"Ġ10":1039,"burg":1040,"Ġausge":1041,"our":1042,"uten":1043,"Ġdoch":1044,"ahn":1045,"ĠGrund":1046,"ĠJahren":1047,"ide":1048,"ĠKinder":1049,"lt":1050,"lage":1051,"ĠmÃ¼s":1052,"Ġ0":1053,"Ġ&":1054,"sk":1055,"weg":1056,"ĠBr":1057,"sst":1058,"hm":1059,"ĠTag":1060,"mittel":1061,"rad":1062,"Ġjetzt":1063,"ĠTeil":1064,"inde":1065,"ĠDa":1066,"land":1067,"ĠInform":1068,"olog":1069,"eid":1070,"schieden":1071,"ust":1072,"ĠLie":1073,"ip":1074,"fahren":1075,"uchen":1076,"Ġkein":1077,"eiÃŁ":1078,"gung":1079,"ute":1080,"zeich":1081,"esse":1082,"keiten":1083,"setz":1084,"si":1085,"Ġviele":1086,"gem":1087,"Ġzwischen":1088,"aar":1089,"ĠBes":1090,"zent":1091,"ĠHo":1092,"Ġdenn":1093,"ĠWeb":1094,"rieb":1095,"ander":1096,"wir":1097,"Ġgeh":1098,"rupp":1099,"Ġalles":1100,"ĠPerson":1101,"immer":1102,"halt":1103,"ischer":1104,"undes":1105,"oten":1106,"Ich":1107,"kommen":1108,"ats":1109,"ook":1110,"ĠwÃ¼r":1111,"bild":1112,"Ġlassen":1113,"atÃ¼r":1114,"Ġwurden":1115,"ĠBest":1116,"Ġnun":1117,"orn":1118,"Ã¤d":1119,"fÃ¼r":1120,"unktion":1121,"akt":1122,"ĠWelt":1123,"under":1124,"ele":1125,"Ġseit":1126,"Ġsondern":1127,"ĠStadt":1128,"ium":1129,"asse":1130,"ĠDeutschland":1131,"licher":1132,"ks":1133,"Ã¤re":1134,"richt":1135,"lagen":1136,"Ġunsere":1137,"ichten":1138,"ail":1139,"Ã¤m":1140,"Ġeinz":1141,"Ġwaren":1142,"ĠFahr":1143,"fte":1144,"alten":1145,"ĠVers":1146,"trag":1147,"ĠMus":1148,"essen":1149,"ĠUhr":1150,"âĢ¦":1151,"annt":1152,"ĠFl":1153,"zie":1154,"ĠHaus":1155,"sel":1156,"Ġdabei":1157,"igkeit":1158,"schutz":1159,"ĠUnternehmen":1160,"eig":1161,"urz":1162,"stellung":1163,"Sch":1164,"amt":1165,"ĠMin":1166,"rage":1167,"Un":1168,"ĠAm":1169,"ĠFÃ¼r":1170,"Ġ18":1171,"ĠMon":1172,"Ġbereits":1173,"Ġbin":1174,"Ġeben":1175,"euer":1176,"alitÃ¤t":1177,"ĠIntern":1178,"ĠEx":1179,"ache":1180,"anden":1181,"Ġdieses":1182,"ph":1183,"ienst":1184,"Ġbesonder":1185,"ĠJahre":1186,"ald":1187,"ĠmÃ¶ch":1188,"rot":1189,"tur":1190,"enden":1191,"Ġandere":1192,"Ġaller":1193,"Ġkonn":1194,"gleich":1195,"ĠReg":1196,"Ġsollte":1197,"schu":1198,"blem":1199,"Ġersten":1200,"ĠHau":1201,"ĠPol":1202,"Ġgest":1203,"ĠFr":1204,"ĠGew":1205,"Ġunserer":1206,"An":1207,"Ġseiner":1208,"amil":1209,"000":1210,"inter":1211,"ĠmÃ¶glich":1212,"Ġper":1213,"hol":1214,"Ġletz":1215,"Ġex":1216,"tschaft":1217,"ĠMan":1218,"ac":1219,"ies":1220,"ĠPart":1221,"Ġbesch":1222,"ĠSchw":1223,"ĠBo":1224,"reichen":1225,"auer":1226,"ĠzurÃ¼ck":1227,"erv":1228,"ĠKont":1229,"Ġ20":1230,"Ġkommen":1231,"eiden":1232,"eile":1233,"Ġwill":1234,"orden":1235,"ian":1236,"unkt":1237,"Ã¤tz":1238,"sammen":1239,"berg":1240,"Ġ...":1241,"indet":1242,"min":1243,"ĠWoch":1244,"Ein":1245,"ĠArbeit":1246,"Ã¤nder":1247,"zw":1248,"aden":1249,"ĠmÃ¼ssen":1250,"unter":1251,"ive":1252,"wert":1253,"Ġzusammen":1254,"gie":1255,"ktu":1256,"ĠThem":1257,"ĠBild":1258,"folg":1259,"klÃ¤r":1260,"ek":1261,"ĠÃĸ":1262,"ment":1263,"pr":1264,"stellen":1265,"ww":1266,"ierten":1267,"zei":1268,"if":1269,"Ġheute":1270,"ĠWasser":1271,"tag":1272,"hÃ¤lt":1273,"ohl":1274,"raum":1275,"Ġverschieden":1276,"Ġneuen":1277,"haus":1278,"Ã¼l":1279,"Al":1280,"Ã¤ÃŁ":1281,"ĠFor":1282,"ĠBau":1283,"ĠNeu":1284,"recht":1285,"Wir":1286,"Ġ15":1287,"ĠkÃ¶nn":1288,"Ġdrei":1289,"bel":1290,"entlich":1291,"ĠRo":1292,"Ġverl":1293,"Ġdazu":1294,"str":1295,"zahl":1296,"Ġte":1297,"erne":1298,"Ġalso":1299,"Ġdiesen":1300,"ĠStra":1301,"uÃŁ":1302,"nit":1303,"org":1304,"Ġvers":1305,"atÃ¼rlich":1306,"ign":1307,"reiben":1308,"Ã¼nst":1309,"Ġkommt":1310,"forder":1311,"Ġbeg":1312,"Ġschnell":1313,"sicht":1314,"Ã¤hrend":1315,"ĠGeb":1316,"iss":1317,"man":1318,"ĠKunden":1319,"ĠWenn":1320,"ĠEl":1321,"ĠFre":1322,"ende":1323,"ĠZus":1324,"ĠWohn":1325,"ĠSex":1326,"wort":1327,"Ġihrer":1328,"echn":1329,"ĠMed":1330,"ĠGl":1331,"ĠfÃ¼hr":1332,"ĠPf":1333,"Ã¤hl":1334,"Ġweil":1335,"Ġkosten":1336,"ĠInter":1337,"hÃ¤n":1338,"Ġbef":1339,"wa":1340,"klich":1341,"Ġsei":1342,"ĠSti":1343,"ĠUr":1344,"ammen":1345,"Ġ12":1346,"amp":1347,"ĠDes":1348,"ĠTe":1349,"Ġverb":1350,"ĠSte":1351,"ĠWei":1352,"gar":1353,"Ġeinmal":1354,"achten":1355,"Ġsicher":1356,"ilder":1357,"ĠDiese":1358,"ER":1359,"Ġmeine":1360,"ym":1361,"__":1362,"eister":1363,"Ġde":1364,"stag":1365,"Ġhoch":1366,"uche":1367,"ron":1368,"ĠAuch":1369,"Ġihn":1370,"ritt":1371,"Ġsteht":1372,"hin":1373,"ĠBundes":1374,"Ġfol":1375,"ĠschÃ¶n":1376,"werk":1377,"ĠEine":1378,"Ġnie":1379,"rat":1380,"sprechen":1381,"hau":1382,"Ġihren":1383,"Ġjeder":1384,"isten":1385,"riv":1386,"Ã¼nd":1387,"tlich":1388,"stÃ¼t":1389,"mus":1390,"schlie":1391,"ĠAber":1392,"ĠSeite":1393,"mann":1394,"fern":1395,"rem":1396,"ĠInternet":1397,"ĠGem":1398,"schein":1399,"ĠVerb":1400,"nahme":1401,"ĠOn":1402,"ĠLe":1403,"10":1404,"grund":1405,"eter":1406,"gew":1407,"yp":1408,"ĠInformationen":1409,"Ġho":1410,"ĠWar":1411,"agt":1412,"bung":1413,"ĠGen":1414,"Ġseinen":1415,"ĠEuro":1416,"zogen":1417,"zial":1418,"cker":1419,"Ã¤uf":1420,"allen":1421,"umen":1422,"ionen":1423,"rain":1424,"immt":1425,"Ġjedoch":1426,"ĠSchu":1427,"altung":1428,"ker":1429,"ĠMo":1430,"ĠFil":1431,"ĠFrei":1432,"falls":1433,"ott":1434,"ĠGro":1435,"ĠSchl":1436,"euch":1437,"ĠWie":1438,"kun":1439,"Ġsol":1440,"nisse":1441,"ringen":1442,"ĠNutz":1443,"--":1444,"ens":1445,"zug":1446,"Ġlang":1447,"ĠFot":1448,"pti":1449,"âĢľ,":1450,"chn":1451,"Ġvoll":1452,"ĠArt":1453,"az":1454,"enz":1455,"kehr":1456,"eitet":1457,"Ġblei":1458,"weit":1459,"ĠJu":1460,"Ġgeb":1461,"ĠRÃ¼ck":1462,"cke":1463,"ĠLu":1464,"Ġen":1465,"Ġallem":1466,"Ġrecht":1467,"legen":1468,"ĠMann":1469,"Ver":1470,"af":1471,"Ã¤ft":1472,"ĠDe":1473,"ĠDurch":1474,"Mit":1475,"Ġdort":1476,"ĠwÃ¼rde":1477,"Ġbietet":1478,"stÃ¤nd":1479,"jekt":1480,"ĠFall":1481,"gabe":1482,"prÃ¤":1483,"schluss":1484,"lug":1485,"fang":1486,"ĠNe":1487,"ĠBuch":1488,"Ġâ":1489,"als":1490,"ider":1491,"Ġfest":1492,"Ã¤nger":1493,"orgen":1494,"tre":1495,"ĠKomm":1496,"Ġeinge":1497,"Ġem":1498,"frei":1499,"Ġben":1500,"Ġwelche":1501,"eitung":1502,"fÃ¤l":1503,"ennt":1504,"riff":1505,"tier":1506,"ĠHier":1507,"ice":1508,"Ġgar":1509,"ingen":1510,"ĠÃĦ":1511,"itte":1512,"von":1513,"ĠFamil":1514,"gramm":1515,"Ġfrei":1516,"kon":1517,"alis":1518,"11":1519,"Ġbzw":1520,"Ġkon":1521,"wor":1522,"Ġeh":1523,"Ġinter":1524,"Ġkom":1525,"fort":1526,"ations":1527,"ĠLin":1528,"Ã¶rt":1529,"ote":1530,"Ġmacht":1531,"Ġallen":1532,"ĠMÃ¶glich":1533,"ĠBereich":1534,"anst":1535,"ĠProblem":1536,"arbeiten":1537,"orf":1538,"Ġsehen":1539,"Ġihm":1540,"rieben":1541,"Ġbel":1542,"ckt":1543,"uer":1544,"ipp":1545,"Ġaktu":1546,"enk":1547,"ĠBeg":1548,"Ġstehen":1549,"kunft":1550,"ĠAngeb":1551,"Ġwirklich":1552,"ĠSon":1553,"ĠDr":1554,"ĠLebens":1555,"Ġbr":1556,"co":1557,"Ġbesser":1558,"tigt":1559,"schied":1560,"els":1561,"tiert":1562,"raf":1563,"gaben":1564,"ĠForm":1565,"ĠBerlin":1566,"raft":1567,"ilfe":1568,"ĠEnde":1569,"ĠÂ»":1570,"iet":1571,"Ġnichts":1572,"Im":1573,"seite":1574,"ĠUS":1575,"Ġbeh":1576,"inanz":1577,"wicklung":1578,"stens":1579,"ans":1580,"Ġkonnte":1581,"asst":1582,"icherheit":1583,"hÃ¶":1584,"ys":1585,"schaften":1586,"ĠFrauen":1587,"dings":1588,"tt":1589,"Ã¼nf":1590,"kten":1591,"hop":1592,"ĠAll":1593,"ĠSchul":1594,"ĠStud":1595,"fil":1596,"ĠKar":1597,"zer":1598,"Ġerhalten":1599,"one":1600,"ug":1601,"weil":1602,"einer":1603,"rum":1604,"ĠStand":1605,"Ġletzten":1606,"neh":1607,"unst":1608,"Ġverw":1609,"Ġ[":1610,"19":1611,"ite":1612,"etten":1613,"anis":1614,"Ġ,":1615,"kauf":1616,"Ġliegt":1617,"ĠnatÃ¼rlich":1618,"ĠPreis":1619,"opf":1620,"ĠBesch":1621,"Ġ14":1622,"ĠDies":1623,"eilen":1624,"Ġwichtig":1625,"Ġleich":1626,"stoff":1627,"bo":1628,"ĠgrÃ¶":1629,"ersÃ¶n":1630,"Ġ.":1631,"av":1632,"ktur":1633,"rom":1634,"ĠCo":1635,"ĠY":1636,"Ġ2018":1637,"12":1638,"obil":1639,"Ġ16":1640,"Ġgerne":1641,"ielt":1642,"wohl":1643,"Ġmus":1644,"zeug":1645,"eider":1646,"ĠKosten":1647,"ultur":1648,"uter":1649,"ĠWeiter":1650,"Ġstatt":1651,"ĠArbeits":1652,"ĠdafÃ¼r":1653,"lex":1654,"utzen":1655,"hlen":1656,"Ġwollen":1657,"ĠBÃ¼r":1658,"Ġverst":1659,"achsen":1660,"ĠStel":1661,"Ġ30":1662,"ĠOber":1663,"Es":1664,"tikel":1665,"gangen":1666,"Ġwohl":1667,"olit":1668,"ĠHoch":1669,"ĠOnline":1670,"Ĥ¬":1671,"Ġgenau":1672,"zimmer":1673,"ember":1674,"ĠnÃ¤ch":1675,"Ġgemein":1676,"ĠSu":1677,"app":1678,"ĠmÃ¶chte":1679,"inger":1680,"Ġon":1681,"voll":1682,"Ġgeben":1683,"sÃ¤tz":1684,"bet":1685,"ennen":1686,"arm":1687,"bie":1688,"EN":1689,"Ã¼ss":1690,"ĠPh":1691,"etter":1692,"ĠZusammen":1693,"ĠMal":1694,"heim":1695,"ette":1696,"50":1697,"bei":1698,"aterial":1699,"Ġwe":1700,"leist":1701,"ager":1702,"punkt":1703,"ĠEurop":1704,"rÃ¤n":1705,"ĠSta":1706,"Ã¶rper":1707,"hand":1708,"isk":1709,"rech":1710,"Ġschw":1711,"Ġgerade":1712,"30":1713,"ino":1714,"Ã¤ter":1715,"rift":1716,"ĠFach":1717,"ellschaft":1718,"ĠwÃ¤hrend":1719,"Ġdirekt":1720,"Ġweitere":1721,"ĠBed":1722,"ĠSport":1723,"iere":1724,"nehmen":1725,"Ġget":1726,"itzen":1727,"ĠwÃ¤re":1728,"igung":1729,"Ġjeden":1730,"ingt":1731,"Ġrund":1732,"ĠIhrer":1733,"leicht":1734,"stra":1735,"Ġvielen":1736,"lig":1737,"Ġseinem":1738,"ĠKÃ¼":1739,"ahmen":1740,"verb":1741,"sol":1742,"\",":1743,"ĠLeist":1744,"Ġ17":1745,"ĠMusik":1746,"ruppe":1747,"Ġ:":1748,"utter":1749,"iff":1750,"beh":1751,"opp":1752,"Ġdenen":1753,"ĠSel":1754,"druck":1755,"Ġeinige":1756,"ĠWeg":1757,"ied":1758,"icken":1759,"Ġir":1760,"ĠlÃ¤":1761,"Ġwenig":1762,"bereich":1763,"rist":1764,"ative":1765,"ĠSa":1766,"ĠGeld":1767,"âĢĿ":1768,"schlieÃŁ":1769,"Ġhand":1770,"ĠhÃ¤t":1771,"ĠgroÃŁe":1772,"Ġkurz":1773,"aÃŁ":1774,"Ġoft":1775,"ĠMod":1776,"licht":1777,"ĠBeh":1778,"Ġu":1779,"Ġ100":1780,"aher":1781,"Ġunseren":1782,"mÃ¶glich":1783,"Ġbeiden":1784,"ĠEner":1785,"Ġgehen":1786,"ief":1787,"je":1788,"itu":1789,"ĠStr":1790,"scheid":1791,"ĠgroÃŁen":1792,"ix":1793,"are":1794,"ven":1795,"Ġbieten":1796,"18":1797,"gestellt":1798,"ĠGemein":1799,"erk":1800,"Ġoffen":1801,"Ġlange":1802,"ĠVide":1803,"rotz":1804,"ose":1805,"Ġdarauf":1806,"sl":1807,"Ġmo":1808,"ĠSeiten":1809,"ĠGegen":1810,"Ġbesonders":1811,"achte":1812,"Ã¶rder":1813,"Ġempf":1814,"ĠMitgl":1815,"mb":1816,"olz":1817,"ib":1818,"Ġof":1819,"Ã¶ren":1820,"Ġfr":1821,"stadt":1822,"Ġetwa":1823,"ax":1824,"ĠHotel":1825,"Ġbrau":1826,"ufen":1827,"ĠWochen":1828,"IN":1829,"aler":1830,"Ġsex":1831,"Ġeigenen":1832,"arbeitung":1833,"Sp":1834,"ehn":1835,"Ġsogar":1836,"ahlen":1837,"ĠGeschÃ¤ft":1838,"feld":1839,"ĠÃ¶ff":1840,"ĠgroÃŁ":1841,"ĠThema":1842,"Ġstell":1843,"gÃ¤n":1844,"ĠPlatz":1845,"ere":1846,"eigt":1847,"ĠMill":1848,"ampf":1849,"ĠFar":1850,"20":1851,"Ġgemacht":1852,"Er":1853,"Ġverm":1854,"urs":1855,"reise":1856,"weis":1857,"lossen":1858,"!!":1859,"Ġerste":1860,"old":1861,"auft":1862,"ings":1863,"mar":1864,"einander":1865,"Sie":1866,"Ġentsprechen":1867,"ĠTechn":1868,"Ġwissen":1869,"Ġteil":1870,"Ã¼b":1871,"ilt":1872,"ĠAls":1873,"Ġ13":1874,"ologie":1875,"legt":1876,"ĠChr":1877,"ĠGo":1878,"ĠkÃ¶nnte":1879,"scht":1880,"fÃ¼l":1881,"Ġca":1882,"genden":1883,"ĠauÃŁer":1884,"CH":1885,"jÃ¤hr":1886,"ĠIde":1887,"Pro":1888,"ommer":1889,"ĠlÃ¤sst":1890,"ĠOrt":1891,"Ġbesten":1892,"laub":1893,"ĠNatur":1894,"fÃ¼hrt":1895,"ĠPar":1896,"gegen":1897,"ister":1898,"leben":1899,"Ã¼d":1900,"ĠBeispiel":1901,"hof":1902,"Ġch":1903,"Ġjeweil":1904,"aben":1905,"mÃ¤ÃŁ":1906,"wand":1907,"ĠAd":1908,"ĠRahmen":1909,"Ġ11":1910,"mm":1911,"ore":1912,"ĠKn":1913,"echt":1914,"ĠpersÃ¶n":1915,"ĠFol":1916,"ĠIhren":1917,"ĠHÃ¶":1918,"ond":1919,"ĠMittel":1920,"Ġeuch":1921,"ub":1922,"ĠKunst":1923,"ĠfrÃ¼":1924,"bildung":1925,"ame":1926,"zieh":1927,"Ã¤ten":1928,"arbeiter":1929,"ĠProzent":1930,"nitt":1931,"Ġinner":1932,"Ã©":1933,"ĠKr":1934,"Ġunserem":1935,"ware":1936,"ĠTer":1937,"ĠErfahr":1938,"ĠVerein":1939,"antwort":1940,"Ġdavon":1941,"yn":1942,"nahmen":1943,"ĠFir":1944,"wahl":1945,"ĠEm":1946,"ĠX":1947,"ĠSicherheit":1948,"roffen":1949,"ollte":1950,"ichtet":1951,"Ġaufge":1952,"Ġfast":1953,"welt":1954,"glichen":1955,"ivers":1956,"ĠSpr":1957,"ĠDienst":1958,"Â«":1959,"Ġgute":1960,"tieren":1961,"âĢŀ":1962,"ĠTex":1963,"anken":1964,"ffe":1965,"ĠThe":1966,"ĠJugend":1967,"ĠRegel":1968,"ĠZiel":1969,"inen":1970,"Ġentwick":1971,"Ġwei":1972,"etzen":1973,"Ġrichtig":1974,"ĠOb":1975,"omat":1976,"Ġ50":1977,"Ġgemeinsam":1978,"ĠweiÃŁ":1979,"ĠAnt":1980,"Ġpl":1981,"red":1982,"Ġfindet":1983,"ĠTeam":1984,"Ã¤tig":1985,"Ġzie":1986,"urt":1987,"Ġel":1988,"ĠAben":1989,"Ġind":1990,"ĠFrank":1991,"ĠApp":1992,"Ġinteress":1993,"ĠFrage":1994,".âĢľ":1995,"Wenn":1996,"Ġabge":1997,"ĠSer":1998,"tik":1999,"ĠSystem":2000,"ober":2001,"Ġgilt":2002,"eisten":2003,"ĠDar":2004,"ase":2005,"ina":2006,"ĠMark":2007,"Ġhinter":2008,"ĠHaupt":2009,"annten":2010,"auen":2011,"anten":2012,"Ġpaar":2013,"Ġmeiner":2014,"ĠMet":2015,"zung":2016,"Ġdich":2017,"isches":2018,"Ġthe":2019,"Ã¤hlen":2020,"up":2021,"ĠDi":2022,"ĠEigen":2023,"Ġvier":2024,"Ġrei":2025,"ath":2026,"Bei":2027,"amer":2028,"Ġirgend":2029,"....":2030,"ivi":2031,"ure":2032,"Ġzwar":2033,"fÃ¼hrung":2034,"stÃ¼ck":2035,"ome":2036,"ĠKir":2037,"Ġx":2038,"ĠMehr":2039,"Ġkleine":2040,"ĠBeit":2041,"ĠVert":2042,"ball":2043,"Ġderen":2044,"rauen":2045,"ĠVerfÃ¼":2046,"ĠQualitÃ¤t":2047,"gehen":2048,"ĠSelbst":2049,"platz":2050,"ĠverfÃ¼":2051,"Ġihrem":2052,"Â»":2053,"reffen":2054,"iges":2055,"Ġheraus":2056,"buch":2057,"jahr":2058,"tiv":2059,"ĠBesuch":2060,"li":2061,"ĠBilder":2062,"alter":2063,"ubl":2064,"ĠHin":2065,"ital":2066,"Nach":2067,"scher":2068,"ĠFragen":2069,"Ġerfolg":2070,"Ġ25":2071,"blick":2072,"sy":2073,"ĠRechts":2074,"des":2075,"mÃ¶":2076,"liches":2077,"beding":2078,"ets":2079,"Ã¤tze":2080,"iker":2081,"schw":2082,"ĠâĢľ":2083,"Ġ199":2084,"ĠSk":2085,"ĠEU":2086,"ĠArtikel":2087,"ĠPartner":2088,"Ġkleinen":2089,"Ġgab":2090,"ĠHa":2091,"Ġern":2092,"atten":2093,"Ġonline":2094,"Ġgl":2095,"ĠFest":2096,"Ã¤us":2097,"ĠâĢ¦":2098,"hle":2099,"Ġ2017":2100,"heiten":2101,"Ġgesp":2102,"undheit":2103,"ile":2104,"Ġhatten":2105,"agement":2106,"ĠAuft":2107,"uren":2108,"lichkeit":2109,"Ġschwer":2110,"ĠVerl":2111,"ĠEnergie":2112,"ĠKom":2113,"ĠPrÃ¤":2114,"ividu":2115,"zept":2116,"Ã¤ndern":2117,"echs":2118,"Ġallerdings":2119,"Ġ#":2120,"vent":2121,"atte":2122,"ĠdaÃŁ":2123,"ĠJun":2124,"ĠSchwei":2125,"indung":2126,"ons":2127,"ĠMÃ¼n":2128,"rakti":2129,"AN":2130,"Ġspez":2131,"reg":2132,"Ġnehmen":2133,"ĠMe":2134,"ĠDenn":2135,"ĠZahl":2136,"arte":2137,"ĠunterstÃ¼t":2138,"15":2139,"ĠEinsatz":2140,"ĠDoch":2141,"ichts":2142,"ock":2143,"Ġneben":2144,"lege":2145,"ĠViel":2146,"ĠNov":2147,"stehen":2148,"Ã¤hlt":2149,"ĠWissen":2150,"ĠVol":2151,"annte":2152,"ehlen":2153,"indest":2154,"Ġwahr":2155,"ĠprÃ¤":2156,"ity":2157,"com":2158,"Ġunterschied":2159,"Ã¤hn":2160,"Ġtun":2161,"spro":2162,"flÃ¤":2163,"ain":2164,"genommen":2165,"ĠspÃ¤ter":2166,"Ã¤nd":2167,"site":2168,"Ġro":2169,"bach":2170,"agte":2171,"Ġsollten":2172,"ĠGeschichte":2173,"rÃ¼f":2174,"ĠBel":2175,"ator":2176,"ĠFuÃŁ":2177,"rauch":2178,"spruch":2179,"ĠStÃ¼ck":2180,"ĠServ":2181,"ĠDir":2182,"ĠRu":2183,"ĠJe":2184,"Ġkaufen":2185,"ichtige":2186,"Ã¶ffentlich":2187,"ĠdÃ¼r":2188,"Mail":2189,"th":2190,"ĠTr":2191,"eller":2192,"ogle":2193,"zÃ¼":2194,"ĠPer":2195,"ĠRecht":2196,"les":2197,"rÃ¤ge":2198,"mbH":2199,"sterreich":2200,"ĠMarkt":2201,"deut":2202,"setzung":2203,"ester":2204,"ĠVon":2205,"ĠKrank":2206,"mals":2207,"ĠFer":2208,"bezogen":2209,"ĠMÃ¶glichkeit":2210,"Ġweit":2211,"ool":2212,"ĠerklÃ¤r":2213,"ĠFunktion":2214,"utt":2215,"Auf":2216,"ĠAngebot":2217,"ĠProjekt":2218,"leb":2219,"ruktur":2220,"laden":2221,"arbeitet":2222,"ruppen":2223,"ĠKontakt":2224,"baren":2225,"Ġkam":2226,"affen":2227,"Ġbekommen":2228,"lieÃŁ":2229,"Ġleben":2230,"emen":2231,"Ġverk":2232,"Ġstark":2233,"ĠMÃ¤n":2234,"ersonen":2235,"Ġeigentlich":2236,"Ġ24":2237,"Ġnah":2238,"ĠBeruf":2239,"ĠFilm":2240,"Ġihnen":2241,"ĠPat":2242,"ĠKa":2243,"bare":2244,"ĠPr":2245,"sf":2246,"ĠProdukt":2247,"omit":2248,"wendung":2249,"ational":2250,"ient":2251,"Ġworden":2252,"ĠBlick":2253,"erst":2254,"eint":2255,"Ġsagen":2256,"ĠBetrieb":2257,"FÃ¼r":2258,"gst":2259,"mo":2260,"wohn":2261,"14":2262,"Ã¤te":2263,"ĠBÃ¼":2264,"ĠLehr":2265,"âĢľ.":2266,"ĠTage":2267,"steller":2268,"fon":2269,"ĠGeh":2270,"Ġintern":2271,"ĠTran":2272,"rigen":2273,"ĠGmbH":2274,"Ġvert":2275,"ĠMinuten":2276,"ĠGrÃ¼n":2277,"ĠNetz":2278,"Ġaut":2279,"Ġleicht":2280,"ĠWe":2281,"Ġkeinen":2282,"Ġgek":2283,"ĠVerfÃ¼gung":2284,"dent":2285,"olf":2286,"ession":2287,"//":2288,"16":2289,"Ġopti":2290,"aren":2291,"arf":2292,"Ġzeigt":2293,"ĠAuto":2294,"ĠMÃ¤r":2295,"Ġweniger":2296,"reiche":2297,"Ġstellen":2298,"Ġzahl":2299,"ĠSchn":2300,"gesetzt":2301,"zel":2302,"ffiz":2303,"werb":2304,"ĠGroÃŁ":2305,"ĠRaum":2306,"ĠVeranst":2307,"ĠhÃ¤tte":2308,"ĠKo":2309,"ĠHe":2310,"bin":2311,"ĠWirtschaft":2312,"gemein":2313,"Ġfor":2314,"ĠWor":2315,"kung":2316,"ance":2317,"Ã¼ler":2318,"ĠMein":2319,"reifen":2320,"icherung":2321,"Ġschreiben":2322,"Ġcm":2323,"Ġqu":2324,"://":2325,"ĠErgeb":2326,"Ġverschiedenen":2327,"schung":2328,"lungen":2329,"ĠHam":2330,"ĠIhrem":2331,"nehmer":2332,"stÃ¤ndig":2333,"ption":2334,"ĠPersonen":2335,"Ã¤ren":2336,"Ġbede":2337,"Ã¤nde":2338,"ichtung":2339,"ĠBas":2340,"sweise":2341,"ienen":2342,"ĠTele":2343,"ĠNacht":2344,"warz":2345,"ĠVertrag":2346,"Ġmeinen":2347,"ĠAugen":2348,"ĠTest":2349,"ĠJahres":2350,"geber":2351,"Ġfreu":2352,"Am":2353,"ĠzusÃ¤tz":2354,"hÃ¤ng":2355,"stein":2356,"ĠFrÃ¼":2357,"unk":2358,"ĠVort":2359,"ĠReise":2360,"besser":2361,"sport":2362,"Ġerfol":2363,"fÃ¼hl":2364,"fr":2365,"eten":2366,"halte":2367,"Ġdaher":2368,"ĠAbs":2369,"mel":2370,"ĠKÃ¶rper":2371,"Ġebenfalls":2372,"Ġerz":2373,"17":2374,"ĠWebsite":2375,"pen":2376,"inner":2377,"Ġ2016":2378,"ĠLandes":2379,"ĠDann":2380,"Ġeher":2381,"ummer":2382,"ichtigen":2383,"itel":2384,"orien":2385,"ĠMitarbeiter":2386,"Ġvielleicht":2387,"ĠFlug":2388,"ĠDat":2389,"ĠRad":2390,"utzt":2391,"ĠDank":2392,"ĠTrain":2393,"wasser":2394,"Ã¶ÃŁe":2395,"Ġkompl":2396,"scheiden":2397,"ĠâĤ¬":2398,"ĠKomp":2399,"abel":2400,"schlag":2401,"Ã¤chst":2402,"Ã¤um":2403,"ĠKap":2404,"assung":2405,"Ã¶sung":2406,"artner":2407,"ante":2408,"____":2409,"Ġpassen":2410,"ĠNew":2411,"ĠWind":2412,"200":2413,"ĠDesign":2414,"ches":2415,"Ġbew":2416,"ĠHal":2417,"ĠProf":2418,"Ġsollen":2419,"treten":2420,"Ġend":2421,"Ġwegen":2422,"tif":2423,"zeitig":2424,"lÃ¤ss":2425,"leg":2426,"wendet":2427,"ĠKind":2428,"Ġkannst":2429,"ct":2430,"ĠAt":2431,"ĠDabei":2432,"ĠSommer":2433,"ĠBen":2434,"ondere":2435,"ĠJan":2436,"\".":2437,"izin":2438,"herap":2439,"lose":2440,"zess":2441,"aly":2442,"Ãľ":2443,"sere":2444,"Ġbesteht":2445,"leid":2446,"Ġkostenlos":2447,"Ġangeb":2448,"ĠSal":2449,"ruf":2450,"par":2451,"lauf":2452,"ĠStunden":2453,"ters":2454,"zlich":2455,"ĠRest":2456,"unt":2457,"ĠMaterial":2458,"hren":2459,"schule":2460,"ĠAbend":2461,"spl":2462,"ĠgehÃ¶rt":2463,"ieg":2464,"Ġbekannt":2465,"tember":2466,"ika":2467,"reund":2468,"fin":2469,"Ġspielen":2470,"ĠKat":2471,"statt":2472,"ĠLi":2473,"Ġsieht":2474,"osition":2475,"ĠEntwicklung":2476,"ĠInst":2477,"ĠWahl":2478,"Ġsonst":2479,"ĠDen":2480,"ikation":2481,"tisch":2482,"ĠJul":2483,"sehen":2484,".\"":2485,"ĠDem":2486,"gende":2487,"lay":2488,"Ġsofort":2489,"âĢĻ":2490,"Ġkn":2491,"ĠWerk":2492,"Ġging":2493,"besch":2494,"ĠProgramm":2495,"ĠWert":2496,"elfen":2497,"Ġzun":2498,"Ġtrotz":2499,"ilf":2500,"ĠHerr":2501,"Ġkont":2502,"Ġbitte":2503,"Ġbleibt":2504,"ĠNamen":2505,".)":2506,"ĠOrg":2507,"ernen":2508,"Ġinnerhalb":2509,"Ġindividu":2510,"ĠGott":2511,"ĠOkt":2512,"ĠnÃ¤chsten":2513,"Ġnutzen":2514,"otor":2515,"Ġwerde":2516,"ĠSam":2517,"urop":2518,"iken":2519,"die":2520,"So":2521,"weisen":2522,"Ġbisher":2523,"Ġeinzel":2524,"ĠAug":2525,"rax":2526,"rieden":2527,"ĠCas":2528,"ĠChrist":2529,"ĠKauf":2530,"ins":2531,"Ã¤f":2532,"ĠGarten":2533,"walt":2534,"Ġwunder":2535,"ĠGel":2536,"tegr":2537,"tragen":2538,"Aus":2539,"ĠdarÃ¼ber":2540,"ĠFinanz":2541,"13":2542,"eignet":2543,"Ġbed":2544,"sych":2545,"ĠGoogle":2546,"ĠHolz":2547,"ĠBad":2548,"ktionen":2549,"ĠLuft":2550,"iegel":2551,"ĠNicht":2552,"schuhe":2553,"arr":2554,"ĠWoche":2555,"pfen":2556,"Ġjedem":2557,"Ġsagt":2558,"ritten":2559,"Ġsagte":2560,"unkte":2561,"anzen":2562,"Ġleider":2563,"laf":2564,"ĠBÃ¼rger":2565,";;":2566,"Ġ40":2567,"gef":2568,"Ġklar":2569,"Ġwollte":2570,"Ġdarf":2571,"auber":2572,"ĠTa":2573,"ĠGeschÃ¤fts":2574,"ĠUnivers":2575,"ĠPlan":2576,"ĠGut":2577,"Ġdeutschen":2578,"ĠKopf":2579,"ĠmÃ¶chten":2580,"Ġreg":2581,"ĠDruck":2582,"tler":2583,"Ġ2015":2584,"Eine":2585,"ftware":2586,"Ġpersonen":2587,"Ġdeutlich":2588,"cen":2589,"besondere":2590,"Ġregel":2591,"echsel":2592,"haft":2593,"ikan":2594,"ĠBro":2595,"ĠProdukte":2596,"ĠÂ§":2597,"Ġklein":2598,"system":2599,"Ġstellt":2600,"met":2601,"geh":2602,"Ġganze":2603,"Ġjem":2604,"schnitt":2605,"Ã¤dchen":2606,"ĠGesundheit":2607,"lub":2608,"vest":2609,"Ġersch":2610,"itÃ¤ten":2611,"Ar":2612,"Ġmeisten":2613,"ĠFamilie":2614,"ko":2615,"Ġinform":2616,"fest":2617,"ĠgrÃ¶ÃŁ":2618,"rÃ¼ck":2619,"ĠZum":2620,"aur":2621,"ĠGed":2622,"Ġfunktion":2623,"chte":2624,"dienst":2625,"itter":2626,"leitung":2627,"Ġ%":2628,"Ġmeinem":2629,"ĠTÃ¼r":2630,"ĠJuni":2631,"ĠBand":2632,"Ġbleiben":2633,"entr":2634,"ĠAlle":2635,"Ġ+":2636,"orno":2637,"ĠheiÃŁ":2638,"gesetz":2639,"24":2640,"ĠLes":2641,"ĠKultur":2642,"ots":2643,"Ġpersonenbezogen":2644,"akte":2645,"eien":2646,"usst":2647,"meld":2648,"ĠZukunft":2649,"Ã¶hn":2650,"ĠbenÃ¶":2651,"Ġschle":2652,"ĠSchutz":2653,"ps":2654,"ĠWinter":2655,"ismus":2656,"haupt":2657,"Ġpriv":2658,"ĠDatenschutz":2659,"ieb":2660,"oc":2661,"iter":2662,"ĠEle":2663,"ĠhÃ¶":2664,"ĠGast":2665,"zip":2666,"ĠFamilien":2667,"ĠLiefer":2668,"ungsk":2669,"wÃ¼r":2670,"ĠSh":2671,"ĠMai":2672,"ight":2673,"Ġand":2674,"ĠSchÃ¼ler":2675,"own":2676,"rieg":2677,"ĠZwei":2678,"asch":2679,"Ġerwar":2680,"ĠKommun":2681,"ĠHilfe":2682,"Ġhinaus":2683,"Ġbl":2684,"Ġtechn":2685,"ĠPriv":2686,"ise":2687,"umm":2688,"igt":2689,"ĠOktober":2690,"Ġoben":2691,"atung":2692,"ĠSep":2693,"Ã¤chlich":2694,"eichen":2695,"ĠNeben":2696,"adurch":2697,"ĠÂ«":2698,"ĠfÃ¼":2699,"stimm":2700,"Ġaktiv":2701,"Ġgesam":2702,"ĠBi":2703,"Ġjede":2704,"ĠFern":2705,"ison":2706,"ĠFreund":2707,"ĀĀ":2708,"ĠNieder":2709,"Ġverd":2710,"ĠEltern":2711,"othe":2712,"gesamt":2713,"ĠAk":2714,"Ġkomp":2715,"ĠErfolg":2716,"ument":2717,"meister":2718,"stellungen":2719,"Ġbringen":2720,"ĠNutzung":2721,"inge":2722,"Ġkennen":2723,"ĠgegenÃ¼ber":2724,"Ã¶t":2725,"Ġverwendet":2726,"ordnung":2727,"griff":2728,"Ġeigene":2729,"Ġzeigen":2730,"ĠEd":2731,"Ġprof":2732,"zeichnet":2733,"ĠNovember":2734,"etail":2735,"ou":2736,"Ġhast":2737,"Ġbestimm":2738,"ĠStart":2739,"Ġ22":2740,"igin":2741,"Ġdein":2742,"ĠMillionen":2743,"En":2744,"2018":2745,"ĠHÃ¶he":2746,"ari":2747,"techn":2748,"unge":2749,"ommun":2750,"tigkeit":2751,"lungs":2752,"ĠGÃ¤":2753,"son":2754,"sent":2755,"enzen":2756,"Ġnot":2757,"ĠHerz":2758,"zus":2759,"ĠSeptember":2760,"ĠVideo":2761,"ĠTour":2762,"ienten":2763,"Ġkaum":2764,"ĠSol":2765,"ĠÃ¶":2766,"klus":2767,"frage":2768,"Ġweiteren":2769,"ĠEntscheid":2770,"Ġ2014":2771,"ĠNord":2772,"anach":2773,"ehm":2774,"ĠBus":2775,"ĠÃ¼b":2776,"ĠLicht":2777,"richten":2778,"Ġverschiedene":2779,"Ġhtt":2780,"ksam":2781,"ĠAnfang":2782,"Ġhalten":2783,"-,":2784,"ĠWider":2785,"fel":2786,"Ġerk":2787,"uck":2788,"ĠGesellschaft":2789,"ĠMedien":2790,"ativen":2791,"Ġguten":2792,"duz":2793,"ĠInf":2794,"ĠCook":2795,"ziehen":2796,"Ġerw":2797,"ĠSuche":2798,".,":2799,"ums":2800,"Ġ21":2801,"ĠfÃ¼hren":2802,"www":2803,"ĠgÃ¼nst":2804,"ĠEinzel":2805,"zuf":2806,"80":2807,"raxis":2808,"will":2809,"ĠRes":2810,"Ġhelfen":2811,"ritte":2812,"Ġwelt":2813,"ĠMaÃŁ":2814,"abl":2815,"Ġsuchen":2816,"hein":2817,"setzen":2818,"Ġhal":2819,"ĠhÃ¤uf":2820,"ĠKÃ¶n":2821,"Ġide":2822,"ĠPoliz":2823,"stelle":2824,"ĠPolit":2825,"Ġerforder":2826,"ĠfÃ¼nf":2827,"ĠLauf":2828,"wirtschaft":2829,"ĠErn":2830,"bieter":2831,"hab":2832,"ĠAuswahl":2833,"Ġne":2834,"ĠBoden":2835,"ĠGlÃ¼ck":2836,"ĠHeim":2837,"entlichen":2838,"drÃ¼ck":2839,"ĠTem":2840,"ST":2841,"dorf":2842,"Vor":2843,"ĠRegion":2844,"iell":2845,"osit":2846,"ult":2847,"istor":2848,"Ġsozial":2849,"ĠHinter":2850,"Wie":2851,"port":2852,"gest":2853,"ehler":2854,"bert":2855,"radition":2856,"Ġabsol":2857,"ĠNÃ¤":2858,"Ġweg":2859,"klÃ¤rung":2860,"ahren":2861,"mÃ¤ÃŁig":2862,"ĠBar":2863,"ausch":2864,"ĠInnen":2865,"Ġerf":2866,"wegen":2867,"itze":2868,"ï¿":2869,"ĠVerarbeitung":2870,"Ġhervor":2871,"rÃ¤gt":2872,"ĠMag":2873,"ĠBeitrag":2874,"ï¿½":2875,"sa":2876,"ĠMÃ¤rz":2877,"25":2878,"lang":2879,"ande":2880,"yl":2881,"ĠAnd":2882,"ĠBay":2883,"Ġunver":2884,"ĠerhÃ¤lt":2885,"Ġsu":2886,"unsch":2887,"onnen":2888,"orgt":2889,"Ġdessen":2890,"ĠThemen":2891,"ograf":2892,"schul":2893,"ĠGest":2894,"ĠPark":2895,"Ber":2896,"geschlossen":2897,"igit":2898,"Ġkonnten":2899,"rich":2900,"ĠTier":2901,"Ġbevor":2902,"Ġumf":2903,"tische":2904,"ielle":2905,"ĠKraft":2906,"iver":2907,"Ã¼ndig":2908,"Ġar":2909,"Ġvorh":2910,"ĠService":2911,"kr":2912,"pfer":2913,"ĠFÃ¼hr":2914,"ĠSteuer":2915,"Ã¶sen":2916,"markt":2917,"Ġerfahren":2918,"ĠApr":2919,"ĠUSA":2920,"asen":2921,"ĠKlein":2922,"60":2923,"organis":2924,"tens":2925,"ateg":2926,"Ġsowohl":2927,"onen":2928,"Ġbereit":2929,"ĠDez":2930,"Ġfl":2931,"ĠHei":2932,"sver":2933,"ĠJuli":2934,"ublik":2935,"wissen":2936,"IT":2937,"nach":2938,"uar":2939,"redit":2940,"Ġhei":2941,"ebook":2942,"Ġru":2943,"flÃ¤che":2944,"ĠZwe":2945,"fÃ¤h":2946,"ĠtÃ¤":2947,"ĠJo":2948,"dresse":2949,"Ġ*":2950,"ĠChar":2951,"richtung":2952,"oph":2953,"Was":2954,"Ġnorm":2955,"Ġarbeiten":2956,"ĠMont":2957,"ĠFac":2958,"aub":2959,"ja":2960,"weiter":2961,"Ġsomit":2962,"wehr":2963,"ĠfÃ¼hrt":2964,"andlung":2965,"immen":2966,"Um":2967,"mart":2968,"Ġlesen":2969,"tra":2970,"Ġmehrere":2971,"ierungs":2972,"Ġ60":2973,"ima":2974,"auch":2975,"eier":2976,"lesen":2977,"akter":2978,"Ġbeispiel":2979,"ĠTagen":2980,"ĠAugust":2981,"ĠEis":2982,"eicher":2983,"Ġanders":2984,"straÃŁe":2985,"ĠWeise":2986,"schlieÃŁlich":2987,"Ġpolit":2988,"Ġhandelt":2989,"Ġgegeben":2990,"test":2991,"Ġliegen":2992,"Ġdaran":2993,".:":2994,"22":2995,"ĠTages":2996,"forderungen":2997,"Und":2998,"Ġdeine":2999,"ĠDis":3000,"ĠPost":3001,"ĠAc":3002,"Ġ23":3003,"Ġrein":3004,"Wer":3005,"hei":3006,"angeb":3007,"AR":3008,"Ġlin":3009,"Als":3010,"ĠlÃ¤nger":3011,"Ġzeit":3012,"----":3013,"ppen":3014,"fÃ¼hrer":3015,"utet":3016,"lass":3017,"acken":3018,"spiele":3019,"Ġpass":3020,"ĠLage":3021,"alien":3022,"ĠComp":3023,"ĠSozial":3024,"ĠZimmer":3025,"bahn":3026,"aun":3027,"ossen":3028,"schrift":3029,"fahrt":3030,"Ġglau":3031,"Ġ2013":3032,"ĠgrÃ¶ÃŁer":3033,"ĠDach":3034,"mitt":3035,"Ġ'":3036,"ĠSitz":3037,"Ġerfolgt":3038,"ĠVergleich":3039,"Ã¶nen":3040,"kreis":3041,"ĠSpieler":3042,"Ġmm":3043,"inne":3044,"ĠPap":3045,"ĠGener":3046,"ĠErw":3047,"peratur":3048,"fallen":3049,"igkeiten":3050,"Ġschl":3051,"ĠTur":3052,"Ġdeshalb":3053,"ĠElekt":3054,"Ã¤nge":3055,"ĠKin":3056,"40":3057,"ochen":3058,"Ġentscheiden":3059,"iellen":3060,"liegen":3061,"Ġgefunden":3062,"Ġmag":3063,"ickt":3064,"ĠDamen":3065,"Ġbetroffen":3066,"ehl":3067,"Ġstand":3068,"Ã¤llt":3069,"alle":3070,"daten":3071,"Ġautomat":3072,"geln":3073,"gebung":3074,"onntag":3075,"ĠhÃ¶her":3076,"ĠSÃ¼d":3077,"Auch":3078,"ĠFeuer":3079,"ĠAuss":3080,"ĠMutter":3081,"Ġmusste":3082,"ĠSchm":3083,"Ġsolche":3084,"hunder":3085,"altet":3086,"wertung":3087,"ĠheiÃŁt":3088,"sph":3089,"Ãĥ":3090,"reicht":3091,"nov":3092,"Ġinsbesondere":3093,"ĠGar":3094,"Ġjedes":3095,"gn":3096,"hilfe":3097,"get":3098,"last":3099,"Ã¼nstler":3100,"ĠDamit":3101,"hem":3102,"ĠIst":3103,"ftung":3104,"fft":3105,"ĠTra":3106,"ĠMÃ¤nner":3107,"AT":3108,"ĠApril":3109,"hre":3110,"Ġbegr":3111,"ĠUnterstÃ¼t":3112,"abil":3113,"riter":3114,"ĠHaut":3115,"Ġversch":3116,"Ġalten":3117,"ĠSil":3118,"ĠMÃ¼nchen":3119,"ka":3120,"gien":3121,"ungsver":3122,"ĠMil":3123,"ĠdÃ¼rfen":3124,"atis":3125,"plan":3126,"masch":3127,"zeiten":3128,"itten":3129,"Ġwes":3130,"Ġgesetz":3131,"tigung":3132,"teilung":3133,"Ġkm":3134,"Ġmittel":3135,"Ġmeist":3136,"Ġto":3137,"ieÃŁen":3138,"wÃ¤r":3139,"Ġfreuen":3140,"ĠSpaÃŁ":3141,"Ġtats":3142,"ĠEuropa":3143,"sei":3144,"ĠArch":3145,"irt":3146,"ÃŁerdem":3147,"trem":3148,"zig":3149,"minister":3150,"ĠWein":3151,"reibt":3152,"Ġaufgrund":3153,"ĠWahr":3154,"mobil":3155,"pe":3156,"ĠWeihn":3157,"'s":3158,"Ġsucht":3159,"Ġhochwer":3160,"ĠLiebe":3161,"ĠFoto":3162,"abe":3163,"oment":3164,"ĠStre":3165,"ĠÃ¤hn":3166,"Diese":3167,"iven":3168,"ĠÃĸsterreich":3169,"Ġganzen":3170,"ĠLeute":3171,"Ġzweiten":3172,"ĠJanuar":3173,"ĠGesetz":3174,"Ġprakti":3175,"ĠVoll":3176,"Ġdam":3177,"bank":3178,"kont":3179,"preis":3180,"ON":3181,"oo":3182,"reiber":3183,"behÃ¶r":3184,"ĠErk":3185,"Ġnotwend":3186,"roll":3187,"ĠUrlaub":3188,"ĠZur":3189,"ĠPort":3190,"furt":3191,"Ã¼hren":3192,"wiesen":3193,"ĠhÃ¶ch":3194,"isse":3195,"EL":3196,"wagen":3197,"ĠBeweg":3198,"ĠSing":3199,"oss":3200,"Da":3201,"ĠTop":3202,"Ġerreichen":3203,"ĠGebur":3204,"teilt":3205,"Ab":3206,"ĠprÃ¤sen":3207,"nete":3208,"racht":3209,"ragt":3210,"ĠNur":3211,"spann":3212,"produ":3213,"jekte":3214,"ĠCar":3215,"Ã¶ffentlicht":3216,"ĠII":3217,"kosten":3218,"ĠmÃ¶":3219,"ilden":3220,"Ġbeispielsweise":3221,"chten":3222,"Ã¶st":3223,"ĠMÃ¤dchen":3224,"Ġjemand":3225,"ĠLei":3226,"ĠPflege":3227,"ĠMensch":3228,"ĠBestell":3229,"ĠSen":3230,"mehr":3231,"ĠÃ¼berhaupt":3232,"Be":3233,"ĠHel":3234,"orie":3235,"Ġvorhanden":3236,"ions":3237,"ĠKur":3238,"ĠOrganis":3239,"ES":3240,"ĠVerantwort":3241,"spe":3242,"Ġ2012":3243,"Ġwelches":3244,"ĠHause":3245,"Ġvergangen":3246,"aktiv":3247,"ĠDon":3248,"Ã¤ufer":3249,"fekt":3250,"ĠAG":3251,"ĠGrÃ¶ÃŁe":3252,"ĠNot":3253,"ĠDezember":3254,"abhÃ¤ng":3255,"ĠInd":3256,"Ġwww":3257,"ĠKomment":3258,"ĠWien":3259,"ĠHerren":3260,"ĠMotor":3261,"tiger":3262,"Ã¤tzen":3263,"Ġinternation":3264,"rÃ¼fung":3265,"hÃ¤ltnis":3266,"gruppe":3267,"ĠDort":3268,"ĠSchlaf":3269,"Ġsetzen":3270,"ca":3271,"ling":3272,"Ġbefindet":3273,"reib":3274,"ĠVerkehr":3275,"Ġunbe":3276,"ĠDeutschen":3277,"ĠIns":3278,"ĠPolizei":3279,"lassen":3280,"herapie":3281,"zte":3282,"med":3283,"sta":3284,"ĠHeil":3285,"iew":3286,"frist":3287,"mod":3288,"hang":3289,"ĠMich":3290,"ĠGesamt":3291,"ĠStelle":3292,"ĠProbleme":3293,"ĠMitglied":3294,"istr":3295,"Ġerfolgreich":3296,"ĠTor":3297,"di":3298,"Ġgelten":3299,"Ġgewesen":3300,"lieÃŁlich":3301,"ĠWand":3302,"tete":3303,"ox":3304,"Ġebenso":3305,"ĠfrÃ¼her":3306,"Ġkur":3307,"reten":3308,"oppel":3309,"verstÃ¤nd":3310,"ĠAuftrag":3311,"ĠText":3312,"Ġjeweils":3313,"Ġ27":3314,"riften":3315,"indestens":3316,"ĠDieser":3317,"Ġaktuellen":3318,"mlich":3319,"Ġverz":3320,"Ġfinde":3321,"ĠSc":3322,"ĠSan":3323,"barkeit":3324,"bed":3325,"Ġelekt":3326,"AS":3327,"ĠFotos":3328,"innt":3329,"ĠSoftware":3330,"gliche":3331,"ĠCookies":3332,"ament":3333,"ĠExper":3334,"ĠErfahrung":3335,"ĠRolle":3336,"Ġentst":3337,"Ġentwickelt":3338,"ĠCon":3339,"deck":3340,"Ġvorher":3341,"ED":3342,"ehe":3343,"Ġanderem":3344,"rÃ¤um":3345,"Ġrau":3346,"ĠRat":3347,"anger":3348,"ĠkÃ¼":3349,"sichtlich":3350,"Ġmodern":3351,"ĠEmpf":3352,"Ġentfern":3353,"send":3354,"ĠBlog":3355,"ituation":3356,"Ġmed":3357,"Ġged":3358,"ĠWett":3359,"ĠGruppe":3360,"ĠStrom":3361,"emin":3362,"Ġverwenden":3363,"Ã¤ude":3364,"ĠWel":3365,"ĠMitglieder":3366,"Ġ28":3367,"ĠMu":3368,"ĠMÃ¶glichkeiten":3369,"ĠFeb":3370,"err":3371,"ĠerhÃ¶":3372,"ĠPau":3373,"ĠTitel":3374,"ĠUmwelt":3375,"dust":3376,"reiten":3377,"Re":3378,"Ġgeworden":3379,"ĠOl":3380,"Ġgrund":3381,"ĠInhalte":3382,"Ġdank":3383,"eiger":3384,"ĠHamburg":3385,"iziert":3386,"meldung":3387,"wegs":3388,"ĠSonnen":3389,"ĠSchule":3390,"ĠGÃ¤ste":3391,"cks":3392,"ĠWald":3393,"Ã¤ndert":3394,"kungen":3395,"zeigt":3396,"rÃ¤ger":3397,"ĠAlt":3398,"aurant":3399,"Ġetc":3400,"ĠPo":3401,"kennen":3402,"ĠTipp":3403,"ĠFÃ¶rder":3404,"ĠKolle":3405,"mitteln":3406,"UN":3407,"ĠRom":3408,"ĠPass":3409,"ĠÃĸff":3410,"ve":3411,"ĠBahn":3412,"Ġbestehen":3413,"iti":3414,"ĠSeit":3415,"ezial":3416,"yr":3417,"Ġ80":3418,"ĠSonntag":3419,"ĠBank":3420,"pel":3421,"Ã¶sungen":3422,"air":3423,"zeugen":3424,"ĠErgebnis":3425,"ĠFrÃ¼h":3426,"halts":3427,"ĠRichtung":3428,"schau":3429,"ĠErst":3430,"allo":3431,"ĠGesprÃ¤":3432,"volle":3433,"nungs":3434,"reisen":3435,"Ġ26":3436,"ĠFe":3437,"ðŁ":3438,"ĠJahrhunder":3439,"Ġeinigen":3440,"ĠKil":3441,"ĠNr":3442,"Ġsuper":3443,"ĠFlÃ¼":3444,"ĠEing":3445,"stieg":3446,"sie":3447,"ĠBaum":3448,"losen":3449,"eitag":3450,"reibung":3451,"lingen":3452,"ĠDisk":3453,"anlage":3454,"arch":3455,"ĠwÃ¼rden":3456,"fter":3457,"Ġur":3458,"ĠModell":3459,"ĠBerg":3460,"ĠhÃ¤ufig":3461,"99":3462,"Ġbringt":3463,"Ġbelieb":3464,"ses":3465,"kur":3466,"pflich":3467,"ĠSor":3468,"ĠLog":3469,"Ã¤ischen":3470,"&#":3471,"Ġbeste":3472,"ĠWort":3473,"Ġallein":3474,"ziehung":3475,"Zu":3476,"ĠFacebook":3477,"ĠTo":3478,"ĠwÃ¼n":3479,"Ġposit":3480,"ĠSmart":3481,"ĠBal":3482,"Ġdeutsche":3483,"wser":3484,"45":3485,"ue":3486,"Ġgesehen":3487,"rop":3488,"zentr":3489,"OR":3490,"Ġbem":3491,"ownlo":3492,"samm":3493,"ĠIdeen":3494,"stat":3495,"such":3496,"ĠSpiele":3497,"âĤ¬":3498,"Ġanges":3499,"haltung":3500,"ĠFarbe":3501,"ruar":3502,"ĠHaar":3503,"ohnt":3504,"ĠInteresse":3505,"Ġak":3506,"prÃ¼":3507,"eting":3508,"Ġmittler":3509,"worten":3510,"Ġwarum":3511,"Ġfand":3512,"Ġus":3513,"vol":3514,"Ġbedeutet":3515,"wesen":3516,"ĠKreis":3517,"ĠEben":3518,"Ġverbesser":3519,"Ġanzu":3520,"reut":3521,"Ġwider":3522,"ĠNÃ¤he":3523,"Ġgeeignet":3524,"Ġzw":3525,"ĠKu":3526,"ĠSchweiz":3527,"Ġoptimal":3528,"obei":3529,"sor":3530,"Ġpersonenbezogenen":3531,"bedingungen":3532,"urf":3533,"ĠAktiv":3534,"Ġneues":3535,"ement":3536,"sichtig":3537,"Ġfort":3538,"ĠGleich":3539,"iko":3540,"Ġlos":3541,"ichter":3542,"ĠFÃ¤l":3543,"how":3544,"sto":3545,"ĠzunÃ¤chst":3546,"ĠVerbindung":3547,"ĠEssen":3548,"Ã¼ssel":3549,"wo":3550,"ĠBur":3551,"Ġmindestens":3552,"Ġhohen":3553,"ĠKÃ¶l":3554,"ĠTre":3555,"Ġrel":3556,"ĠStandard":3557,"ĠgehÃ¶ren":3558,"ĠBlut":3559,"ĠFarben":3560,"schlÃ¤":3561,"Ġverein":3562,"illen":3563,"ĠFort":3564,"Man":3565,"ĠRen":3566,"IS":3567,"ĠGemeinde":3568,"Ġbraucht":3569,"ĠTelefon":3570,"Ġklass":3571,"see":3572,"ĠFerien":3573,"por":3574,"ĠSchÃ¶n":3575,"Ġhohe":3576,"folge":3577,"oper":3578,"Ã¼tzen":3579,"ĠStraÃŁe":3580,"kom":3581,"weile":3582,"Ġenthalten":3583,"ĠRis":3584,"Ġ2011":3585,"mack":3586,"ĠVersand":3587,"ĠVerk":3588,"ular":3589,"Ã¼rf":3590,"ĠFebruar":3591,"gern":3592,"Ã¤lter":3593,"ĠSP":3594,"23":3595,"ĠUnterstÃ¼tzung":3596,"ried":3597,"sb":3598,"ĠvÃ¶l":3599,"pack":3600,"Ġrie":3601,"ĠFen":3602,"ĠMer":3603,"Ġinsgesamt":3604,"Ġempfehlen":3605,"ĠSym":3606,"rate":3607,"ĠPrivat":3608,"ĠDieses":3609,"ĠNutzer":3610,"ĠWieder":3611,"ĠWo":3612,"Ġselber":3613,"ĠSamstag":3614,"Ġgenug":3615,"ĠPrin":3616,"Ġalt":3617,"ĠAuÃŁerdem":3618,"ĠschÃ¶ne":3619,"ĠDazu":3620,"Ġjederzeit":3621,"ĠDetail":3622,"eichert":3623,"ull":3624,"Ġnimmt":3625,"ĠÃĦn":3626,"ĠWohnung":3627,"achtet":3628,"sh":3629,"Ġberech":3630,"ĠUniversitÃ¤t":3631,"ĠAller":3632,"Ġlernen":3633,"ĠEnd":3634,"aktion":3635,"ĠJetzt":3636,"Ġfer":3637,"ĠLeistung":3638,"zeuge":3639,"Ġendlich":3640,"uell":3641,"serv":3642,"ĠStudien":3643,"Ġeurop":3644,"igar":3645,"ĠBis":3646,"Ã¤mlich":3647,"oder":3648,"ith":3649,"ama":3650,"SG":3651,"ĠWetter":3652,"ry":3653,"ĠKÃ¼che":3654,"gebiet":3655,"ĠBru":3656,"Ġdadurch":3657,"Ġeinzelnen":3658,"chmal":3659,"Ã¼sse":3660,"ĠBasis":3661,"ĠStu":3662,"ĠAlter":3663,"Ã¶lker":3664,"alk":3665,"hausen":3666,"Ġ2010":3667,"by":3668,"ĠKindern":3669,"Ġ>":3670,"ille":3671,"ammer":3672,"neten":3673,"ĠSuper":3674,"Ã¤ndig":3675,"Ġalte":3676,"atik":3677,"AL":3678,"Ġ198":3679,"ĠKurz":3680,"ĠWebseite":3681,"ĠAutor":3682,";&#":3683,"Ġfolgenden":3684,"Ġor":3685,"ĠTri":3686,"zwischen":3687,"geld":3688,"ĠKor":3689,"stre":3690,"Ġzudem":3691,"alyse":3692,"bÃ¼r":3693,"Ġjeweiligen":3694,"Ġtreffen":3695,"70":3696,"ĠShop":3697,"Ge":3698,"ĠHeraus":3699,"Ã¼nde":3700,"esser":3701,"ĠBran":3702,"ĠerfÃ¼l":3703,"ĠSaison":3704,"ĠSicht":3705,"ĠRegen":3706,"leistungen":3707,"dustrie":3708,"ĠAnge":3709,"sident":3710,"ĠPatienten":3711,"Ġis":3712,"erin":3713,"ĠPolitik":3714,"Ġentfernt":3715,"Ġlaufen":3716,"stru":3717,"ĠProduktion":3718,"Ġkomplett":3719,"Ġ?":3720,"Ġindem":3721,"bracht":3722,"band":3723,"isiert":3724,"ĠStaats":3725,"ĠPraxis":3726,"Hier":3727,"**":3728,"ĠRein":3729,"ĠGlas":3730,"ane":3731,"90":3732,"ierter":3733,"Ġselten":3734,"ĠStraÃŁen":3735,"ownload":3736,"ĠermÃ¶glich":3737,"zahlen":3738,"ĠTod":3739,"use":3740,"til":3741,"ĠVerkauf":3742,"ĠStein":3743,"rolle":3744,"Ġvorbei":3745,"omen":3746,"ness":3747,"rifft":3748,"ekten":3749,"reude":3750,"ĠstÃ¤r":3751,"Ġgesagt":3752,"Ġscheint":3753,"ĠOder":3754,"recher":3755,"do":3756,"bringen":3757,"hlt":3758,"Ġverbunden":3759,"ĠBehandlung":3760,"ĠFolge":3761,"Ġbeide":3762,"Ã¼gen":3763,"ĠtatsÃ¤chlich":3764,"out":3765,"GB":3766,"stall":3767,"ĠTeilnehmer":3768,"ĠRot":3769,"bol":3770,"sprÃ¼":3771,"DF":3772,"ube":3773,"Ġvergangenen":3774,"gessen":3775,"ĠÃĦr":3776,"ĠSchritt":3777,"eucht":3778,"itzt":3779,"Ġse":3780,"Ġmin":3781,"prochen":3782,"altungen":3783,"ĠPeter":3784,"Ġjunge":3785,"hel":3786,"Ġsetzt":3787,"ĠRa":3788,"ĠEngl":3789,"schlieÃŁend":3790,"ĠBon":3791,"ĠSchuhe":3792,"ĠAma":3793,"ĠErfahrungen":3794,"vert":3795,"ĠAufgaben":3796,"ĠDinge":3797,"ink":3798,"sein":3799,"ĠCasino":3800,"tliche":3801,"Ã¤hrt":3802,"decken":3803,"ĠnÃ¤mlich":3804,"Ġbekommt":3805,"raph":3806,"ĠPfl":3807,"ĠKranken":3808,"Ġspann":3809,"ĠunterstÃ¼tzen":3810,"istischen":3811,"Ġnahe":3812,"ĠLa":3813,"steuer":3814,"Ġangeboten":3815,"verein":3816,"ĠWest":3817,"ĠHig":3818,"ĠOst":3819,"US":3820,"ĠVoraus":3821,"Ġsogen":3822,"ĠDeutsch":3823,"eisen":3824,"ÌĪ":3825,"fluss":3826,"ĠFirmen":3827,"Ã¼ch":3828,"zentrum":3829,"ktive":3830,"Ġerreicht":3831,"ĠUnsere":3832,"bew":3833,"Ġzehn":3834,"Ġauszu":3835,"gte":3836,"Ġkleiner":3837,"ĠAuÃŁen":3838,"ĠDok":3839,"ael":3840,"ĠGeburt":3841,"Ġdrau":3842,"ĠerklÃ¤rt":3843,"ĠhÃ¤lt":3844,"Ġfal":3845,"OS":3846,"ĠPhil":3847,"Ġfinanz":3848,"Ġmax":3849,"schriften":3850,"ĠMeer":3851,"arian":3852,"Ġtragen":3853,"ĠEntwick":3854,"nern":3855,"itut":3856,"ĠWaren":3857,"ĠKre":3858,"Ġ90":3859,"ĠStil":3860,"Ġ29":3861,"ission":3862,"ĠReich":3863,"uchs":3864,"alisierung":3865,"far":3866,"mÃ¶glichkeiten":3867,"ĠBitte":3868,"burger":3869,"ĠunterstÃ¼tzt":3870,"ĠFirma":3871,"gefÃ¼hrt":3872,"ĠTisch":3873,"Ġintegr":3874,"Ġbist":3875,"ĠCD":3876,"schn":3877,"ĠRestaurant":3878,"orgung":3879,"zeigen":3880,"ĠBesucher":3881,"ĠFahrzeug":3882,"ĠAnbieter":3883,"ĠKateg":3884,"Ġfahren":3885,"ĠEntscheidung":3886,"spar":3887,"Ġdanach":3888,"ĠFuÃŁball":3889,"ieten":3890,"Ġkeiner":3891,"ĠBab":3892,"ike":3893,"ĠUnternehmens":3894,"ufe":3895,"Ġmon":3896,"wind":3897,"Ġstar":3898,"sex":3899,"deutung":3900,"Ġbeein":3901,"ĠvÃ¶llig":3902,"ĠWissenschaft":3903,"elte":3904,"ĠBesonder":3905,"ĠGet":3906,"ĠKan":3907,"ĠMÃ¶":3908,"ĠBenutz":3909,"Ġbestimmt":3910,"ĠSchwer":3911,"lock":3912,"alif":3913,"ĠGewinn":3914,"bedingt":3915,"ĠRed":3916,"ĠAusbildung":3917,"ows":3918,"denten":3919,"VO":3920,"ĠWunsch":3921,"seiten":3922,"ĠGold":3923,"âĢĵ":3924,"itt":3925,"ĠStaat":3926,"ĠBek":3927,"Ã¤uft":3928,"ĠKirche":3929,"Ġliebe":3930,"Ġtoll":3931,"ĠIdee":3932,"iginal":3933,"ĠAngebote":3934,"ĠIt":3935,"ollten":3936,"ĠInvest":3937,"Ã¼tzt":3938,"ĠermÃ¶glicht":3939,"ĠStellen":3940,"Ġbald":3941,"zul":3942,"ĠImmobil":3943,"Ġgleichzeitig":3944,"Ġlaut":3945,"ĠPersonal":3946,"anzÃ¶s":3947,"woch":3948,"Ġspiel":3949,"Gr":3950,"sitzen":3951,"ĠDre":3952,"reuz":3953,"maÃŁ":3954,"ution":3955,"ĠAlso":3956,"zustellen":3957,"Ġsorgen":3958,"ĠFreitag":3959,"okrat":3960,"ĠMonate":3961,"reite":3962,"ĠAngaben":3963,"ĠChe":3964,"Ġknapp":3965,"Ġy":3966,"Ġunten":3967,"Ġdamals":3968,"ĠWÃ¼r":3969,"ĠStim":3970,"waltung":3971,"hoben":3972,"roh":3973,"26":3974,"park":3975,"rÃ¤fte":3976,"Ġ=":3977,"jÃ¤hrige":3978,"sm":3979,"Ã¼ndung":3980,"zep":3981,"leistung":3982,"Ġehem":3983,"tell":3984,"ĠVerfahren":3985,"Ġweiterhin":3986,"Ġgestellt":3987,"ĠJob":3988,"Ġseines":3989,"Ġerforderlich":3990,"ĠMenge":3991,"Ġtrotzdem":3992,"ometer":3993,"ĠTro":3994,"Ã¼ndet":3995,"res":3996,"ĠKÃ¶nig":3997,"uhr":3998,"ĠKamer":3999,"Ġwert":4000,"09":4001,"Ġsechs":4002,"stÃ¤nde":4003,"ĠDeutsche":4004,"ĠGruppen":4005,".-":4006,"apan":4007,"iefer":4008,"Ã¶pf":4009,"ĠverfÃ¼g":4010,"host":4011,"ĠLÃ¶sung":4012,"nungen":4013,"versicherung":4014,"Ã¼cken":4015,"seh":4016,"Ã¤den":4017,"Ġmen":4018,"ĠGanz":4019,"ĠSand":4020,"andelt":4021,"kunden":4022,"ĠErd":4023,"ĠÃ¤u":4024,"ash":4025,"stimmung":4026,"raucher":4027,"richtungen":4028,"verband":4029,"ĠComputer":4030,"ltag":4031,"int":4032,"ĠMonat":4033,"ĠLiter":4034,"ake":4035,"ĠEro":4036,"nehm":4037,"Ġweltweit":4038,"Ġeng":4039,"ls":4040,"hard":4041,"ĠUmgebung":4042,"Ã¼ÃŁ":4043,"ĠEt":4044,"ĠMeter":4045,"Ġletzte":4046,"view":4047,"scheinlich":4048,"Ġperfekt":4049,"tischen":4050,"Ġperfe":4051,"ĠLÃ¶":4052,"ong":4053,"Ġspielt":4054,"press":4055,"ĠTab":4056,"ĠBeratung":4057,"ĠSatz":4058,"Ġech":4059,"Ġ01":4060,"ĠSl":4061,"ĠLink":4062,"ĠÃ¼bern":4063,"ĠBett":4064,"Ġ70":4065,"vis":4066,"wig":4067,"ĠVerwendung":4068,"ĠFehler":4069,"ĠMasch":4070,"33":4071,"ssen":4072,"Ġwobei":4073,"Ġziemlich":4074,"hann":4075,"ĠzusÃ¤tzlich":4076,"ĠnÃ¤":4077,"Ãĸ":4078,"ppe":4079,"ĠVersicher":4080,"ĠTerr":4081,"ara":4082,"garten":4083,"Ġderzeit":4084,"Ġgern":4085,"fragen":4086,"afft":4087,"ĠFenster":4088,"stoffe":4089,"ĠBeginn":4090,"ĠRel":4091,"Adresse":4092,"Ġsah":4093,"ĠNun":4094,"ĠbeschÃ¤f":4095,"Ġgenommen":4096,"Ã¤ss":4097,"gericht":4098,"Ġwelcher":4099,"Ġecht":4100,"ĠSchwarz":4101,"over":4102,"ĠInteressen":4103,"Ġheu":4104,"ĠKrieg":4105,"ĠSache":4106,"Ġbegl":4107,"istische":4108,"ĠRhein":4109,"ĠÃĦnder":4110,"etzung":4111,"ĠBrowser":4112,"ĠTV":4113,"Ġmoder":4114,"Ġhttp":4115,"Ġrechts":4116,"Ã¤user":4117,"anlagen":4118,"tert":4119,"ĠPorno":4120,"Innen":4121,"Ãľber":4122,"ĠRund":4123,"ĠTechnik":4124,"27":4125,"ĠGedanken":4126,"wen":4127,"Ġdigit":4128,"Ġ31":4129,"immel":4130,"ierungen":4131,"leisch":4132,"ĠAlltag":4133,"ĠIT":4134,"igur":4135,"ĠGefÃ¼hl":4136,"Ġunseres":4137,"Ġorganis":4138,"enntnis":4139,"achst":4140,"ĠVater":4141,"ĠStrand":4142,"zeichen":4143,"Pl":4144,"ars":4145,"ĠBall":4146,"bewerb":4147,"ffer":4148,"offe":4149,"Ġzumindest":4150,"ĠBedeutung":4151,"ĠHersteller":4152,"Ġjen":4153,"sse":4154,"ĠWeihnacht":4155,"28":4156,"Ġanderes":4157,"ĠPunkt":4158,"ĠSinne":4159,"-)":4160,"schlieÃŁen":4161,"raut":4162,"zahlung":4163,"omaten":4164,"ennung":4165,"mÃ¶glichen":4166,"Ġerkennen":4167,"kraft":4168,"ĠLeistungen":4169,"Ġfunktioniert":4170,"ĠDom":4171,"itzer":4172,"ĠKonz":4173,"ĠâĢ¢":4174,"ĠIndustrie":4175,"werte":4176,"Ġhil":4177,"ĠIs":4178,"ĠMeinung":4179,"na":4180,"ĠHome":4181,"van":4182,"lack":4183,"dat":4184,"zeugt":4185,"Ġhistor":4186,"amin":4187,"):":4188,"ĠKampf":4189,"geschichte":4190,"ĠAnder":4191,"Ġgeschrieben":4192,"lebnis":4193,"Ġprofession":4194,"Ġsinn":4195,"ec":4196,"Ġrichtige":4197,"omas":4198,"unternehmen":4199,"gut":4200,"leidung":4201,"ĠpersÃ¶nlichen":4202,"det":4203,"eidig":4204,"Ġph":4205,"Ġtran":4206,"technik":4207,"ĠSituation":4208,"struktur":4209,"anen":4210,"ĠMitte":4211,"uchte":4212,"Ġstets":4213,"xt":4214,"Ã¼tz":4215,"ĠPreise":4216,"ĠStÃ¤d":4217,"ĠausschlieÃŁlich":4218,"denken":4219,"Ġhol":4220,"Ġspr":4221,"Ġherr":4222,"Ġfreund":4223,"ĠInhalt":4224,"Ġruh":4225,"aff":4226,"Ġgepl":4227,"ĠPal":4228,"ĠAbschluss":4229,"gegeben":4230,"ĠZustand":4231,"ĠReihe":4232,"Ġober":4233,"rief":4234,"Ġth":4235,"ĠGef":4236,"attform":4237,"raun":4238,"ta":4239,"jÃ¤hrigen":4240,"quem":4241,"tiges":4242,"ias":4243,"eum":4244,"Ġvergleich":4245,"ĠZusammenarbeit":4246,"ĠIhres":4247,"ĠschlieÃŁlich":4248,"ĠSchau":4249,"ĠAp":4250,"ulti":4251,"olitik":4252,"ĠlÃ¤uft":4253,"ĠkÃ¶nnten":4254,"mittlung":4255,"Ġbeginnt":4256,"ĠWolf":4257,"ĠNational":4258,"karte":4259,"ĠBern":4260,"ĠðŁ":4261,"istik":4262,"ienste":4263,"linge":4264,"ĠKÃ¼nstler":4265,"29":4266,"irm":4267,"Ġverstehen":4268,"spricht":4269,"Ġ35":4270,"iten":4271,"arbeite":4272,"Kl":4273,"ĠForum":4274,"ĠBerufs":4275,"ĠKÃ¶ln":4276,"Ġ2009":4277,"Ġschaffen":4278,"21":4279,"Ġextrem":4280,"stattung":4281,"05":4282,"ĠGebÃ¤ude":4283,"ĠMart":4284,"leiter":4285,"ĠWander":4286,"Ġsoweit":4287,"ĠSonder":4288,"elegen":4289,"Ġzahlreiche":4290,"ĠSw":4291,"ux":4292,"Ã¤ngt":4293,"sÃ¤tzlich":4294,"ĠVolks":4295,"ĠgroÃŁer":4296,"ĠnatÃ¼r":4297,"ames":4298,"Ġbeant":4299,"zehn":4300,"Ġneuer":4301,"lieb":4302,"08":4303,"ĠAnti":4304,"ĠKredit":4305,"Ġaktuell":4306,"gebaut":4307,"hafen":4308,"07":4309,"zin":4310,"Ġerhe":4311,"ĠZeitpunkt":4312,"âĢ¦]":4313,"ese":4314,"ĠAnspruch":4315,"ĠÂ·":4316,"Â®":4317,"ĠKaffe":4318,"Ġaktuelle":4319,"rink":4320,"ĠTyp":4321,"ĠSpezial":4322,"durch":4323,"06":4324,"ĠVideos":4325,"aup":4326,"Ġausgew":4327,"Ġerle":4328,"ĠMonaten":4329,"atter":4330,"acher":4331,"Ġangen":4332,"ĠSprache":4333,"dass":4334,"Ġeinzu":4335,"ĠgemÃ¤ÃŁ":4336,"lust":4337,"________":4338,"uchten":4339,"ĠLang":4340,"ĠBayern":4341,"merzen":4342,"Ġsorgt":4343,"Ġzentr":4344,"Ġtot":4345,"ĠWill":4346,"Ġehemal":4347,"Ġzweite":4348,"ierenden":4349,"ĠschÃ¶nen":4350,"ilde":4351,";;;;":4352,"ochter":4353,"Ġehr":4354,"ĠTemperatur":4355,"gewÃ¶hn":4356,"cm":4357,"ĠFarb":4358,"ĠSamm":4359,"gelt":4360,"mand":4361,"schafts":4362,"ire":4363,"gehend":4364,"lad":4365,"anne":4366,"ĠGerÃ¤t":4367,"ĠWÃ¤hrend":4368,"Ġlangsam":4369,"IE":4370,"ĠPC":4371,"Ã¤hrung":4372,"ĠCl":4373,"ĠKarten":4374,"kir":4375,"gesehen":4376,"ferenz":4377,"Ġwichtige":4378,"Ã¤tigkeit":4379,"Ġschwarz":4380,"Ġ;":4381,"ĠSinn":4382,"Ġunbedingt":4383,"ĠBÃ¼cher":4384,"stellten":4385,"ĠMass":4386,"Ġentstehen":4387,"35":4388,"ancen":4389,"ĠSalz":4390,"zÃ¼glich":4391,"akti":4392,"ĠLo":4393,"ĠFin":4394,"Ġlo":4395,"vel":4396,"Ġumfassen":4397,"ĠTon":4398,"ĠMeister":4399,"Ġzer":4400,"holz":4401,"ĠAltern":4402,"gerech":4403,"ĠBegriff":4404,"ĠLust":4405,"ĠDich":4406,"ierende":4407,"ĠPunkte":4408,"uft":4409,"ehmer":4410,"ĠBeim":4411,"sburg":4412,"ĠZahn":4413,"Â°":4414,"ĠDo":4415,"Ġgenutzt":4416,"ĠOrd":4417,"ĠTermin":4418,"Ġseien":4419,"ĠPosition":4420,"ĠgrÃ¶ÃŁten":4421,"entrum":4422,"eicht":4423,"Ġanderer":4424,"Ġgleichen":4425,"Ã¤ng":4426,"bauen":4427,"zut":4428,"Ġzuvor":4429,"ĠName":4430,"freund":4431,"mittelt":4432,"Ġhilft":4433,"ĠOut":4434,"spir":4435,"viel":4436,"da":4437,"Ġpasst":4438,"egal":4439,"vÃ¶lker":4440,"alls":4441,"Ġrichtigen":4442,"schuss":4443,"adem":4444,"Ġerh":4445,"entliche":4446,"ĠVis":4447,"merksam":4448,"frieden":4449,"ime":4450,"ĠBack":4451,"Ġgaran":4452,"yer":4453,"Ġeinzigar":4454,"lag":4455,"ĠGraf":4456,"ĠViele":4457,"loss":4458,"ku":4459,"ĠVerm":4460,"rÃ¤f":4461,"ĠgewÃ¤hr":4462,"Ġgespeichert":4463,"Ġautomatisch":4464,"ĠDrei":4465,"ef":4466,"ĠÃ¼brigen":4467,"ĠMetho":4468,"ai":4469,"lieÃŁen":4470,"ĠServer":4471,"ĠFrankfurt":4472,"ĠMess":4473,"Ġdeutsch":4474,"ĠPsych":4475,"Aber":4476,"ĠVersion":4477,"ram":4478,"ĠProzess":4479,"ĠverÃ¶ffentlicht":4480,"programm":4481,"ĠAngst":4482,"Ġihres":4483,"klusive":4484,"ĠMax":4485,"wohner":4486,"Ġabzu":4487,"schrank":4488,"ĠenthÃ¤lt":4489,"ret":4490,"ĠSchaden":4491,"ĀĀĀĀ":4492,"gart":4493,"04":4494,"zir":4495,"Ġledig":4496,"Ġbrauchen":4497,"ĠAnwendung":4498,"Ġste":4499,"Ġ2008":4500,"gruppen":4501,"isierung":4502,"ĠAktion":4503,"Ġlau":4504,"ĠRegierung":4505,"Ġsprechen":4506,"flug":4507,"ĠZudem":4508,"Ġgesamte":4509,"ET":4510,"Du":4511,"Ġgesamten":4512,"Ġtolle":4513,"ĠFreude":4514,"ĠLeistungs":4515,"ĠFreunde":4516,"Ġteilweise":4517,"kÃ¼":4518,"ĠÃ¶ffentlichen":4519,"ĠErgebnisse":4520,"ĠgenieÃŁen":4521,"mÃ¶gen":4522,"kn":4523,"tigten":4524,"Ġ197":4525,"setzungen":4526,"ĠSach":4527,"Ġjungen":4528,"ourn":4529,"wechsel":4530,"âĢĺ":4531,"ĠKommunikation":4532,"Ġbesondere":4533,"Ġtro":4534,"ĠMichael":4535,"ĠKlima":4536,"stud":4537,"ĠkÃ¶nnt":4538,"ĠVeranstaltung":4539,"ĠfÃ¤llt":4540,"endes":4541,"Alle":4542,"ĠMoment":4543,"ĠAnzahl":4544,"ĠStat":4545,"eiben":4546,"ĠverfÃ¼gt":4547,"management":4548,"ĠBef":4549,"Seit":4550,"ĠTipps":4551,"03":4552,"ĠWeitere":4553,"verkehr":4554,"schÃ¶n":4555,"ĠnÃ¤chste":4556,"Ġunterwegs":4557,"Ã¶ffnet":4558,"Ġlediglich":4559,"ĠDek":4560,"fÃ¼hren":4561,"ĠSmartph":4562,"bek":4563,"ĠIP":4564,"ĠArbeiten":4565,"hostw":4566,"tionen":4567,"ĠEuch":4568,"Ġpreis":4569,"Ã¤nden":4570,"ĠnÃ¶":4571,"ĠGesprÃ¤ch":4572,"riffen":4573,"Ġusw":4574,"Unter":4575,"ĠregelmÃ¤ÃŁig":4576,"gangs":4577,"ĠZusammenhang":4578,"werke":4579,"Ġad":4580,"sphÃ¤re":4581,"weder":4582,"ĠAbl":4583,"Ġres":4584,"aket":4585,"pflicht":4586,"Ġwirtschaft":4587,"ĠLager":4588,"fert":4589,"Ġverantwort":4590,"Ġmass":4591,"sammlung":4592,"Ġdurchaus":4593,"ĠIr":4594,"ĠArzt":4595,"ĠAust":4596,"Ġentsprechend":4597,"iete":4598,"Ġerg":4599,"merz":4600,"Ġziehen":4601,"vollen":4602,"Ġdefin":4603,"iness":4604,"Ġfrauen":4605,"Kon":4606,"ĠMobil":4607,"Ġerlau":4608,"ĠDoppel":4609,"spieler":4610,"of":4611,"lern":4612,"abet":4613,"AM":4614,"ĠKombin":4615,"Ph":4616,"ĠVier":4617,"pft":4618,"ĠWirtschafts":4619,"stechn":4620,"Ġdarin":4621,"Ġschwier":4622,"Ġgekommen":4623,"ams":4624,"ĠEUR":4625,"ĠKunde":4626,"Ġeinger":4627,"ĠBade":4628,"setzt":4629,"auso":4630,"Ġschlecht":4631,"ĠWÃ¤r":4632,"zon":4633,"Ġkor":4634,"formen":4635,"ĠEind":4636,"ĠAntwort":4637,"ĠwÃ¤hlen":4638,"Ġsolchen":4639,"ĠTraum":4640,"Ġ500":4641,"Ġeingesetzt":4642,"geg":4643,"Durch":4644,"zun":4645,"ĠmÃ¶glichst":4646,"Ġzufrieden":4647,"raucht":4648,"Ã¤lte":4649,"ĠAufgabe":4650,"Ġlieber":4651,"pa":4652,"ĠUnser":4653,"umente":4654,"ĠHerbst":4655,"??":4656,"schnit":4657,"deckt":4658,"Ġverloren":4659,"ĠPaar":4660,"Ġmittlerweile":4661,"Ã¶se":4662,"Ġversucht":4663,"ĠStutt":4664,"etzte":4665,"Ġentgegen":4666,"ĠSohn":4667,"Ġtau":4668,"ĠOpti":4669,"ĠÃ¤uÃŁer":4670,"ĠSuch":4671,"bruch":4672,"raten":4673,"ikal":4674,"ĠImmobilien":4675,"ikt":4676,"ĠHy":4677,"ĠtÃ¤glich":4678,"gemeinen":4679,"Ġdre":4680,"finden":4681,"hy":4682,"Ġdennoch":4683,"abend":4684,"ĠhÃ¤tten":4685,"ĠErsatz":4686,"alz":4687,"Ġoffiz":4688,"zeichnung":4689,"ĠRuss":4690,"ograph":4691,"Ġgebracht":4692,"ĠAllerdings":4693,"rid":4694,"ĠZwischen":4695,"ĠSicherheits":4696,"ĠDeshalb":4697,"Ġunterschiedlichen":4698,"imal":4699,"tive":4700,"ĠMaÃŁnahmen":4701,"ĠÐ":4702,"ĠVo":4703,"ĠAnforderungen":4704,"49":4705,"ĠHann":4706,"Ġerwartet":4707,"ĠDiskuss":4708,"Ġ[âĢ¦]":4709,"elten":4710,"tierte":4711,"icro":4712,"rt":4713,"stÃ¤t":4714,"Ġgewinnen":4715,"Ġraus":4716,"teuer":4717,"ĠfrÃ¼h":4718,"auern":4719,"ĠMarken":4720,"ĠTurn":4721,"Ġmanchmal":4722,"ĠHalb":4723,"ana":4724,"Ġdisk":4725,"Ã¤dig":4726,"ĠMontag":4727,"Ger":4728,"Ġatt":4729,"fassung":4730,"iar":4731,"gesellschaft":4732,"spielen":4733,"Ġtradition":4734,"Ġinformieren":4735,"Ġobwohl":4736,"ĠHund":4737,"ĠWindows":4738,"ĠMain":4739,"AG":4740,"Ġdah":4741,"ĠBezug":4742,"fo":4743,"Ġgener":4744,"ĠEigent":4745,"ĠSachen":4746,"ĠBeding":4747,"Ġerneut":4748,"partner":4749,"swert":4750,"igten":4751,"Ġberuf":4752,"ĠauÃŁerdem":4753,"ĠmuÃŁ":4754,"ĠJohann":4755,"ĠKlasse":4756,"ĠCom":4757,"Ã¤ume":4758,"Ġausreichen":4759,"ĠMat":4760,"itÃ¤r":4761,"sprache":4762,"ĠpersÃ¶nlich":4763,"Ġnachdem":4764,"ĠKurs":4765,"ieÃŁ":4766,"ĠÃ¤lter":4767,"Ġverpflich":4768,"wald":4769,"ĠIS":4770,"Ġuner":4771,"ĠSchrift":4772,"ffizien":4773,"ĠInformation":4774,"DR":4775,"Hallo":4776,"tic":4777,"wendungen":4778,"ĠGesicht":4779,"ĠermÃ¶glichen":4780,"ĠStunde":4781,"ĠausdrÃ¼ck":4782,"ĠEng":4783,"vier":4784,"Ġhalt":4785,"ĠAlb":4786,"icke":4787,"Ġbestimmten":4788,"Ġra":4789,"65":4790,"ĠunabhÃ¤ng":4791,"ĠMedizin":4792,"bereitung":4793,"Ġentwickeln":4794,"ĠEvent":4795,"ID":4796,"ĠWohl":4797,"Ġdrin":4798,"ĠBil":4799,"pfel":4800,"jen":4801,"ĠMacht":4802,"Ġhinzu":4803,"Ġ45":4804,"aser":4805,"ĠâĨ":4806,"ĠMÃ¼l":4807,"tau":4808,"ĠHotels":4809,"hafte":4810,"ĠFel":4811,"ĠKlin":4812,"tes":4813,"Ġmachte":4814,"lÃ¶sung":4815,"ĠHintergrund":4816,"ĠTraining":4817,"ĠMail":4818,"ĠBu":4819,"Ġfolgen":4820,"ĠPfer":4821,"ĠFeld":4822,"barer":4823,"ikro":4824,"ĠGeschmack":4825,"alte":4826,"ĠÃ¼berra":4827,"werten":4828,"lapp":4829,"Ġbefinden":4830,"funktion":4831,"ĠItalien":4832,"Ġ)":4833,"Ġbetr":4834,"Ġ!":4835,"fle":4836,"Ġfolgende":4837,"ĠZeiten":4838,"Ġdarum":4839,"ĠSchne":4840,"ĠKrit":4841,"ĠPublik":4842,"unkten":4843,"Ġengl":4844,"ĠÃľb":4845,"ĠAnschluss":4846,"othek":4847,"betrieb":4848,"ĠDauer":4849,"Ġdenke":4850,"ĠHerzen":4851,"ĠZahlungs":4852,"mark":4853,"UR":4854,"ĠMorgen":4855,"eiert":4856,"ĠLinks":4857,"Ġerleben":4858,"cri":4859,"ĠÃ¤ndern":4860,"Ġkrit":4861,"Ġgelegen":4862,"tifiz":4863,"ĠBrand":4864,"Ġreich":4865,"Ġmorgen":4866,"iat":4867,"verstÃ¤ndlich":4868,"obile":4869,"verlÃ¤ss":4870,"ĠAusland":4871,"Ġwohn":4872,"sprÃ¼n":4873,"bÃ¼":4874,"urm":4875,"Ġbestellen":4876,"schungs":4877,"ĠWochenende":4878,"ĠFunktionen":4879,"ĠChance":4880,"ymp":4881,"Ġbisschen":4882,"its":4883,"Ġbein":4884,"Ġbesonderen":4885,"unkel":4886,"ĠGra":4887,"hause":4888,"hung":4889,"ĠFlÃ¼cht":4890,"Ġwissenschaft":4891,"ĠHeimat":4892,"Ent":4893,"ĠOption":4894,"ĠSchweizer":4895,"Ġversuchen":4896,"IL":4897,"ĠClub":4898,"go":4899,"02":4900,"ĠÃ¼":4901,"flÃ¤chen":4902,"Ġwenige":4903,"ĠnÃ¤her":4904,"Unsere":4905,"Ġgenannt":4906,"Ġvergessen":4907,"ish":4908,"omme":4909,"ĠHunde":4910,"karten":4911,"Ġtief":4912,"low":4913,"ĠAlles":4914,"ĠSong":4915,"ĠFreizeit":4916,"Ã¤mpf":4917,"imin":4918,"ĠSerie":4919,"Ġerster":4920,"box":4921,"ĠSee":4922,"Ġschwar":4923,"ory":4924,"Ã¼nden":4925,"letzt":4926,"ĠHol":4927,"fa":4928,"ĠBestand":4929,"Zum":4930,"ĠErwachsen":4931,"ĠGrundlage":4932,"agn":4933,"bieten":4934,"bi":4935,"ĠAir":4936,"Ġform":4937,"duziert":4938,"Ġbegann":4939,"ĠjÃ¤hr":4940,"anwalt":4941,"ales":4942,"ĠStruktur":4943,"pol":4944,"Ġpar":4945,"stÃ¤r":4946,"Ġmel":4947,"Ã¤ngen":4948,"bli":4949,"play":4950,"ĠHeute":4951,"das":4952,"sÃ¤tze":4953,"twoch":4954,"Ġwenigen":4955,"ĠLeit":4956,"ĠFÃ¤llen":4957,"ĠUntersuch":4958,"Ġbequem":4959,"bil":4960,"ĠStern":4961,"ĠAss":4962,"ĠRÃ¼cken":4963,"iefel":4964,"filter":4965,"Ġgez":4966,"ĠMetall":4967,"sprech":4968,"Ã¼ren":4969,"nerstag":4970,"Ġabsolut":4971,"bu":4972,"ĠAndre":4973,"ĠKer":4974,"Her":4975,"ĠArchite":4976,"System":4977,"Ġherunter":4978,"tent":4979,"endet":4980,"alender":4981,"ĠTochter":4982,"ĠVerlag":4983,"ĠgewÃ¼n":4984,"liga":4985,"ĠVerhalten":4986,"ĠMarketing":4987,"ĠbestÃ¤":4988,"ĠSzen":4989,"ĠPorn":4990,"38":4991,"ĠWirkung":4992,"ĠBetriebs":4993,"ĠGerÃ¤te":4994,"ĠBedÃ¼rf":4995,"ĠGu":4996,"ĠThomas":4997,"ĠUp":4998,"78":4999,"Ġnotwendig":5000,"ĠDan":5001,"ÃĦ":5002,"ĠAbt":5003,"klasse":5004,"Ġlinks":5005,"ĠMel":5006,"ĠMannschaft":5007,"ĠRuhe":5008,"Ġvoraus":5009,"Ġegal":5010,"Ġentsprechenden":5011,"ĠRechte":5012,"bieren":5013,"ektor":5014,"ĠÃĸl":5015,"Ġwichtigsten":5016,"Ġzeig":5017,"anke":5018,"ĠInsel":5019,"ĠVertrags":5020,"Ġtyp":5021,"ĠVerÃ¤nder":5022,"Ġgestalten":5023,"ĠTeile":5024,"leider":5025,"Ġguter":5026,"ĠbenÃ¶tigt":5027,"Ġweder":5028,"Ġbeachten":5029,"amme":5030,"po":5031,"bs":5032,"enntnisse":5033,"Ġmehreren":5034,"ĠEdel":5035,"2017":5036,"Ġsodass":5037,"ĠAntrag":5038,"Dieser":5039,"hostwriter":5040,"Ġverlassen":5041,"Ã¼cke":5042,"ernt":5043,"wirkungen":5044,"ĠbetrÃ¤gt":5045,"Ġdagegen":5046,"berger":5047,"ĠWÃ¼n":5048,"Ġbild":5049,"haben":5050,"ĠAktu":5051,"qualitÃ¤t":5052,"linie":5053,"Ġfertig":5054,"falt":5055,"ĠPflanzen":5056,"ĠZweck":5057,"Ġirgendwie":5058,"baum":5059,"stÃ¤nden":5060,"Ex":5061,"ĠBestellung":5062,"ĠHor":5063,"Ġeinzige":5064,"ĠLeder":5065,"RE":5066,"ĠDownload":5067,"ĠGottes":5068,"95":5069,"wissenschaft":5070,"ĠKatzen":5071,"Ã¶tzlich":5072,"rucken":5073,"ĠNachbar":5074,"zi":5075,"angebot":5076,"ĠUN":5077,"ĠKirchen":5078,"Ã¼ÃŁe":5079,"ĠglÃ¼ck":5080,"ĠNetzwerk":5081,"ĠStimm":5082,"Ġlegen":5083,"!!!":5084,"ĠCharakter":5085,"wÃ¼rdig":5086,"Ġwirkt":5087,"Ã¶ÃŁen":5088,"ĠgefÃ¤hr":5089,"Ġacht":5090,"ĠJung":5091,"ĠAnmeldung":5092,"Ġkamen":5093,"48":5094,"ĠhÃ¶ren":5095,"ssystem":5096,"Ġinternationalen":5097,"ĠOriginal":5098,"reuung":5099,"vention":5100,"achel":5101,"iums":5102,"ĠTel":5103,"ynam":5104,"ĠVorstand":5105,"ĠEinsch":5106,"gerÃ¤t":5107,"zepte":5108,"schte":5109,"ĠSchluss":5110,"ĠSonne":5111,"oth":5112,"Ã¤lfte":5113,"ĠExperten":5114,"ĠBrÃ¼":5115,"ĠMeine":5116,"SV":5117,"Ġgegr":5118,"Ġdeinen":5119,"ĠHoff":5120,"haber":5121,"eise":5122,"arkt":5123,"ischem":5124,"eck":5125,"ĠSchiff":5126,"Ġgenannten":5127,"ktiven":5128,"ĠSchlag":5129,"ĠGeist":5130,"ĠFrankreich":5131,"ĠStoff":5132,"wÃ¤":5133,"leit":5134,"Ġgeschlossen":5135,"Ġwarten":5136,"ĠHar":5137,"AP":5138,"Ġpassiert":5139,"Ġumfang":5140,"ĠAnlage":5141,"ĠListe":5142,"zunehmen":5143,"sprach":5144,"ode":5145,"ĠNachrichten":5146,"rik":5147,"ĠWege":5148,"heits":5149,"Ġverf":5150,"ieben":5151,"rig":5152,"ĠBevÃ¶lker":5153,"Ġzuletzt":5154,"ey":5155,"TE":5156,"ĠNatÃ¼rlich":5157,"chter":5158,"Ġindividuell":5159,"erklÃ¤rung":5160,"ork":5161,"ĠLÃ¤ndern":5162,"ĠForschung":5163,"ĠverfÃ¼gbar":5164,"ĠReisen":5165,"Ġ2007":5166,"ĠBildung":5167,"ostet":5168,"riebe":5169,"Ch":5170,"ĠSemin":5171,"ĠKern":5172,"Ob":5173,"ternehmer":5174,"ĠSchnitt":5175,"ĠBestimm":5176,"Ġgenauso":5177,"Ġfehlen":5178,"rige":5179,"rÃ¤ume":5180,"ĠVerbraucher":5181,"Ġdenken":5182,"ĠPoten":5183,"rein":5184,"schauen":5185,"rufen":5186,"hÃ¶r":5187,"Ġerwarten":5188,"Ġbegeister":5189,"Ġbestimmte":5190,"wurf":5191,"Ġnachhal":5192,"Ġerreich":5193,"ĠDetails":5194,"ĠSpann":5195,"ĠTat":5196,"Ġlag":5197,"zÃ¤hl":5198,"ĠVerd":5199,"ĠdurchgefÃ¼hrt":5200,"mittag":5201,"75":5202,"ĠâĨĴ":5203,"geord":5204,"Ġverh":5205,"Ġherum":5206,"ĠWerbe":5207,"Ġlangen":5208,"Von":5209,"sletter":5210,"43":5211,"iser":5212,"ĠLeip":5213,"verfahren":5214,"passen":5215,"ĠKilometer":5216,"Ġaufzu":5217,"UNG":5218,"ĠUl":5219,"ĠManagement":5220,"OM":5221,"Ġintens":5222,"cial":5223,"irn":5224,"Ġangegeben":5225,"ree":5226,"ĠSieg":5227,"Ġinstall":5228,"Ġat":5229,"ader":5230,"Ġreicht":5231,"ĠLÃ¤nder":5232,"ĠSpeicher":5233,"mitgl":5234,"lÃ¤uf":5235,"dauer":5236,"ĠGeburtstag":5237,"Ġfallen":5238,"ĠLÃ¶sungen":5239,"mut":5240,"Ġgefallen":5241,"ĠBÃ¼ro":5242,"Ġinnov":5243,"ĠOhne":5244,"ĠMÃ¼":5245,"ĠLive":5246,"ĠElektro":5247,"ĠCamp":5248,"material":5249,"ines":5250,"ĠlieÃŁ":5251,"Ġsieben":5252,"ble":5253,"legung":5254,"ĠjÃ¼n":5255,"ĠStuttgart":5256,"Ġfach":5257,"ehlt":5258,"Ġerstellen":5259,"zur":5260,"ĠvielfÃ¤l":5261,"ĠTheater":5262,"Ã¤dag":5263,"flÃ¼":5264,"okal":5265,"Ġbesuchen":5266,"ĠPrem":5267,"ĠbenÃ¶tigen":5268,"ĠEint":5269,"stattet":5270,"windigkeit":5271,"ĠVeranstaltungen":5272,"Ġinzwischen":5273,"ĠTrend":5274,"ĠWild":5275,"ĠBereichen":5276,"ĠAlex":5277,"Ġ300":5278,"ĠMartin":5279,"Ġirgendw":5280,"Ã¼sseld":5281,"ĠFC":5282,"âĢ¢":5283,"ĠAmer":5284,"Ã¼hm":5285,"ĠHÃ¶r":5286,"ĠGrad":5287,"Ġbeteil":5288,"ĠVerkehrs":5289,"Ġentschieden":5290,"ress":5291,"publik":5292,"ĠTiere":5293,"ĠHandel":5294,"ĠZentrum":5295,"rÃ¤gen":5296,"wortet":5297,"ĠÃ¼berall":5298,"iegen":5299,"ĠNa":5300,"tierung":5301,"ĠstÃ¤ndig":5302,"ĠDaher":5303,"ĠVereins":5304,"ĠFrie":5305,"ĠAufent":5306,"OL":5307,"anien":5308,"ĠgÃ¼nstig":5309,"ĠGewalt":5310,"ause":5311,"Ġanal":5312,"ĠâĢĶ":5313,"ĠDass":5314,"ĠBedingungen":5315,"ĠBewegung":5316,"Ġsport":5317,"greifen":5318,"ackt":5319,"part":5320,"ĠErde":5321,"ĠFlÃ¤":5322,"Ġkombin":5323,"maschinen":5324,"Je":5325,"uelle":5326,"Ġgutes":5327,"Ġant":5328,"Ġsicht":5329,"inform":5330,"Ġunmittel":5331,"Ġbeob":5332,"ĠDein":5333,"wart":5334,"36":5335,"Ġrelativ":5336,"page":5337,"Ġhttps":5338,"sprung":5339,"ĠSpielen":5340,"ĠKlass":5341,"ĠJa":5342,"Ġausgestattet":5343,"iste":5344,"ĠZug":5345,"iveau":5346,"ĠPan":5347,"Ġpsych":5348,"Ġhaus":5349,"Ġentsprechende":5350,"Â´":5351,"ĠErinner":5352,"bereit":5353,"ule":5354,"Ġzahlreichen":5355,"ĠGelegen":5356,"ĠGefahr":5357,"Ġdiver":5358,"anzeigen":5359,"ĠAmazon":5360,"ournal":5361,"ĠKreuz":5362,"linien":5363,"ĠPil":5364,"netz":5365,"ĠVarian":5366,"oto":5367,"Ġland":5368,"treter":5369,"ĠLaut":5370,"Ġsauber":5371,"holen":5372,"elev":5373,"ĠMarke":5374,"fahrer":5375,"ios":5376,"Ġwahrscheinlich":5377,"ĠZeichen":5378,"punkte":5379,"gress":5380,"ica":5381,"ologischen":5382,"ĠSter":5383,"Ġkennt":5384,"fangen":5385,"ĠBlu":5386,"ĠChem":5387,"Ġmittels":5388,"bus":5389,"dlich":5390,"ĠTrans":5391,"ĠHandy":5392,"emente":5393,"achung":5394,"ĠOffen":5395,"auert":5396,"Ġspricht":5397,"film":5398,"46":5399,"ĠMittwoch":5400,"Ġlieben":5401,"ICH":5402,"Ġdi":5403,"ĠGeg":5404,"edes":5405,"Ġarbeitet":5406,"inkel":5407,"Ġeingesch":5408,"obby":5409,"arzt":5410,"ĠVolk":5411,"Le":5412,"ĠLiebl":5413,"Ġstud":5414,"Ġschrift":5415,"ĠFÃ¼hrung":5416,"zum":5417,"rug":5418,"ĠEhe":5419,"ĠGesundheits":5420,"ĠUmgang":5421,"Ġ2000":5422,"ĠDonnerstag":5423,"ics":5424,"ffekt":5425,"mens":5426,"rick":5427,"stellte":5428,"gefÃ¤hr":5429,"ĠHilf":5430,"fÃ¤lle":5431,"ones":5432,"Ġschneller":5433,"able":5434,"volution":5435,"gelegt":5436,"passt":5437,"Ġelektron":5438,"ĠZugang":5439,"55":5440,"spf":5441,"IC":5442,"vin":5443,"ĠPartei":5444,"Ġkommenden":5445,"lichkeiten":5446,"ĠOrganisation":5447,"empf":5448,"ĠGrÃ¼nden":5449,"ĠHans":5450,"ideo":5451,"Ges":5452,"ĠergÃ¤n":5453,"ĠDorf":5454,"ĠWerbung":5455,"Ã¼nftig":5456,"fÃ¤higkeit":5457,"Ġentweder":5458,"aat":5459,"PS":5460,"Ġblau":5461,"ĠSprach":5462,"ĠCont":5463,"sprÃ¼che":5464,"unn":5465,"MS":5466,"Ġag":5467,"ĠBaby":5468,"gerÃ¤te":5469,"Ġentstanden":5470,"urg":5471,"ĠTradition":5472,"Ġkostenlose":5473,"Ġero":5474,"ĠGewicht":5475,"echseln":5476,"ĠUrs":5477,"service":5478,"auftrag":5479,"itieren":5480,"Ġbas":5481,"ĠStar":5482,"Ġans":5483,"ĠerhÃ¤ltlich":5484,"ĠKooper":5485,"ĠsÃ¤m":5486,"Ġabw":5487,"ĠPapier":5488,"ĠLux":5489,"Mod":5490,"osoph":5491,"sinn":5492,"eige":5493,"ĠBeitrÃ¤ge":5494,"ĠTrotz":5495,"hindern":5496,"gÃ¤nge":5497,"ĠProjekte":5498,"EG":5499,"assungs":5500,"ĠkÃ¼r":5501,"werden":5502,"ĠWeiÃŁ":5503,"ĠHof":5504,"Ġ196":5505,"Ã¶ÃŁ":5506,"ĠVielleicht":5507,"otto":5508,"Ġnieder":5509,"ĠerklÃ¤ren":5510,"lernen":5511,"Ġniemand":5512,"ĠgrÃ¶ÃŁte":5513,"ĠWechsel":5514,"Ġmensch":5515,"ĠZer":5516,"mu":5517,"scheint":5518,"ors":5519,"ĠVorteil":5520,"ĠLinie":5521,"messen":5522,"Ġkre":5523,"ĠBusiness":5524,"igital":5525,"ole":5526,"atze":5527,"sser":5528,"euten":5529,"Vers":5530,"Ġgestern":5531,"ĠDeine":5532,"ĠWarum":5533,"Neu":5534,"ĠInfos":5535,"ĠRoman":5536,"Ġungl":5537,"blatt":5538,"ĠFÃ¤h":5539,"AC":5540,"The":5541,"upp":5542,"mail":5543,"ift":5544,"ĠEinkauf":5545,"100":5546,"gal":5547,"Unser":5548,"cess":5549,"ĠBedarf":5550,"ĠGlau":5551,"Ġerinner":5552,"39":5553,"ĠWh":5554,"ologische":5555,"ĠIntegr":5556,"Ġtut":5557,"ĠKombination":5558,"suche":5559,"maschine":5560,"eitern":5561,"kshop":5562,"ĠprÃ¤sentiert":5563,"Ġdauer":5564,"ĠLeser":5565,"Ġbi":5566,"lefon":5567,"erseits":5568,"ĠMicro":5569,"mon":5570,"Ã¤rm":5571,"enze":5572,"ahnen":5573,"ĠSeine":5574,"Ġpr":5575,"alisiert":5576,"bilder":5577,"ĠPDF":5578,"chem":5579,"ĠFein":5580,"ĠFeuerwehr":5581,"acke":5582,"ĠTrink":5583,"teile":5584,"ĠKarte":5585,"ĠgrundsÃ¤tzlich":5586,"Ġsorg":5587,"ĠTrainer":5588,"ĠDel":5589,"Ã¤ngst":5590,"ĠZit":5591,"Ġries":5592,"Gen":5593,"stÃ¤ndige":5594,"stÃ¤ndigen":5595,"halle":5596,"ĠPresse":5597,"AD":5598,"beratung":5599,"rechte":5600,"Ġglaube":5601,"ĠUnterricht":5602,"Ġbeginnen":5603,"ĠtrÃ¤gt":5604,"rechts":5605,"ĠwÃ¼nschen":5606,"ĠFahrrad":5607,"reen":5608,"ĠAlters":5609,"Weiter":5610,"ring":5611,"ĠBeste":5612,"ĠBio":5613,"Ã¼cksichtig":5614,"omin":5615,"Ġheutigen":5616,"ĠTau":5617,"mosphÃ¤re":5618,"ĠKal":5619,"ĠStÃ¤r":5620,"ĠWiderruf":5621,"ĠVen":5622,"ĠBerliner":5623,"kret":5624,"schlÃ¤ge":5625,"Ġporno":5626,"ĠPrÃ¼f":5627,"ĠBew":5628,"ĠFranz":5629,"ĠLiteratur":5630,"ĠPay":5631,"Ġbezeichnet":5632,"ĠGeschichten":5633,"Ġgesetzt":5634,"ĠPlay":5635,"vertrag":5636,"ĠGeschenk":5637,"lecht":5638,"bildungs":5639,"ĠGas":5640,"Ġverbessern":5641,"ĠRisiko":5642,"ĠSPD":5643,"Ġpf":5644,"Ġverkaufen":5645,"ĠâĢļ":5646,"aust":5647,"inos":5648,"ĠGrenzen":5649,"ĠKaffee":5650,"zahlt":5651,"SGVO":5652,"Ġzunehmen":5653,"schm":5654,"Ġverhindern":5655,"bad":5656,"Ġgesucht":5657,"ld":5658,"nitten":5659,"ĠNo":5660,"ĠvollstÃ¤ndig":5661,"Ġunterschiedliche":5662,"Ġvern":5663,"ĠOper":5664,"ĠQ":5665,"kor":5666,"ips":5667,"ĠMÃ¶bel":5668,"Ġmer":5669,"Ġverpflichtet":5670,"gro":5671,"tierten":5672,"ĠInternetseite":5673,"ĠKamera":5674,"ĠBewer":5675,"iden":5676,"ĠVerbesser":5677,"itionen":5678,"ĠVorder":5679,"steh":5680,"ikanischen":5681,"enne":5682,"weite":5683,"Ġproblem":5684,"Ġdur":5685,"asino":5686,"Ġunterschiedlich":5687,"Ġattra":5688,"Ġzuk":5689,"ĠSein":5690,"Ġabgeschlossen":5691,"44":5692,"kunde":5693,"ĠUmsetzung":5694,"ĠgroÃŁes":5695,"ction":5696,"ĠTabl":5697,"Ã¤ck":5698,"bern":5699,"Ġerscheint":5700,"aschen":5701,"Des":5702,"ĠNor":5703,"sum":5704,"ieter":5705,"ĠJahrhundert":5706,"IG":5707,"ĠTats":5708,"ĠAuff":5709,"ĠEinfluss":5710,"etenz":5711,"ĠSim":5712,"sequ":5713,"ĠFahrt":5714,"ĠHÃ¼":5715,"App":5716,"Ġtrifft":5717,"ĠgemÃ¼t":5718,"gemeine":5719,"Ġgeboren":5720,"ĠTransport":5721,"Ġkleines":5722,"ĠVergangen":5723,"entlichkeit":5724,"ĠLern":5725,"ĠÃ¼bernehmen":5726,"Ġdrauf":5727,"ĠMaterialien":5728,"ĠerzÃ¤hlt":5729,"ĠKann":5730,"onds":5731,"ĠMaschinen":5732,"bro":5733,"ĠStrate":5734,"tigte":5735,"ĠLieferung":5736,"andeln":5737,"ĠHein":5738,"ĠFrem":5739,"Ġzeich":5740,"ĠAufbau":5741,"ĠRicht":5742,"Ã¤mpfen":5743,"31":5744,"Ġvoller":5745,"ĠBrief":5746,"leger":5747,"dert":5748,"ĠNewsletter":5749,"ĠLebensmittel":5750,"ĠKonzept":5751,"lÃ¤nd":5752,"ĠMotiv":5753,"Ġwith":5754,"Ã¼ten":5755,"ĠFit":5756,"ĠHard":5757,"Ġletzt":5758,"han":5759,"Ġeingeb":5760,"ĠInnov":5761,"angs":5762,"Ġalleine":5763,"Ġgetragen":5764,"sem":5765,"2016":5766,"haften":5767,"ĠFlughafen":5768,"Den":5769,"ĠWare":5770,"Ġdient":5771,"Ġbewusst":5772,"Ġvorstellen":5773,"ĠTreffen":5774,"Â¼":5775,"Ġ2006":5776,"antie":5777,"Te":5778,"ĠplÃ¶tzlich":5779,"Ġnahm":5780,"kampf":5781,"ĠFolgen":5782,"ĠMilliar":5783,"ĠZuf":5784,"ugend":5785,"Ġfolgt":5786,"Ġreag":5787,"omie":5788,"ohlen":5789,"ĠWettbewerb":5790,"drich":5791,"ĠTw":5792,"ĠHÃ¤lfte":5793,"ĠAnfrage":5794,"zesse":5795,"uk":5796,"Ġgehalten":5797,"Ġjahr":5798,"ĠSchon":5799,"ĠHimmel":5800,"Ġschauen":5801,"waltungs":5802,"##":5803,"ĠInstitut":5804,"ĠStudie":5805,"Ġhochwertige":5806,"ĠAusstellung":5807,"ĠUnfall":5808,"ĠWohnzimmer":5809,"alog":5810,"Ġmodernen":5811,"Ġerweiter":5812,"Ġprivate":5813,"ĠFrÃ¼hstÃ¼ck":5814,"JÃ¤hr":5815,"regierung":5816,"Ġsicherlich":5817,"ĠMaster":5818,"ĠKlassen":5819,"ĠGebrauch":5820,"bas":5821,"ĠGeheim":5822,"pul":5823,"Ġberaten":5824,"fan":5825,"istisch":5826,"mund":5827,"Ã¼ssen":5828,"antas":5829,"Ġbeschrieben":5830,"beit":5831,"ĠÃ¼bertragen":5832,"ichtete":5833,"Ð¾":5834,"Ġgelungen":5835,"Ġverschw":5836,"zeige":5837,"Ġvertreten":5838,"ĠFans":5839,"ĠProfil":5840,"ly":5841,"ĠRie":5842,"armon":5843,"ĠAs":5844,"Ġfot":5845,"Ġfein":5846,"Ġerlaubt":5847,"Ġed":5848,"ĠInformations":5849,"ĠVertrieb":5850,"Ġbilden":5851,"ĠZahlen":5852,"ace":5853,"Ġernst":5854,"ĠVit":5855,"Ã¼rt":5856,"ĠTÃ¤tigkeit":5857,"ĠStahl":5858,"ulation":5859,"rÃ¤nkt":5860,"stahl":5861,"ĠDafÃ¼r":5862,"Bl":5863,"handel":5864,"ĠpersÃ¶nliche":5865,"ĠRock":5866,"bett":5867,"ĠSehr":5868,"schreiben":5869,"Ġ36":5870,"ius":5871,"digen":5872,"andid":5873,"angt":5874,"iebt":5875,"ĠKol":5876,"ep":5877,"sonsten":5878,"ĠStandort":5879,"telligen":5880,"Ġheim":5881,"ĠTrau":5882,"ollar":5883,"ĠÃ¤hnlich":5884,"ices":5885,"LAN":5886,"Ġmedizin":5887,"eilung":5888,"pfl":5889,"ĠLeider":5890,"Ġfragen":5891,"beg":5892,"Ġdarunter":5893,"Ġas":5894,"ĠNorm":5895,"Dieses":5896,"werbe":5897,"holt":5898,"Ġzieht":5899,"itiative":5900,"Ġinteressant":5901,"Ã¤dagog":5902,"ĠProdukten":5903,"Ġdat":5904,"Zur":5905,"ĠursprÃ¼n":5906,"ĠDarÃ¼ber":5907,"ĠKostenlos":5908,"zeichnis":5909,"Ġdeiner":5910,"ĠChristian":5911,"ĠwÃ¤ren":5912,"ĠDokument":5913,"abt":5914,"seitig":5915,"ĠÃ¼brigens":5916,"steigen":5917,"wertungen":5918,"Ġmiteinander":5919,"Ġ150":5920,"forderung":5921,"Ġgratis":5922,"Ġbedeuten":5923,"ags":5924,"Ġsozialen":5925,"37":5926,"Ġgesetzlichen":5927,"Ja":5928,"ĠfranzÃ¶s":5929,"ibel":5930,"ĠAnalyse":5931,"Ġbeliebte":5932,"Ã¶rter":5933,"ĠBonus":5934,"eiern":5935,"Ġhabt":5936,"Deut":5937,"Ġstra":5938,"heber":5939,"ĠSmartphone":5940,"ĠZeu":5941,"ĠBeschÃ¤f":5942,"lafen":5943,"ĠMor":5944,"ival":5945,"eta":5946,"Ġmussten":5947,"gramme":5948,"Ser":5949,"df":5950,"achelor":5951,"Ġspeziell":5952,"Ġzahlen":5953,"ĠBevÃ¶lkerung":5954,"Ġsamm":5955,"ĠMiet":5956,"Ġinkl":5957,"ĠJes":5958,"ĠBehÃ¶r":5959,"Ã¼st":5960,"orte":5961,"Ã¤st":5962,"Ġflex":5963,"EM":5964,"Ġsan":5965,"Ġerstmals":5966,"reig":5967,"date":5968,"sucht":5969,"IP":5970,"boden":5971,"Ã¤ne":5972,"Ġgelesen":5973,"Ġrech":5974,"ĠWil":5975,"ĠProt":5976,"ĠJapan":5977,"Ġwirken":5978,"ĠMikro":5979,"Ġnochmal":5980,"reif":5981,"ĠLehrer":5982,"ites":5983,"KW":5984,"Ã¼se":5985,"ĠBox":5986,"Â²":5987,"ĠRoll":5988,"--------":5989,"icks":5990,"indert":5991,"ĠVergangenheit":5992,"Sh":5993,"Gesch":5994,"ĠanschlieÃŁend":5995,"Ġbeweg":5996,"ĠKoch":5997,"SP":5998,"ĠauÃŁerhalb":5999,"Ġpol":6000,"Ġverantwortlich":6001,"deu":6002,"ĠFalle":6003,"ĠJeder":6004,"ĠKrÃ¤":6005,"sg":6006,"ĠGegner":6007,"ahrung":6008,"ammt":6009,"arif":6010,"illa":6011,"kre":6012,"ĠÃ¼berprÃ¼":6013,"Ġperfekte":6014,"tr":6015,"ĠMuster":6016,"ĠMy":6017,"ĠFleisch":6018,"Aut":6019,"atoren":6020,"Ã¼ÃŁen":6021,"ĠZÃ¼r":6022,"ĠgefÃ¼hrt":6023,"Ġ2019":6024,"geschrieben":6025,"ĠFla":6026,"platte":6027,"Ã¼m":6028,"ĠKÃ¼chen":6029,"47":6030,"rah":6031,"Ġberichtet":6032,"Ġbetroffenen":6033,"ĠZw":6034,"ĠBaden":6035,"Ġerheb":6036,"ĠIl":6037,"ĠDienstag":6038,"Ġaufgenommen":6039,"ĠMir":6040,"Ġnutz":6041,"Ġmoderne":6042,"ĠKategorie":6043,"gelassen":6044,"ĠKritik":6045,"Ġwachsen":6046,"ĠStraf":6047,"ĠPlanung":6048,"enter":6049,"ĠLED":6050,"ĠTechnologie":6051,"ĠKommentar":6052,"ĠLeipzig":6053,"ĠBildungs":6054,"zenz":6055,"Ġ2005":6056,"schirm":6057,"ĠRunde":6058,"ĠDrit":6059,"Ġbekannte":6060,"ĠBier":6061,"ĠBook":6062,"Ġdritten":6063,"32":6064,"san":6065,"ĠPor":6066,"erner":6067,"komp":6068,"Ġfindest":6069,"Ġwelchen":6070,"ĠNeue":6071,"stu":6072,"Or":6073,"Ġwichtigen":6074,"Ã¶rdert":6075,"ĠHum":6076,"ĠEindruck":6077,"2015":6078,"Ġgebe":6079,"messer":6080,"Ġgezeigt":6081,"Ġneg":6082,"ĠÃ¼berzeugt":6083,"rol":6084,"zy":6085,"Ġwor":6086,"Ġkr":6087,"Ġsen":6088,"ĠEuropÃ¤ischen":6089,"timent":6090,"ĠSchulen":6091,"Ġessen":6092,"II":6093,"ĠTanz":6094,"Ġgewonnen":6095,"ĠEss":6096,"Ġzuerst":6097,"ĠEinfach":6098,"Techn":6099,"ĠkÃ¶rper":6100,"ĠzuverlÃ¤ss":6101,"Ġdienen":6102,"ergie":6103,"ĠVerantwortung":6104,"ĠVi":6105,"steiger":6106,"ĠBrem":6107,"achtung":6108,"ĠWeihnachts":6109,"Ġamer":6110,"hÃ¤user":6111,"ĠSchlafzimmer":6112,"ĠTal":6113,"kohol":6114,"Ġkurze":6115,"con":6116,"ĠLandkreis":6117,"ĠBezir":6118,"ktor":6119,"ĠFrieden":6120,"Ġeinfache":6121,"ĠStudium":6122,"ografie":6123,"utzung":6124,"ĠVorteile":6125,"eichern":6126,"Ġdaraus":6127,"kÃ¼ndig":6128,"Ġeffe":6129,"cy":6130,"ĠDro":6131,"ampag":6132,"ĠBesonders":6133,"ischung":6134,"ĠPrÃ¼fung":6135,"ĠBeteil":6136,"ymn":6137,"Ġerstellt":6138,"Ġwann":6139,"ĠSchlÃ¼ssel":6140,"ĠHerrn":6141,"ĠKollegen":6142,"Ġverwende":6143,"Ġ32":6144,"ĠWal":6145,"ĠMund":6146,"Ġberu":6147,"ĠPe":6148,"ĠMinister":6149,"Ġsparen":6150,"Ġti":6151,"fertigt":6152,"itor":6153,"ĠFo":6154,"Ã¤nn":6155,"geht":6156,"ĠChina":6157,"ĠÃĸffentlichkeit":6158,"Ã¤ische":6159,"-/":6160,"ĠEreig":6161,"Ġbauen":6162,"pflege":6163,"ĠForschungs":6164,"dre":6165,"ĠKÃ¼hl":6166,"hoch":6167,"xx":6168,"rock":6169,"Ġdisku":6170,"ĠInstr":6171,"ichert":6172,"ĠImmer":6173,"Ġtotal":6174,"AB":6175,"bedarf":6176,"ĠtÃ¤tig":6177,"Ã¶m":6178,"ĠDienstleistungen":6179,"ĠRab":6180,"ĠausfÃ¼hr":6181,"ĠLÃ¤nge":6182,"ĠMilliarden":6183,"ĠPersÃ¶n":6184,"hlight":6185,"ĠBeziehung":6186,"bericht":6187,"Ġwichtiger":6188,".:.:":6189,"ĠVorsitzen":6190,"ĠBericht":6191,"Ġschm":6192,"fre":6193,"Ġregion":6194,"ĠzusÃ¤tzliche":6195,"ĠArbeitgeber":6196,"pap":6197,"ĠLab":6198,"Ġsteigen":6199,"krieg":6200,"liefer":6201,"Ġsprach":6202,"usste":6203,"ĠMig":6204,"ĠÃ¼berw":6205,"ĠFilme":6206,"ĠeuropÃ¤ischen":6207,"versorgung":6208,"gerufen":6209,"Ġstarten":6210,"Ġfrem":6211,"Ġsofern":6212,"club":6213,"ĠInstall":6214,"Ġsing":6215,"Ġsuche":6216,"Ġbegeistert":6217,"ĠschÃ¼tzen":6218,"ĠLÃ¼":6219,"ĠHannover":6220,"ĠZwecke":6221,"Ġhilf":6222,"Produ":6223,"ĠLeiter":6224,"ĠÃľberblick":6225,"Ġpassende":6226,"werben":6227,"Ġpolitischen":6228,"ĠWelche":6229,"Ġschreibt":6230,"Ġengag":6231,"alismus":6232,"Ã¤hlte":6233,"nahm":6234,"ĠZeitung":6235,"ĠEisen":6236,"ippen":6237,"Ðµ":6238,"dio":6239,"ationalen":6240,"ĠModelle":6241,"Ġfil":6242,"ĠgrÃ¼n":6243,"ĠEinfÃ¼hrung":6244,"34":6245,"kan":6246,"Ġprivaten":6247,"Ġinklusive":6248,"jekten":6249,"ikations":6250,"gestaltung":6251,"Au":6252,"ĠDSGVO":6253,"ĠArbeitspl":6254,"ĠWasch":6255,"ĠNummer":6256,"Ã¶rdern":6257,"Ġgedacht":6258,"ĠSucht":6259,"Ġtrocken":6260,"ĠBrust":6261,"ĠerwÃ¤hn":6262,"entwicklung":6263,"ĠTherapie":6264,"ĠKart":6265,"ĠPop":6266,"spruchs":6267,"ĠOrts":6268,"ideos":6269,"ĠSchwar":6270,"Ġstellte":6271,"ĠSign":6272,"laufen":6273,"folgen":6274,"schi":6275,"olden":6276,"Ã¼h":6277,"beu":6278,"ĠZugriff":6279,"ĠKommentare":6280,"ĠfÃ¼hlen":6281,"ehrt":6282,"ĠPu":6283,"ĠGelegenheit":6284,"Ġeinzelne":6285,"plÃ¤tze":6286,"way":6287,"freie":6288,"ĠEinen":6289,"fristig":6290,"Ġlok":6291,"ĠMiss":6292,"Ġfalsch":6293,"ĠSchreib":6294,"rÃ¤umen":6295,"ĠgenÃ¼":6296,"Ġjung":6297,"iefe":6298,"ĠBot":6299,"Â§":6300,"achstum":6301,"ĠInterview":6302,"erweise":6303,"ĠFernseh":6304,"Ġmod":6305,"ĠZentr":6306,"nissen":6307,"cl":6308,"Ġvorne":6309,"pon":6310,"ĠCor":6311,"ĠAbsatz":6312,"ĠPlus":6313,"akten":6314,"ĠFa":6315,"ierend":6316,"ĠSpitzen":6317,"Ġhergestellt":6318,"Ġleisten":6319,"ĠKop":6320,"ĠLeiden":6321,"Ġaufs":6322,"aufnahme":6323,"ĠGericht":6324,"Ġbreit":6325,"ĠdÃ¼rfte":6326,"ĠDadurch":6327,"ĠParty":6328,"roid":6329,"cel":6330,"ĠAusgabe":6331,"ĠRechnung":6332,"ampe":6333,"yle":6334,"ĠBlau":6335,"Ġgekauft":6336,"ĠHigh":6337,"ĠFisch":6338,"pert":6339,"IM":6340,"Ġindividuelle":6341,"etzten":6342,"itar":6343,"osen":6344,"vo":6345,"Ġ38":6346,"ĠRelig":6347,"Ġgesellschaft":6348,"schaffen":6349,"ĠsÃ¼d":6350,"inst":6351,"ĠDÃ¼sseld":6352,"TV":6353,"ĠWeiterlesen":6354,"figur":6355,"Ġentsteht":6356,"folgt":6357,"ondon":6358,"Ġhoffe":6359,"ĠFreiheit":6360,"Ġfehlt":6361,"ski":6362,"ĠTexte":6363,"ĠEigenschaften":6364,"arn":6365,"Ġlust":6366,"Ġverurs":6367,"ĠUrteil":6368,"fernen":6369,"ĠbeschÃ¤ftigt":6370,"ĠberÃ¼hm":6371,"ĠSingle":6372,"artige":6373,"ĠZul":6374,"ĠRussland":6375,"derung":6376,"2014":6377,"ehme":6378,"TS":6379,"back":6380,"ĠGestaltung":6381,"ĠĠ":6382,"ml":6383,"denburg":6384,"soft":6385,"VD":6386,"ĠHom":6387,"Ġleist":6388,"loud":6389,"ritz":6390,"Ã¡":6391,"gewicht":6392,"Ã¼ltig":6393,"Ð°":6394,"ĠWeil":6395,"66":6396,"ĠBenutzer":6397,"digt":6398,"stellungs":6399,"kurs":6400,"renz":6401,"ĠDeutschlands":6402,"frau":6403,"rÃ¤nke":6404,"spartner":6405,"ĠMedik":6406,"ivil":6407,"Ġ08":6408,"ĠfÃ¼hrte":6409,"ĠGal":6410,"ĠAdresse":6411,"Ġinnen":6412,"Ġentdecken":6413,"rand":6414,"ĠDres":6415,"Ġlieb":6416,"Ġpositiv":6417,"ĠPla":6418,"ĠgefÃ¤llt":6419,"ĠOff":6420,"ĠWÃ¤rme":6421,"ĠMesse":6422,"willigung":6423,"senden":6424,"ĠBewertung":6425,"liste":6426,"Ġentspricht":6427,"raining":6428,"ĠKant":6429,"ĠHinweis":6430,"ĠChancen":6431,"lehr":6432,"ĠausdrÃ¼cklich":6433,"Ġkultur":6434,"zens":6435,"ĠFreundin":6436,"ĠgewÃ¤hlt":6437,"spiegel":6438,"Ġgarantiert":6439,"ĠRos":6440,"ĠKonzert":6441,"Bay":6442,"ĠStimme":6443,"Ġmei":6444,"za":6445,"ĠErlebnis":6446,"ĠWunder":6447,"ages":6448,"ĠÂ°":6449,"ĠZiele":6450,"ĠFakt":6451,"ischt":6452,"OP":6453,"Ġkurzen":6454,"ĠzÃ¤hlt":6455,"ĠOpfer":6456,"Ġkommun":6457,"mine":6458,"Ġdeinem":6459,"ds":6460,"Ġbetroffene":6461,"ĠrÃ¼ck":6462,"ĠBetroffen":6463,"Ġblieb":6464,"ĠAf":6465,"Ġpraktisch":6466,"Ġerstmal":6467,"Ġunge":6468,"ĠSet":6469,"ĠKunststoff":6470,"ĠRadio":6471,"oben":6472,"ĠDatenschutzerklÃ¤rung":6473,"ĠErotik":6474,"vangel":6475,"Ġtechnischen":6476,"sende":6477,"ĠAtmosphÃ¤re":6478,"Ġextra":6479,"ktien":6480,"Ġerhoben":6481,"orben":6482,"Ġoptim":6483,"Ġregistr":6484,"Ġren":6485,"Ġinformiert":6486,"ĠSilber":6487,"lament":6488,"ĠverfÃ¼gen":6489,"ĠTaschen":6490,"))":6491,"ual":6492,"Ġlebt":6493,"halter":6494,"altungs":6495,"Ġgeil":6496,"ĠverstÃ¤r":6497,"Ġausreichend":6498,"ĠMulti":6499,"text":6500,"rennen":6501,"Ġtollen":6502,"ĠBM":6503,"Ã¶rung":6504,"wÃ¤rts":6505,"ommunity":6506,"Ġwollten":6507,"Ġergeben":6508,"ĠFahrer":6509,"kultur":6510,"iga":6511,"Ġgleiche":6512,"RA":6513,"alerie":6514,"Ġachten":6515,"meter":6516,"zeichnen":6517,"ĠDeb":6518,"ĠKabel":6519,"ĠPublikum":6520,"ĠGebiet":6521,"fordert":6522,"ĠMilch":6523,"ĠPaul":6524,"splan":6525,"ew":6526,"Ġficken":6527,"LE":6528,"verk":6529,"Ġhinein":6530,"amilien":6531,"ĠUnterschied":6532,"Ġlohnt":6533,"Neben":6534,"Ġumfasst":6535,"machen":6536,"raktion":6537,"Ġevent":6538,"maÃŁen":6539,"kul":6540,"ĠMuseum":6541,"fÃ¼llung":6542,"Ġno":6543,"Ġwenden":6544,"gentur":6545,"IV":6546,"CD":6547,"ĠKontrolle":6548,"Ġbemer":6549,"Ġei":6550,"ĠTeams":6551,"ĠTeilnahme":6552,"ĠMinute":6553,"nummer":6554,"ĠArm":6555,"adern":6556,"Ġmobil":6557,"ĠShow":6558,"ĠHD":6559,"erei":6560,"emm":6561,"Ġorden":6562,"berech":6563,"Ġniedr":6564,"Ġglauben":6565,"ĠKarl":6566,"ampen":6567,"ĠerfÃ¼llt":6568,"gesp":6569,"rÃ¼cken":6570,"egt":6571,"Mehr":6572,"ĠRob":6573,"ita":6574,"ena":6575,"ĠDiskussion":6576,"istenz":6577,"ĠVielzahl":6578,"ĠErnÃ¤hrung":6579,"ĠStaaten":6580,"ĠAnteil":6581,"Ġerscheinen":6582,"ĠGerade":6583,"Ã¼nen":6584,"Ġ195":6585,"Ġgu":6586,"ĠBlumen":6587,"Ġ400":6588,"atisch":6589,"indungen":6590,"italien":6591,"jenigen":6592,"ĠZubehÃ¶r":6593,"Ġexist":6594,"ĠEp":6595,"ĠZusatz":6596,"geschÃ¤ft":6597,"ĠFriedrich":6598,"ĠNoch":6599,"ĠBlack":6600,"ĠMerk":6601,"que":6602,"ĠAktivitÃ¤ten":6603,"Ġsehe":6604,"Ġausgeb":6605,"ĠDeck":6606,"Ġeiniges":6607,"ĠprÃ¼":6608,"forschung":6609,"urn":6610,"ĠTher":6611,"ĠAnlagen":6612,"schulen":6613,"ĠBud":6614,"ĠUmsatz":6615,"aber":6616,"Ġvorber":6617,"ĠArten":6618,"utlich":6619,"ĠModern":6620,"ĠSV":6621,"essel":6622,"Ġideal":6623,"lÃ¤nder":6624,"bis":6625,"oge":6626,"Ġerfolgen":6627,"rael":6628,"ĠFree":6629,"ĠSau":6630,"Ġzugleich":6631,"ĠAmts":6632,"Ġgespielt":6633,"angebote":6634,"ielten":6635,"krank":6636,"este":6637,"ĠUnion":6638,"modell":6639,"duzieren":6640,"Mein":6641,"reitet":6642,"Ġby":6643,"ĠFÃ¶rderung":6644,"ĠWorte":6645,"Ġtelefon":6646,"Ġangezeigt":6647,"Ġinteressiert":6648,"stes":6649,"ĠerfÃ¼llen":6650,"Ġhinten":6651,"Ġiden":6652,"ĠHomepage":6653,"Ġweiterer":6654,"igem":6655,"zwe":6656,"ragend":6657,"het":6658,"teilen":6659,"Bes":6660,"wertet":6661,"Ġtr":6662,"ziehungs":6663,"kÃ¼n":6664,"agd":6665,"gten":6666,"zÃ¼ge":6667,"ĠDanach":6668,"ĠstÃ¤rker":6669,"Ġunglaub":6670,"Ġteilen":6671,"val":6672,"Ġinvest":6673,"ĠFinger":6674,"Ã¤use":6675,"ĠEnglisch":6676,"ordin":6677,"Ġeindeu":6678,"Ġbesitzt":6679,"sitz":6680,"ĠBunde":6681,"wander":6682,"ĠSn":6683,"ĠGrie":6684,"ervice":6685,"Ġbehandelt":6686,"ĠHeiz":6687,"dessen":6688,"Ġinteressante":6689,"hÃ¤nger":6690,"aszin":6691,"weiÃŁ":6692,"ĠErkrank":6693,"veranst":6694,"ĠVerkÃ¤ufer":6695,"ĠKooperation":6696,"ĠSound":6697,"ĠSchnell":6698,"scheidet":6699,"wenden":6700,"euchtung":6701,"Ġvieles":6702,"edia":6703,"68":6704,"ĠFran":6705,"kat":6706,"Ġzeigte":6707,"ĠPS":6708,"itiv":6709,"rastruktur":6710,"nicht":6711,"spekt":6712,"ĠSekunden":6713,"EU":6714,"ĠTick":6715,"ĠKarr":6716,"Ġsogenannten":6717,"Ġkat":6718,"ĠDreh":6719,"98":6720,"Ġhingegen":6721,"spannung":6722,"ĠTrinkwasser":6723,"ummern":6724,"ĠAntworten":6725,"ĠSachsen":6726,"ĠBor":6727,"ĠZucker":6728,"Ġkg":6729,"Ġeiniger":6730,"Ã¶rungen":6731,"ĠPoly":6732,"iefen":6733,"ĠUmfang":6734,"ĠHu":6735,"schten":6736,"ĠApple":6737,"ĠAch":6738,"ĠzÃ¤hlen":6739,"ologien":6740,"Ġpassenden":6741,"Ġkonzentr":6742,"rafen":6743,"Ġherzlich":6744,"hÃ¶he":6745,"ĠAnzeige":6746,"ĠwunderschÃ¶n":6747,"ioren":6748,"essour":6749,"Ġstarke":6750,"Shop":6751,"ĠWell":6752,"igungs":6753,"zepti":6754,"tlichen":6755,"Ġvorlie":6756,"Ġeinst":6757,"Ġschnelle":6758,"Ġporn":6759,"ĠVerz":6760,"ĠPlattform":6761,"Spiel":6762,"Ġgemeinsamen":6763,"ĠSchloss":6764,"42":6765,"ada":6766,"ĠverÃ¤ndert":6767,"ĠPrakti":6768,"Ġkostet":6769,"Ġ09":6770,"Mar":6771,"Ã¤umen":6772,"ĠAblauf":6773,"ĠDigit":6774,"ĠVersicherungs":6775,"Ġbekannten":6776,"ĠWorkshop":6777,"ĠSpiegel":6778,"kap":6779,"Ġmu":6780,"ĠBra":6781,"Also":6782,"ĠStamm":6783,"Ġgering":6784,"euert":6785,"ĠInner":6786,"ris":6787,"ĠMini":6788,"ĠBurg":6789,"alisieren":6790,"Ġko":6791,"ĠnÃ¶tig":6792,"ĠZeitraum":6793,"Ġeure":6794,"ĠAnaly":6795,"Ã¼rn":6796,"Ġbessere":6797,"Ã¼mer":6798,"uellen":6799,"tim":6800,"echan":6801,"Ġruss":6802,"ruhe":6803,"ĠDanke":6804,"Ġleichter":6805,"ĠGrÃ¼nde":6806,"Ġindividuellen":6807,"Ġgrau":6808,"ĠAngriff":6809,"slam":6810,"Ġverlie":6811,"ĠAufnahme":6812,"ĠZusch":6813,"Ġlecker":6814,"ĠFormen":6815,"gÃ¤nger":6816,"temberg":6817,"versammlung":6818,"enke":6819,"vid":6820,"Ġ75":6821,"macht":6822,"isst":6823,"!âĢľ":6824,"zellen":6825,"RO":6826,"ĠBlock":6827,"indust":6828,"Ġsinnvoll":6829,"ĠIN":6830,"ĠÃ¶sterreich":6831,"ĠNews":6832,"ĠselbstverstÃ¤ndlich":6833,"Ġstarken":6834,"ezif":6835,"annen":6836,"ĠUSB":6837,"Ġzerst":6838,"Ġverkauft":6839,"ĠEinrichtung":6840,"ĠHÃ¤nd":6841,"euern":6842,"ĠMode":6843,"ders":6844,"hler":6845,"ĠGute":6846,"Ġausger":6847,"Ġnennen":6848,"weisung":6849,"standen":6850,"to":6851,"ackte":6852,"ĠGi":6853,"rÃ¼st":6854,"Ġanbieten":6855,"...]":6856,"Ġwesentlich":6857,"ĠEngagement":6858,"ĠSyn":6859,"lager":6860,"amb":6861,"azin":6862,"Ã¼re":6863,"ĠlÃ¶":6864,"okus":6865,"Ġgetr":6866,"ilien":6867,"ĠPet":6868,"Beim":6869,"stÃ¤ndnis":6870,"ĠStiefel":6871,"Ġtechnische":6872,"Ġ2004":6873,"ĠgegrÃ¼ndet":6874,"ates":6875,"Ġkomplex":6876,"iertes":6877,"ĠSymbol":6878,"wege":6879,"ĠAtt":6880,"Ã¶rte":6881,"ĠVerwaltungs":6882,"Ġstabil":6883,"ĠVerf":6884,"ĠPul":6885,"gemeinschaft":6886,"Ġbenutzt":6887,"ĠFle":6888,"ĠOrdnung":6889,"Ġliefern":6890,"ĠWerte":6891,"ĠWebseiten":6892,"ffizienz":6893,"Ġentlang":6894,"reff":6895,"Ġeigenes":6896,"ĠNachdem":6897,"ĠGrundstÃ¼ck":6898,"bliothek":6899,"For":6900,"usstsein":6901,"ĠKeine":6902,"alifiz":6903,"lehn":6904,"riterien":6905,"reit":6906,"Ġbill":6907,"wohnung":6908,"Ġbehaup":6909,"ĠGegensatz":6910,"umenten":6911,"Land":6912,"ĠgeschÃ¼tzt":6913,"ĠKenn":6914,"ĠJahrzehn":6915,"ĠÃĦnderungen":6916,"Ġkompeten":6917,"Ġkontroll":6918,"sw":6919,"Ã¤cher":6920,"elles":6921,"ĠVoraussetzungen":6922,"ĠGerman":6923,"teln":6924,"Ġfrag":6925,"ziehungen":6926,"ĠMotto":6927,"ĠFreunden":6928,"Ġhart":6929,"ĠJur":6930,"ladung":6931,"Ã¼ter":6932,"ĠMedia":6933,"ampfadern":6934,"ĠHart":6935,"gf":6936,"ĠÃ¶ffentlich":6937,"reuen":6938,"Ġfe":6939,"Ġangenehm":6940,"ĠMindest":6941,"ini":6942,"ĠHÃ¤nde":6943,"ĠUser":6944,"ĠBedien":6945,"Ġ1000":6946,"ĠVerhÃ¤ltnis":6947,"2013":6948,"Ġweich":6949,"Ġfalls":6950,"luss":6951,"ĠGlauben":6952,"Ġverg":6953,"ĠÃľbersicht":6954,"zern":6955,"ĠLondon":6956,"orts":6957,"oppen":6958,"Ġnatur":6959,"ituationen":6960,"ric":6961,"onym":6962,"ĠAnf":6963,"ĠMatt":6964,"Reg":6965,"beweg":6966,"ĠChef":6967,"!)":6968,"iller":6969,"ĠSehen":6970,"ĠDritte":6971,"ĠKapital":6972,"ĠSchÃ¤den":6973,"farben":6974,"Ġweiteres":6975,"ĠSicher":6976,"Ġ55":6977,"ĠST":6978,"weist":6979,"ĠprÃ¤sentieren":6980,"ĠKein":6981,"umin":6982,"ĠSE":6983,"Ġmache":6984,"aker":6985,"Ġ48":6986,"Ġeleg":6987,"ĠAuge":6988,"ĠZÃ¼rich":6989,"sprechend":6990,"Ġwirst":6991,"ĠMethoden":6992,"ĠLau":6993,"ano":6994,"ĠAutos":6995,"ationale":6996,"Â¤":6997,"ĠWÃ¼nsche":6998,"ĠEinrichtungen":6999,"Ġbislang":7000,"Ġrot":7001,"ĠPrinzip":7002,"ĠJournal":7003,"Ġschul":7004,"ĠAusdruck":7005,"Ġfrau":7006,"ĠAlternative":7007,"osk":7008,"Ġla":7009,"ĠMittag":7010,"ĠÃĦrzte":7011,"onenten":7012,"verl":7013,"una":7014,"Ġklassischen":7015,"igner":7016,"Ġwasser":7017,"ĠVermÃ¶gen":7018,"ziplin":7019,"Ã¶d":7020,"Ġfreien":7021,"medizin":7022,"Ã¤tter":7023,"Ġgeist":7024,"Ġmusst":7025,"Ġstaat":7026,"41":7027,"ĠKonto":7028,"ĠMac":7029,"iente":7030,"Ã¶tt":7031,"ĠKlaus":7032,"Ġwiederum":7033,"gig":7034,"Ġallgemeinen":7035,"Ġehemaligen":7036,"Pal":7037,"orten":7038,"Ġvorgestellt":7039,"Ġpolitische":7040,"ĠAndreas":7041,"Ġfrisch":7042,"ola":7043,"ĠPrÃ¤sident":7044,"Ad":7045,"ĠVom":7046,"Ġgefragt":7047,"ronen":7048,"ĠKomfort":7049,"Ġdachte":7050,"Ġser":7051,"ĠGutschein":7052,"ĠStudenten":7053,"ĠmaÃŁ":7054,"Ã¤hlten":7055,"ĠLad":7056,"ifferen":7057,"ĠBrot":7058,"ĠHandels":7059,"Ġsogenannte":7060,"Nun":7061,"ĠDenk":7062,"ĠPerspe":7063,"krÃ¤fte":7064,"ĠStrecke":7065,"ĠEinige":7066,"politik":7067,"Ġmark":7068,"Bet":7069,"treffen":7070,"Ġgeplant":7071,"Ġvermeiden":7072,"ĠHat":7073,"ĠRezept":7074,"top":7075,"Ġzweit":7076,"ĠauÃŁen":7077,"ĠÃ¶ffentliche":7078,");":7079,"ĠKonkur":7080,"ĠVerwaltung":7081,"hebung":7082,"gefÃ¼hl":7083,"kommt":7084,"ĠLaden":7085,"ĠAustausch":7086,"Ġarbeite":7087,"ĠFitness":7088,"Ġ07":7089,"Ġverschl":7090,"otion":7091,"Ġbeeinfl":7092,"ĠiPh":7093,"maÃŁnahmen":7094,"ĠKe":7095,"sichts":7096,"Ġladen":7097,"Ġwelchem":7098,"Ġsitzen":7099,"rechnung":7100,"etisch":7101,"Ġtreten":7102,"ĠAg":7103,"ĠJugendliche":7104,"ĠÃ¶ffnen":7105,"ãģ":7106,"Ġmeines":7107,"Ġelektr":7108,"ĠKla":7109,"leistet":7110,"ĠDirekt":7111,"ĠerhÃ¶ht":7112,"ĠAndroid":7113,"bindung":7114,"Ġfahr":7115,"wiegend":7116,"ĠKrankheit":7117,"undert":7118,"ĠStiftung":7119,"ards":7120,"Ġweiss":7121,"gels":7122,"ĠLandschaft":7123,"paratur":7124,"ĠGolf":7125,"ĠFalls":7126,"ĠHinweise":7127,"funk":7128,"ĠBetreiber":7129,"ĠTÃ¼rk":7130,"fordern":7131,"ĠWes":7132,"ĠWol":7133,"job":7134,"Ġwarm":7135,"ĠRegeln":7136,"helm":7137,"hlung":7138,"Ġangemessen":7139,"aming":7140,"zieht":7141,"gebracht":7142,"grÃ¶ÃŁe":7143,"tl":7144,"ĠRefer":7145,"Ġverarbeitet":7146,"zufÃ¼hren":7147,"va":7148,"formular":7149,"filme":7150,"ikationen":7151,"ĠmÃ¼sste":7152,"Fr":7153,"Ã¤testens":7154,"Heute":7155,"ffel":7156,"ĠAlten":7157,"ĠStock":7158,"Ġcasino":7159,"Ġglob":7160,"ĠDÃ¼sseldorf":7161,"ĠCan":7162,"ĠPflicht":7163,"Ġprofitieren":7164,"Ġgetroffen":7165,"industrie":7166,"77":7167,"tis":7168,"ĠNet":7169,"no":7170,"ĠlÃ¤ngst":7171,"aster":7172,"Bild":7173,"sprecher":7174,"ĠJohn":7175,"Ġlegt":7176,"ĠOpen":7177,"Ã¤hler":7178,"wirken":7179,"ĠInteress":7180,"ĠgrÃ¶ÃŁere":7181,"ĠHochzeit":7182,"Ġkrank":7183,"ĠunabhÃ¤ngig":7184,"ĠCDU":7185,"Ġnahezu":7186,"Ġinternationale":7187,"ĠkÃ¶nne":7188,"Ã¤tzlich":7189,"kontakte":7190,"ĠTelef":7191,"ĠAlbum":7192,"ĠBahnhof":7193,"ĠRestaurants":7194,"ollt":7195,"ize":7196,"OT":7197,"ĠEinwilligung":7198,"ĠSpitze":7199,"Ð¸":7200,"gewiesen":7201,"htt":7202,"okratie":7203,"ĠðŁĺ":7204,"ĠLesen":7205,"Ġgetan":7206,"ĠBalkon":7207,"hÃ¶ren":7208,"Ġentsp":7209,"seits":7210,"samen":7211,"musik":7212,"sfÃ¤h":7213,"Ġneun":7214,"atische":7215,"verwaltung":7216,"iedern":7217,"ĠSchwe":7218,"Bitte":7219,"prÃ¼fung":7220,"Ihr":7221,"Ġausges":7222,"Ġmusikal":7223,"ĠBauch":7224,"ĠRede":7225,"ĠHan":7226,"gÃ¼nst":7227,"ĠWa":7228,"Ġausgel":7229,"ĠBildern":7230,"ĠMut":7231,"ĠBatter":7232,"rhein":7233,"suchen":7234,"Ġbrachte":7235,"Grund":7236,"bÃ¼rger":7237,"ĠHighlight":7238,"ĠKontakte":7239,"ĠDial":7240,"ĠKÃ¤ufer":7241,"ĠUnternehmer":7242,"ĠPre":7243,"agten":7244,"ĠStad":7245,"War":7246,"Dat":7247,"werks":7248,"Ġklicken":7249,"ĠGir":7250,"gier":7251,"ĠÃ¤r":7252,"Ġdahin":7253,"ĠSÃ¼":7254,"arbeitern":7255,"ĠReal":7256,"ĠEdelstahl":7257,"gesprÃ¤":7258,"ĠKonfl":7259,".[":7260,"leisten":7261,"Ġentdeckt":7262,"ĠKategorien":7263,"hte":7264,"zusetzen":7265,"lieÃŁt":7266,"ĠStefan":7267,"ĠSat":7268,"ĠAbenteuer":7269,"ĠVerÃ¶ffentlich":7270,"Ġraum":7271,"Ġitalien":7272,"Ã¼hle":7273,"Ġpartner":7274,"ĠVerband":7275,"schiede":7276,"ĠBÃ¼hne":7277,"Nicht":7278,"85":7279,"holung":7280,"rinken":7281,"ĠJust":7282,"Ã¶rse":7283,"Ġdunk":7284,"ĠSchwanz":7285,"Ġeignet":7286,"ĠRoh":7287,"ĠJungen":7288,"ĠbestÃ¤tigt":7289,"athem":7290,"Ġanzeigen":7291,"kund":7292,"artikel":7293,"drucken":7294,"ĠAktien":7295,"tragung":7296,"ĠsÃ¤mtliche":7297,"ĠÃ¼berzeugen":7298,"ĠDresden":7299,"Ġdauert":7300,"ĠYog":7301,"ĠVersuch":7302,"ĠAufenthalt":7303,"ikanische":7304,"Ġ:)":7305,"ĠDS":7306,"Ġschau":7307,"ĠWichtig":7308,"Ġspezielle":7309,"nt":7310,"ĠGrundlagen":7311,"rib":7312,"ĠBelast":7313,"ender":7314,"ĠBauern":7315,"Ġleiden":7316,"DE":7317,"Ġbezahlen":7318,"ĠBerat":7319,"ikon":7320,"ĠSind":7321,"Ġkorre":7322,"pal":7323,"Fl":7324,"esto":7325,"Ġausw":7326,"innern":7327,"ĠVertrauen":7328,"iche":7329,"ĠHandwerk":7330,"ĠLud":7331,"Ġwechseln":7332,"ĠYou":7333,"ĠGemÃ¼se":7334,"Ġgeile":7335,"ĠZut":7336,"fÃ¼llt":7337,"ĠGeneration":7338,"bran":7339,"bart":7340,"ĠDarm":7341,"beln":7342,"reck":7343,"ĠGang":7344,"Ġhalb":7345,"leister":7346,"struktion":7347,"best":7348,"ĠgelÃ¶":7349,"Ġeur":7350,"Ġerleich":7351,"iguren":7352,"essor":7353,"kopf":7354,"Ġ2003":7355,"Ġ34":7356,"Stud":7357,"nei":7358,"ĠmÃ¶glichen":7359,"ĠRand":7360,"lebt":7361,"Fil":7362,"imen":7363,"metho":7364,"isieren":7365,"ĠEmpfeh":7366,"Ġbo":7367,"automaten":7368,"ĠAutoren":7369,"inderung":7370,"otos":7371,"Ġ33":7372,"ĠregelmÃ¤ÃŁ":7373,"merksamkeit":7374,"arbeits":7375,"Ġentfernen":7376,"ads":7377,"Ġanerk":7378,"rang":7379,"blieben":7380,"ĠHaft":7381,"Ġverlieren":7382,"andern":7383,"Ġgehe":7384,"Ġeins":7385,"ĠeinschlieÃŁlich":7386,"same":7387,"wendungs":7388,"AU":7389,"ĠBedÃ¼rfnisse":7390,"ĠSocial":7391,"ĠHochschule":7392,"alerweise":7393,"ĠBill":7394,"ussen":7395,"Ġhoher":7396,"Ġgemeinsame":7397,"Ġhe":7398,"Mo":7399,"ĠKompl":7400,"ĠParis":7401,"ĠSeminar":7402,"Ġjedenfalls":7403,"stoffen":7404,"book":7405,"ĠRett":7406,"essourcen":7407,"barung":7408,"Ġbewegen":7409,"stechnik":7410,"ĠZoll":7411,"ĠAbm":7412,"legten":7413,"ĠKab":7414,",-":7415,"Ġkomfort":7416,"Ġakzepti":7417,"ĠBir":7418,"Ã¼llen":7419,"Ġvorge":7420,"RW":7421,"ĠGeneral":7422,"ĠStÃ¤dte":7423,"ĠJugendlichen":7424,"ĠTrainings":7425,"Ġ120":7426,"Ġschwei":7427,"brechen":7428,"Ġrest":7429,"ĠBaumw":7430,"500":7431,"spart":7432,"sn":7433,"fÃ¤llt":7434,"ĠBundestag":7435,"sorge":7436,"ĠauÃŁergewÃ¶hn":7437,"cc":7438,"ĠJahrhunderts":7439,"ĠVertreter":7440,"door":7441,"asi":7442,"Ã¼rk":7443,"Ġgeeig":7444,"ĠAusnahme":7445,"Ġbenutzen":7446,"ĠSchwerpunkt":7447,"Ġwest":7448,"atch":7449,"ĠBestimmungen":7450,"ĠWagen":7451,"fÃ¤llen":7452,"ĠNote":7453,"ĠBÃ¶":7454,"ĠDurchfÃ¼hrung":7455,"ĠHerstellung":7456,"Ã¼hrt":7457,"ĠStreit":7458,"ainer":7459,"Ã¤tigung":7460,"Ġvermutlich":7461,"Ã¼lle":7462,"Pf":7463,"gas":7464,"ĠÃ¼bernommen":7465,"siehe":7466,"Doch":7467,"ools":7468,"ĠSchreiben":7469,"ous":7470,"ĠMio":7471,"tend":7472,"ĠNachricht":7473,"Ġ250":7474,"ĠSeele":7475,"count":7476,"rainer":7477,"ĠlÃ¶sen":7478,"Ġschafft":7479,"ĠCro":7480,"ĠAllgemein":7481,"SU":7482,"ĠLernen":7483,"male":7484,"lines":7485,"achter":7486,"Gem":7487,"ĠMand":7488,"ĠYork":7489,"Ġgestaltet":7490,"ĠhÃ¤ngt":7491,"ĠEi":7492,"ĠEinkommen":7493,"elen":7494,"rÃ¤ch":7495,"fahrung":7496,"ĠBund":7497,"ĠVerantwortlichen":7498,"Ġverlei":7499,"ĠArg":7500,"Ġcool":7501,"Ġhistorischen":7502,"Ġinternational":7503,"grÃ¼n":7504,"ĠWahrheit":7505,"lichem":7506,"ĀĀĀĀĀĀĀĀ":7507,"reiter":7508,"ĠAqu":7509,"ĠAutom":7510,"ĠCH":7511,"Ġsoziale":7512,"ĠChat":7513,"ton":7514,"ical":7515,"ĠFront":7516,"ĠRÃ¶":7517,"Ġfreue":7518,"tÃ¤":7519,"ĠdÃ¼n":7520,"lÃ¤ger":7521,"Ġsh":7522,"ĠRegistr":7523,"ĠBremen":7524,"ĠiPhone":7525,"ĠZuhause":7526,"Ġrum":7527,"ĠJose":7528,"ĠLim":7529,"Ġeinfachen":7530,";;;;;;;;":7531,"Ġsetzte":7532,"ebel":7533,"Ġlive":7534,"Ġgebaut":7535,"Ġverste":7536,"ĠBÃ¼rgermeister":7537,"ĠMÃ¼ller":7538,"stern":7539,"rauben":7540,"Ġbundes":7541,"Stand":7542,"ĠZuschauer":7543,"Ġruhig":7544,"ĠNutzen":7545,"ĠTim":7546,"Ġgegangen":7547,"El":7548,"ĠVerstÃ¤ndnis":7549,"ĠGrÃ¶ÃŁen":7550,"ĠnatÃ¼rliche":7551,"96":7552,"ĠWaffen":7553,"Ġauseinander":7554,"alit":7555,"Ã¤nner":7556,"ĠMad":7557,"ĠBin":7558,"ĠLeitung":7559,"otten":7560,"ible":7561,"Ġgelie":7562,"pos":7563,"eide":7564,"Ġerlebt":7565,"glas":7566,"Ã¶rderung":7567,"Ġgeschaffen":7568,"ĠKenntnis":7569,"ĠHerausforderungen":7570,"melden":7571,"ĠArme":7572,"ĠDienste":7573,"Ġ37":7574,"Ġabend":7575,"Ġ<":7576,"ĠGroÃŁe":7577,"Ġrezept":7578,"ĠStress":7579,"Ġmonat":7580,"Ġoffenbar":7581,"ĠLieblings":7582,"Ġoffenen":7583,"Ġdro":7584,"ĠCre":7585,"Ġbesucht":7586,"ĠKrankenhaus":7587,"spor":7588,"staat":7589,"ĠCap":7590,"sidenten":7591,"PrÃ¤":7592,"erischen":7593,"ĠSchmerzen":7594,"eth":7595,"ĠDarstellung":7596,"annter":7597,"88":7598,"Â»,":7599,"ĠBord":7600,"lieben":7601,"ymnas":7602,"ĠHalle":7603,"ĠPower":7604,"Ġwillst":7605,"IR":7606,"Ã¤dt":7607,"ĠBetreuung":7608,"ĠBrenn":7609,"Ist":7610,"Ġsenden":7611,"design":7612,"achs":7613,"ĠJack":7614,"Ġtrain":7615,"ĠKrampfadern":7616,"ĠMicrosoft":7617,"druckt":7618,"ĠKÃ¶r":7619,"bares":7620,"Ġ2002":7621,"Ġverab":7622,"ĠBre":7623,"berater":7624,"ĠCO":7625,"ĠRenn":7626,"Che":7627,"ĠMonats":7628,"Meine":7629,"haltet":7630,"werde":7631,"wirt":7632,"ĠFahrzeuge":7633,"ĠRichter":7634,"2012":7635,"ĠSortiment":7636,"Ġster":7637,"ĠTwitter":7638,"Ġil":7639,"ĠDatei":7640,"prÃ¤gt":7641,"ĠFlie":7642,"VerÃ¶ffentlicht":7643,"Ġinspir":7644,"ĠGemeinschaft":7645,"ĠGeschÃ¤ftsfÃ¼hrer":7646,"ĠGriff":7647,"wirkung":7648,"uliert":7649,"eral":7650,"ĠVortrag":7651,"anischen":7652,"Ġholen":7653,"Ġseiten":7654,"eis":7655,"ĠStimmung":7656,"Ġkurzer":7657,"lichten":7658,"ĠungefÃ¤hr":7659,"ĠUnterkunft":7660,"ĠFett":7661,"Ġmanche":7662,"rac":7663,"Ġallgemein":7664,"inu":7665,"Ġunbek":7666,"artig":7667,"West":7668,"heimer":7669,"ĠKarriere":7670,"ĠVielfalt":7671,"ĠKapitel":7672,"Hand":7673,"oler":7674,"Ġ65":7675,"WÃ¤hrend":7676,"ĠArchitektur":7677,"Ġletzter":7678,"ĠGhostwriter":7679,"aller":7680,"loÃŁ":7681,"Ġnutzt":7682,"Daten":7683,"temperatur":7684,"Sti":7685,"ĠglÃ¼cklich":7686,"unken":7687,"ĠSum":7688,"ĠÃ¤uÃŁerst":7689,"rochen":7690,"elche":7691,"Ġirgendwann":7692,"Ġggf":7693,"farbe":7694,"Ġaussehen":7695,"Ġbegleitet":7696,"Ġerinnert":7697,"ĠPubl":7698,"SS":7699,"ĠWird":7700,"bald":7701,"Ġha":7702,"agentur":7703,"ĠerlÃ¤":7704,"yd":7705,".Â«":7706,"ĠDipl":7707,"ĠDaniel":7708,"km":7709,"Ġspezial":7710,"ĠParteien":7711,"ĠerhÃ¶hen":7712,"ĠQuelle":7713,"ĠSpanien":7714,"ĠVerÃ¤nderungen":7715,"aul":7716,"ĠÃ¼bersch":7717,"Ġausgeschlossen":7718,"ĠNachmittag":7719,"ĠAufmerksamkeit":7720,"Ġtritt":7721,"sicherheit":7722,"Ġmelden":7723,"ĠWeihnachten":7724,"reme":7725,"ĠHoffnung":7726,"lÃ¶sen":7727,"Ã¤fte":7728,"azier":7729,"Ġanhand":7730,"agra":7731,"worben":7732,"Ġvia":7733,"Ġzog":7734,"ĠNie":7735,"Ġsichern":7736,"Ġwillkommen":7737,"dung":7738,"Ã¤usern":7739,"Ġfu":7740,"ĠSchwier":7741,"ĠFan":7742,"ĠReifen":7743,"ymbol":7744,"ĠNerv":7745,"stoÃŁ":7746,"weiten":7747,"ĠGefÃ¼":7748,"zten":7749,"ona":7750,"ĠFokus":7751,"Ġteuer":7752,"ĠAuswirkungen":7753,"ĠBranchen":7754,"Ġliefert":7755,"ĠEhren":7756,"pret":7757,"ĠFab":7758,"ĠGrafik":7759,"ĠKeller":7760,"ĠStellung":7761,"ĠTerrasse":7762,"falen":7763,"Ġerhielt":7764,"ĠSend":7765,"las":7766,"pass":7767,"ĠheiÃŁen":7768,"ĠArbeitnehmer":7769,"ĠErklÃ¤rung":7770,"utsch":7771,"deckung":7772,"ĠOberflÃ¤che":7773,"ĠSollte":7774,"Ġfair":7775,"leistungs":7776,"ĠEinblick":7777,"ĠÃ¼bernimmt":7778,"enkt":7779,"ĠSchnee":7780,"Ġgelegt":7781,"Ġaltern":7782,"ĠKos":7783,"ĠWM":7784,"ĠTeilen":7785,"ĠBruder":7786,"ged":7787,"ĠFÃ¤higkeiten":7788,"zeption":7789,"Nr":7790,"ii":7791,"Ġ39":7792,"Ġschwierig":7793,"ĠLaufe":7794,"geschlagen":7795,"verbrauch":7796,"Ġplatz":7797,"fÃ¤llig":7798,"ĠKleid":7799,"ĠIntegration":7800,"bÃ¼cher":7801,"ĠSens":7802,"verkauf":7803,"Ġvorgesehen":7804,"Jetzt":7805,"bef":7806,"ĠfÃ¶rdern":7807,"Ġfreiwill":7808,"abilitÃ¤t":7809,"klass":7810,"Ġdek":7811,"lÃ¶":7812,"ĠBehÃ¶rden":7813,"terne":7814,"icker":7815,"ĠSchwanger":7816,"ids":7817,"ĠNah":7818,"Ġintensiv":7819,"gerechnet":7820,"Ġerinnern":7821,"beck":7822,"stehenden":7823,"aktionen":7824,"Ġeinfacher":7825,"ĠWebs":7826,"sentation":7827,"ĠAmt":7828,"ĠAlkohol":7829,"dam":7830,"ĠKino":7831,"Ġgepf":7832,"osophie":7833,"dis":7834,"EC":7835,"ĠRosen":7836,"ĠLast":7837,"igte":7838,"ĠWerke":7839,"ĠÃĦnderung":7840,"ĠfÃ¼rs":7841,"ĠPfarr":7842,"ulin":7843,"ĠNÃ¼rn":7844,"ĠCal":7845,"Ġprivat":7846,"Ġ05":7847,"Ġbetreffen":7848,"heil":7849,"Ġgezogen":7850,"Ġhierbei":7851,"76":7852,".).":7853,"selben":7854,"anc":7855,"ĠGrill":7856,"ĠSysteme":7857,"ior":7858,"Ġkap":7859,"Ġnormal":7860,"DS":7861,"Ġbeit":7862,"verschluss":7863,"ĠBonn":7864,"ĠFlor":7865,"Ġdigitalen":7866,"ĠgelÃ¶scht":7867,"herr":7868,"ĠAnleitung":7869,"Th":7870,"ademie":7871,"Ġteilnehmen":7872,"rÃ¶":7873,"Ġaufmerksam":7874,"Ġberechtigt":7875,"ĠerÃ¶ffnet":7876,"Ġhervorragen":7877,"etzungen":7878,"ĠJungs":7879,"ÑĤ":7880,"izieren":7881,"Ġbesitzen":7882,"Ġerschienen":7883,"Ġrechten":7884,"artet":7885,"onto":7886,"ĠGarantie":7887,"ĠAutob":7888,"ĠRollen":7889,"ĠRing":7890,"Ġanti":7891,"ĠAusgang":7892,"Ġ(âĢŀ":7893,"sieht":7894,"ĠSchuld":7895,"Ġflie":7896,"ĠDiabet":7897,"ĠMontage":7898,"Ġoptimale":7899,"Ġbildet":7900,"ĠNorden":7901,"Ġmeistens":7902,"zugs":7903,"stuhl":7904,"ĠEcht":7905,"freiheit":7906,"Ã¶ffnung":7907,"onstr":7908,"ĠBanken":7909,"ĠgeÃ¶ffnet":7910,"Ġdurchschnitt":7911,"ĠerklÃ¤rte":7912,"ĠgewÃ¶hn":7913,"ĠfÃ¼hlt":7914,"Ġtrau":7915,"station":7916,"enken":7917,"Ġvollen":7918,"anze":7919,"cription":7920,"Ġbrit":7921,"kle":7922,"Ho":7923,"Ġleichte":7924,"teten":7925,"ĠJunge":7926,"Ġkeinerlei":7927,"lan":7928,"platten":7929,"Ġausgezeichnet":7930,"loser":7931,"Ã¤mm":7932,"enzt":7933,"Ġgehabt":7934,"dete":7935,"ĠKÃ¼r":7936,"fÃ¼hrten":7937,"stÃ¼cke":7938,"isen":7939,"werken":7940,"ĠPaket":7941,"Gro":7942,"ĠQuad":7943,"\"-":7944,"Ġsteuer":7945,"ĠGrau":7946,"eldet":7947,"Ġspeziellen":7948,"ega":7949,"Ġdeswegen":7950,"ĠBereit":7951,"ĠMaria":7952,"ĠCol":7953,"ĠSomit":7954,"Ġsolcher":7955,"schiff":7956,"urlaub":7957,"sÃ¤":7958,"unterricht":7959,"ĠUrheber":7960,"ĠMedikamen":7961,"ĠWachstum":7962,"ĠVerpack":7963,"licherweise":7964,"Ġbehalten":7965,"ĠAB":7966,"antast":7967,"ĠKlar":7968,"Ġfree":7969,"ĠHon":7970,"ĠAngel":7971,"Ġbegonnen":7972,"reift":7973,"ĠKrie":7974,"Nachdem":7975,"Ġ06":7976,"ĠAR":7977,"dler":7978,"Ġhierzu":7979,"ĠBadezimmer":7980,"utton":7981,"ĠInhalts":7982,"Ġreichen":7983,"attet":7984,"ĠCity":7985,"produkte":7986,"FA":7987,"Ã¼tter":7988,"ĠWohnungs":7989,"ĠHÃ¶hen":7990,"osex":7991,"iale":7992,"On":7993,"ritts":7994,"ĠFertig":7995,"ĠSupp":7996,"ya":7997,"Ġmotiv":7998,"ĠHafen":7999,"ĠMas":8000,"sert":8001,"ĠKÃ¤":8002,"âĢľ-":8003,"De":8004,"systeme":8005,"ĠStimmen":8006,"ĠjÃ¤hrlich":8007,"Ġhell":8008,"!\"":8009,"ody":8010,"ĠNav":8011,"igi":8012,"rinzip":8013,"ĠSki":8014,"ĠSchatten":8015,"Ġmaximal":8016,"gi":8017,"Ġzust":8018,"ĠEbene":8019,"ĠHoll":8020,"ĠHaftung":8021,"ĠCloud":8022,"Ġergibt":8023,"Ġechte":8024,"ĠRau":8025,"Em":8026,"ĠPunkten":8027,"Ġbetrieb":8028,"rollen":8029,"ĠErwachsene":8030,"ĠNiveau":8031,"ĠschÃ¶nsten":8032,"ush":8033,"rats":8034,"ĠSchmuck":8035,"Bo":8036,"ĠgrÃ¶ÃŁeren":8037,"Ġdran":8038,"ziel":8039,"Ġreden":8040,"griffen":8041,"Ġgelang":8042,"rast":8043,"ĠGumm":8044,"Ġgeschafft":8045,"Ġwusste":8046,"ieur":8047,"ĠWLAN":8048,"Ġdiesmal":8049,"ĠVerbesserung":8050,"Ġbestellt":8051,"gert":8052,"ĠÃľberra":8053,"ĠWolfgang":8054,"ĠKlo":8055,"vergleich":8056,"Ġneuesten":8057,"formance":8058,"........":8059,"rip":8060,"srecht":8061,"Ã¼ll":8062,"anter":8063,"ĠschÃ¶ner":8064,"Ġtesten":8065,"ĠTief":8066,"ĠKlinik":8067,"ĠInstallation":8068,"ĠVorbereitung":8069,"mg":8070,"aupt":8071,"ĠZahlung":8072,"ĠDennoch":8073,"ĠMitarbeitern":8074,"Ġerstes":8075,"Ġsk":8076,"verarbeitung":8077,"Ġrunter":8078,"ĠKostenlose":8079,"Ġhervorragend":8080,"Ġfaszin":8081,"Ġmar":8082,"neu":8083,"richtet":8084,"ĠAnwendungen":8085,"kk":8086,"ĠSzene":8087,"Ġauspro":8088,"ĠErweiter":8089,"2011":8090,"ministerium":8091,"Ġrad":8092,"Viele":8093,"Ġsichtbar":8094,"ĠTemperaturen":8095,"code":8096,"Ġstren":8097,"ĠmÃ¶glicherweise":8098,"Ġfarb":8099,"ĠDekor":8100,"ĠkrÃ¤f":8101,"Ġrelev":8102,"Ġhielt":8103,"ĠAL":8104,"ĠPack":8105,"spekte":8106,"ĠJesus":8107,"ĠRum":8108,"legte":8109,"Ġverletzt":8110,"kirchen":8111,"ava":8112,"Ġbekam":8113,"ony":8114,"Ġstimmt":8115,"ĠObst":8116,"ĠMethode":8117,"Ġjeg":8118,"ĠverÃ¤ndern":8119,"Ġfiel":8120,"ĠVerlauf":8121,"ĠLudwig":8122,"ĠRobert":8123,"schmerzen":8124,"appen":8125,"Ġthis":8126,"elbe":8127,"Ġnett":8128,"ĠBesitz":8129,"ĠSchritte":8130,"Ġversehen":8131,"Ġ$":8132,"Ġdesto":8133,"Dann":8134,"ga":8135,"ĠBereiche":8136,"uminium":8137,"sprozess":8138,"ĠHaushalt":8139,"ĠMassen":8140,"ĠBem":8141,"oppelt":8142,"Â«,":8143,"ĠEntwicklungs":8144,"Ġsolltest":8145,"andt":8146,"aupts":8147,"Ġniemals":8148,"teur":8149,"âĢĿ,":8150,"Ġproduziert":8151,"ĠHÃ¶ch":8152,"ichen":8153,"luft":8154,"Ġdeutscher":8155,"Prof":8156,"ĠKÃ¼ndig":8157,"ĠDigital":8158,"Ġweib":8159,"Ã¤tzung":8160,"ĠKleidung":8161,"ĠBrun":8162,"ĠOptim":8163,"pat":8164,"ĠWirk":8165,"ĠTrum":8166,"ĠLeg":8167,"Ã¼te":8168,"ĠIhn":8169,"Ġbau":8170,"ĠIndividu":8171,"ĠEmail":8172,"ĠgeÃ¤ndert":8173,"ws":8174,"ĠHerausforderung":8175,"Ġ000":8176,"Ġkinder":8177,"reihe":8178,"Ã¶lf":8179,"ĠOhr":8180,"Mark":8181,"ĠGewÃ¤hr":8182,"gefÃ¼":8183,"ĠRem":8184,"rÃ¤glich":8185,"ĠWart":8186,"regel":8187,"emit":8188,"ĠTeen":8189,"ĠBig":8190,"ĠschlieÃŁen":8191,"Welt":8192,"aner":8193,"fektion":8194,"Ġheil":8195,"Ġgingen":8196,"ĠAusstattung":8197,"Ġstartet":8198,"Ġschrieb":8199,"ĠZeich":8200,"ĠMÃ¼nster":8201,"ĠHen":8202,"ĠFlex":8203,"Ġschme":8204,"losigkeit":8205,"behÃ¶rde":8206,"Lie":8207,"ĠAmb":8208,"Ġvieler":8209,"ungsst":8210,"ĠTatsache":8211,"All":8212,"zwei":8213,"hÃ¤ltnisse":8214,"ĠLohn":8215,"ba":8216,"ĠWall":8217,"gebnisse":8218,"rÃ¼m":8219,"ĠAns":8220,"ĠUmfeld":8221,"Inter":8222,"euchtigkeit":8223,"ĠRessourcen":8224,"ĠKaiser":8225,"schlagen":8226,"Ġstanden":8227,"ĠPremium":8228,"Ã¼ndete":8229,"Ġnachfol":8230,"pern":8231,"Ġgenauer":8232,"ĠZustimmung":8233,"Ã¤ger":8234,"isierte":8235,"Ġ2001":8236,"Ġjene":8237,"97":8238,"Ġpoten":8239,"ĠTasche":8240,"ĠFremd":8241,"Ġgerecht":8242,"ĠPress":8243,"Ġunmittelbar":8244,"del":8245,"JÃ¤hrige":8246,"ĠGewerbe":8247,"Form":8248,"ĠerwÃ¤hnt":8249,"ee":8250,"ĠBeide":8251,"Ġsteigt":8252,"ĠTurnier":8253,"eibe":8254,"ĠGelÃ¤nde":8255,"ĠhÃ¶here":8256,"ĠAnlass":8257,"ĠCoach":8258,"Ġverzichten":8259,"ĠnatÃ¼rlichen":8260,"ĠKalender":8261,"Ġhoffen":8262,"ĠmÃ¶gliche":8263,"Ġdigitale":8264,"ĠAcht":8265,"ĠHals":8266,"GE":8267,"ĠGeorg":8268,"projekt":8269,"Ġfreie":8270,"ĠObjekt":8271,"ĠVerteidig":8272,"gener":8273,"ĠGerichts":8274,"ĠgeprÃ¼":8275,"west":8276,"Ġles":8277,"ĠHaust":8278,"Ð½":8279,"indlich":8280,"Ġverlangen":8281,"ĠVariante":8282,"ĠUntersuchung":8283,"Ġstattfinden":8284,"stÃ¤tte":8285,"rÃ¼stung":8286,"Ġfur":8287,"Ġeingeladen":8288,"gemÃ¤ÃŁ":8289,"ĠprÃ¼fen":8290,"hÃ¤ngig":8291,"ĠFund":8292,"ĠSteu":8293,"DP":8294,"hÃ¶rigen":8295,"ward":8296,"inken":8297,"kehrt":8298,"Ġkomplette":8299,"ilitÃ¤t":8300,"ĠGrÃ¼nen":8301,"ĠBearbeitung":8302,"ĠLuxus":8303,"ĠOne":8304,"reibe":8305,"empl":8306,"ĠSammlung":8307,"ĠDVD":8308,"ĠNein":8309,"ĠReparatur":8310,"ĠMuse":8311,"rÃ¤t":8312,"ulieren":8313,"ĠWik":8314,"uth":8315,"folger":8316,"bring":8317,"ĠHobby":8318,"ĠAngabe":8319,"tels":8320,"tÃ¤u":8321,"immern":8322,"Ġsobald":8323,"Ġverbringen":8324,"ĠNachw":8325,"ĠArbeiter":8326,"uel":8327,"Ã¼rzt":8328,"ĠAtem":8329,"ĠDollar":8330,"strom":8331,"Seite":8332,"Ġwid":8333,"ĠHaare":8334,"ĠParlament":8335,"Ġrichtet":8336,"ĠverÃ¶ffentlich":8337,"gerichts":8338,"Ã¼rgen":8339,"Ġ42":8340,"gÃ¤nglich":8341,"ĠFilter":8342,"ĠSpe":8343,"Ġabgesch":8344,"ĠEinstellung":8345,"Ġmehrfach":8346,"ĠEntscheidungen":8347,"Ġbegleiten":8348,"ÑĢ":8349,"Ġmaxim":8350,"Ġbetrieben":8351,"ĠschÃ¶nes":8352,"rost":8353,"raÃŁe":8354,"ĠRennen":8355,"ichteten":8356,"ĠSingles":8357,"freien":8358,"Ġbuchen":8359,"ĠSchuh":8360,"ĠRang":8361,"TM":8362,"runde":8363,"ĠGrenz":8364,"Berlin":8365,"ĠDisplay":8366,"Ġmeint":8367,"hu":8368,"Funktion":8369,"azit":8370,"ave":8371,"ĠFehl":8372,"astrop":8373,"ĠFrÃ¼hl":8374,"Ġreal":8375,"stÃ¤ndigkeit":8376,"ĠzukÃ¼nf":8377,"Ġverdient":8378,"pum":8379,"okol":8380,"ĠFass":8381,"analyse":8382,"istanz":8383,"ĠhÃ¶chste":8384,"ĠGrenze":8385,"ahrungs":8386,"ĠQuellen":8387,"ziger":8388,"Ġdargestellt":8389,"ĠAgentur":8390,"ĠBit":8391,"etaill":8392,"ĠPlug":8393,"Ġlog":8394,"Ġeingerichtet":8395,"Ġexklus":8396,"Ġsystem":8397,"KE":8398,"ĠzusÃ¤tzlichen":8399,"Ġ..":8400,"ĠVorstellung":8401,"ĠAnal":8402,"ĠfÃ¤hrt":8403,"Ġenorm":8404,"ĠParkplatz":8405,"ĠKle":8406,"Ġfreut":8407,"ĠMittelpunkt":8408,"ĠBekannt":8409,"Ġ[...]":8410,"Ġeigener":8411,"pers":8412,"Ġanspruchs":8413,"lappt":8414,"Ġkomme":8415,"OC":8416,"ision":8417,"ĠGru":8418,"Ġwirksam":8419,"problem":8420,"ĠSchÃ¼lerinnen":8421,"nÃ¼":8422,"Ġlief":8423,"Ġversteht":8424,"syl":8425,"ĠMotorrad":8426,"Ġsammeln":8427,"board":8428,"wein":8429,"ĠEck":8430,"Ġumgesetzt":8431,"tiere":8432,"Ġweite":8433,"ĠspÃ¤testens":8434,"rahmen":8435,"BA":8436,"ifferenz":8437,"keln":8438,"58":8439,"jahres":8440,"ents":8441,"Ġorien":8442,"kÃ¼nfte":8443,"Ġverbinden":8444,"Ġansehen":8445,"kÃ¶rper":8446,"Ġjur":8447,"ĠErgÃ¤n":8448,"Ġhochwertigen":8449,"ĠEingang":8450,"ĠLieb":8451,"ĠAufwand":8452,"work":8453,"Ġfeiern":8454,"ĠerzÃ¤hlen":8455,"Ġfanden":8456,"Ã¤rten":8457,"Ġverstanden":8458,"aktieren":8459,"ĠSenioren":8460,"ĠAussage":8461,"ĠAlexander":8462,"ye":8463,"anner":8464,"iens":8465,"ĠSei":8466,"ĠTabellen":8467,"Ġlit":8468,"ĠBehand":8469,"Ġsitzt":8470,"ĠBeine":8471,"verzeichnis":8472,"ĠBachelor":8473,"Ġstat":8474,"bereiche":8475,"iversitÃ¤t":8476,"ĠBereits":8477,"sparen":8478,"UM":8479,"ĠAnn":8480,"ĠInternational":8481,"Book":8482,"ĠIII":8483,"Ã¶pfe":8484,"ĠDavid":8485,"Dar":8486,"nitz":8487,"Ñģ":8488,"handlungen":8489,"ĠFrist":8490,"ichtigung":8491,"ĠRuf":8492,"________________":8493,"ĠFu":8494,"Start":8495,"ĠLeidenschaft":8496,"ĠeBay":8497,"ĠlÃ¤dt":8498,"Ġvollkommen":8499,"ĠBeschreibung":8500,"Leist":8501,"ĠWin":8502,"ney":8503,"ĠInsgesamt":8504,"ĠAbw":8505,"lÃ¤sslich":8506,"lÃ¤sst":8507,"Ġdurfte":8508,"Ġdritte":8509,"Ġgesundheit":8510,"ĠHyp":8511,"ĠKreativ":8512,"ĠAnsprÃ¼che":8513,"werfen":8514,"ĠGeschwindigkeit":8515,"schlÃ¼sse":8516,"ĠWellness":8517,"67":8518,"Sehr":8519,"Jahr":8520,"stren":8521,"Ġnormalen":8522,"ĠSem":8523,"ĠEinstellungen":8524,"ĠKompetenz":8525,"ĠHÃ¤ndler":8526,"Ġgespannt":8527,"log":8528,"ĠSerien":8529,"anzler":8530,"ĠGlob":8531,"ĠTrÃ¤ger":8532,"haf":8533,"Ġchar":8534,"ĠgewÃ¤hrleisten":8535,"ĠFrÃ¼hjahr":8536,"ĠLat":8537,"Ġhandeln":8538,"entwick":8539,"ĠSchalt":8540,"formation":8541,"ĠThr":8542,"kar":8543,"gendes":8544,"ĠAussicht":8545,"ieden":8546,"Damit":8547,"resse":8548,"Ġvertrau":8549,"ellschaften":8550,"ĠSchweden":8551,"sendung":8552,"ĠVir":8553,"tikeln":8554,"ĠPool":8555,"ĠRenten":8556,"ĠVogel":8557,"ehren":8558,"ĠServices":8559,"Ġdunkel":8560,"ĠHistor":8561,"ĠBoot":8562,"Team":8563,"rages":8564,"tor":8565,"ĠGemeinden":8566,"ĠAnsprech":8567,"Ġverhindert":8568,"Ã¤chs":8569,"arben":8570,"ĠFischer":8571,"heben":8572,"ĠStrategie":8573,"schel":8574,"position":8575,"Ġev":8576,"Fahr":8577,"Ġbilder":8578,"Ġgelangen":8579,"Med":8580,"utzer":8581,"Ġnochmals":8582,"ĠKarls":8583,"sc":8584,"Ġmoment":8585,"ĠDDR":8586,"iner":8587,"Ġbisherigen":8588,"ĠLandwirtschaft":8589,"azz":8590,"Ġvermitteln":8591,"pekt":8592,"Ġwirk":8593,"Ġberichten":8594,"Ġetabl":8595,"ĠfrÃ¼hen":8596,"Ã¤rt":8597,"tags":8598,"ĠArchiv":8599,"ĠVerpflicht":8600,"gemeinde":8601,"Ġbestimmen":8602,"Ġschlimm":8603,"ĠHell":8604,"ĠFormat":8605,"Ġschicken":8606,"ico":8607,"ĠAudio":8608,"sdorf":8609,"ĠEntfern":8610,"ĠHabe":8611,"Ġhaupts":8612,"ĠInitiative":8613,"Ġ600":8614,"Ġvirt":8615,"Ġweiterlesen":8616,"Best":8617,"ĠFutter":8618,"ĠHeid":8619,"Ste":8620,"bilden":8621,"Ã¶rsen":8622,"ĠSÃ¤":8623,"pla":8624,"Ġnied":8625,"Ġbehandeln":8626,"ĠPok":8627,"Ġeingestellt":8628,"ĠAktionen":8629,"Ġmitten":8630,"anbieter":8631,"kÃ¶":8632,"ĠKlang":8633,"Ġbegeg":8634,"ĠPause":8635,"ĠDiagn":8636,"Ġerfolgreiche":8637,"ĠEinschrÃ¤n":8638,"ĠDortmund":8639,"ĠVerlust":8640,"ION":8641,"ĠhÃ¶rt":8642,"Ġverbr":8643,"igungen":8644,"Su":8645,"mat":8646,"gerecht":8647,"Ġplanen":8648,"oir":8649,"ĠBein":8650,"Ġauftreten":8651,"ĠErwart":8652,"ĠErfÃ¼llung":8653,"ĠRet":8654,"ĠMak":8655,"ĠKuchen":8656,"ĠVerbr":8657,"abschluss":8658,"ĠErnst":8659,"flex":8660,"ĠDating":8661,"ikat":8662,"stands":8663,"ĠNutzungs":8664,"Ġstammen":8665,"ĠspÃ¤t":8666,"Ġwunderbar":8667,"ĠPayPal":8668,"2010":8669,"skon":8670,"inten":8671,"Ġ44":8672,"ove":8673,"Viel":8674,"asste":8675,"Ġ00":8676,"stem":8677,"Ġstammt":8678,"ĠDatum":8679,"ĠSympt":8680,"Ġgehol":8681,"ĠCam":8682,"Ġlei":8683,"schritt":8684,"stÃ¤tten":8685,"ĠUni":8686,"spezif":8687,"++":8688,"Ġkostenlosen":8689,"chester":8690,"Ã¼cksichtigt":8691,"ĠGratis":8692,"betrag":8693,"rÃ¤nken":8694,"Ġabsolv":8695,"Ġbestens":8696,"Ġjapan":8697,"ĠZusÃ¤tzlich":8698,"informationen":8699,"ĠZun":8700,"ĠKindes":8701,"Ġverarbeiten":8702,"ĠSub":8703,"ĠÃľberw":8704,"ilfen":8705,"astian":8706,"Ġweb":8707,"ĠVal":8708,"Ġpositive":8709,"Ġkeines":8710,"GH":8711,"produktion":8712,"verhalten":8713,"ĠAuskunft":8714,"Go":8715,"ĠAusfÃ¼hrung":8716,"ĠViertel":8717,"ĠFried":8718,"spunkt":8719,"ĠSolar":8720,"biert":8721,"ierer":8722,"Ġhinsichtlich":8723,"ĠApothe":8724,"Ġbitten":8725,"ĠNik":8726,"ĠWorld":8727,"anw":8728,"Ġbeliebt":8729,"ĠSchwester":8730,"ĠReihen":8731,"ĠReife":8732,"mag":8733,"sung":8734,"Ġsolange":8735,"ĠSÃ¼den":8736,"Angeb":8737,"Ġgeringer":8738,"Ġ04":8739,"ĠIng":8740,"ĠAusbildungs":8741,"appe":8742,"mmern":8743,"ĠPferde":8744,"Ġ02":8745,"Ġyou":8746,"ĠErinnerung":8747,"ĠAv":8748,"ographie":8749,"hes":8750,"Ġerweitert":8751,"Ġproblemlos":8752,"ĠWesten":8753,"Ġpassieren":8754,"ĠNÃ¤ch":8755,"ĠKapit":8756,"uropa":8757,"decke":8758,"aft":8759,"anische":8760,"ĠVersorgung":8761,"ĠAccess":8762,"Ã¼bung":8763,"Ġgebraucht":8764,"ĠVern":8765,"eutr":8766,"ĠInfrastruktur":8767,"Ġtop":8768,"dige":8769,"ĠElemente":8770,"ĠPum":8771,"sachsen":8772,"Ġempfohlen":8773,"wenn":8774,"Ġzug":8775,"kompl":8776,"Ġbeinhaltet":8777,"ley":8778,"Ġstrate":8779,"ĠErf":8780,"ĠJohannes":8781,"ĠMerkel":8782,"ĠWohnungen":8783,"ĠAfr":8784,"ĠSchlei":8785,"ĠschlÃ¤":8786,"ĠIdent":8787,"ĠhierfÃ¼r":8788,"Ã¶hnen":8789,"ĠGlÃ¤":8790,"Ġklingt":8791,"ĠkÃ¼nftig":8792,"ĠKlÃ¤ger":8793,"ĠApps":8794,"Ġbeobachten":8795,"Ur":8796,"ĠHallo":8797,"ella":8798,"ĠBundesregierung":8799,"ramm":8800,"ĠSold":8801,"âĢľ)":8802,"Ã¤hne":8803,"otte":8804,"ĠSchwimm":8805,"ĠEdition":8806,"ilber":8807,"Ġbeschlossen":8808,"ĠOutdoor":8809,"Haus":8810,"ĠKam":8811,"ĠTarif":8812,"Ġ--":8813,"ronik":8814,"ĠFlÃ¼chtlinge":8815,"ckte":8816,"becken":8817,"ING":8818,"HE":8819,"ĠZivil":8820,"ĠKleider":8821,"Ġerfolgreichen":8822,"\":":8823,"ĠManager":8824,"afÃ©":8825,"wÃ¤sche":8826,"znei":8827,"ĠPersÃ¶nlichkeit":8828,"fÃ¼hrungen":8829,"ĠZentral":8830,"ĠTom":8831,"Ġbetrachtet":8832,"komm":8833,"behalten":8834,"offer":8835,"horn":8836,"auben":8837,"urst":8838,"ĠMr":8839,"ĠEgal":8840,"ĠAufgrund":8841,"ĠBewertungen":8842,"Ġumge":8843,"Ġdire":8844,"Ã¼tte":8845,"ĠEier":8846,"recken":8847,"Ã¶ne":8848,"ĠVorschriften":8849,"ĠObwohl":8850,"amilie":8851,"Ġspeichern":8852,"itis":8853,"ĠAdvent":8854,"Ġaufgebaut":8855,"Ġnotwendigen":8856,"aa":8857,"arl":8858,"Ġeingel":8859,"ĠhÃ¶chsten":8860,"Ġmeinte":8861,"auff":8862,"ĠBÃ¤":8863,"Ġmach":8864,"WÃ¼rt":8865,"Ġschweren":8866,"ĠJubil":8867,"Ġkauf":8868,"handlung":8869,"ĠMilitÃ¤r":8870,"oter":8871,"ĠWirklich":8872,"ĠAuflage":8873,"ĠKriterien":8874,"ĠSieger":8875,"kord":8876,"ĠTÃ¼rkei":8877,"ĠKatze":8878,"sper":8879,"ĠGriechen":8880,"dustr":8881,"ĠNRW":8882,"felder":8883,"allel":8884,"ĠAluminium":8885,"ĠGab":8886,"Ġkenne":8887,"ĠRealitÃ¤t":8888,"Ġdeaktiv":8889,"ĠIsrael":8890,"eigern":8891,"scheidung":8892,"anisch":8893,"fÃ¤hig":8894,"Ġvergeben":8895,"ĠKost":8896,"bildungen":8897,"ĠKrÃ¤uter":8898,"zeits":8899,"Ġsteckt":8900,"Ġkombiniert":8901,"56":8902,"Ġfunktionieren":8903,"wÃ¼n":8904,"Ġirgendwo":8905,"orb":8906,"Sel":8907,"Bis":8908,"wissenschaften":8909,"schalten":8910,"polit":8911,"kern":8912,"Ġdiverse":8913,"brit":8914,"ĠHauptstadt":8915,"versicher":8916,"Ġveran":8917,"klar":8918,"ĠdrauÃŁen":8919,"Ã³":8920,"Service":8921,"Ġentspann":8922,"Ġbun":8923,"onie":8924,"ĠBeob":8925,"aktor":8926,"Ġna":8927,"ĠKG":8928,"ĠHÃ¤nden":8929,"ĠgrÃ¼":8930,"ĠWesen":8931,"Â¶":8932,"ĠWillen":8933,"ĠVerÃ¶ffentlichung":8934,"ĠOster":8935,"ĠGenau":8936,"ĠSÃ¤nger":8937,"BN":8938,"bauten":8939,"Ġreduziert":8940,"WÃ¼rttemberg":8941,"Vert":8942,"ĠOlymp":8943,"ĠAustr":8944,"Ġentf":8945,"ĠMassage":8946,"ĠSeb":8947,"ĠKirch":8948,"Dies":8949,"ĠTee":8950,"ĠBeratungs":8951,"ĠSchmid":8952,"wid":8953,"Ġchrist":8954,"lings":8955,"ĠFal":8956,"ĠPen":8957,"Ġunterscheiden":8958,"ĠNÃ¼rnberg":8959,"Ġsepar":8960,"quenz":8961,"âĢ¢âĢ¢":8962,"ĠÃ¼berprÃ¼fen":8963,"?âĢľ":8964,"hÃ¤nge":8965,"Ġhef":8966,"ypen":8967,"Ġangenommen":8968,"ĠEuropas":8969,"ĠhÃ¶heren":8970,"vermittlung":8971,"ĠBreite":8972,"echsl":8973,"spolitik":8974,"obald":8975,"gra":8976,"ĠFluss":8977,"aps":8978,"Ġgesamm":8979,"ĠWerkzeug":8980,"ĠVari":8981,"ĠhÃ¼b":8982,"ki":8983,"ĠLeicht":8984,"Nur":8985,"Ġspezif":8986,"gent":8987,"ĠBranche":8988,"nd":8989,"anda":8990,"tics":8991,"ĠBMW":8992,"papier":8993,"Geb":8994,"ĠCode":8995,"ĠStell":8996,"deten":8997,"Ġsexy":8998,"rans":8999,"oÃŁen":9000,"CO":9001,"Ġideale":9002,"Ġco":9003,"schech":9004,"Ã¼hrung":9005,"ience":9006,"Ġoffensichtlich":9007,"Ġsiehe":9008,"Ġseid":9009,"Ġmy":9010,"preise":9011,"zeichnete":9012,"oÃŁ":9013,"ĠInstitu":9014,"ucher":9015,"ula":9016,"ĠBeispiele":9017,"kirche":9018,"dar":9019,"odes":9020,"Ã¨":9021,"speicher":9022,"Frei":9023,"nur":9024,"stunden":9025,"ĠNeuer":9026,"ĠNeues":9027,"ĠBeschwerde":9028,"Ġweshalb":9029,"Ã¼rger":9030,"ĠmÃ¶chtest":9031,"Ġverdienen":9032,"ĠgenÃ¼gend":9033,"ĠFick":9034,"ĠBeziehungen":9035,"mas":9036,"ieht":9037,"ĠGeschlecht":9038,"ary":9039,"ĠZeug":9040,"Ġzunehmend":9041,"sprogramm":9042,"ĠInn":9043,"ĠKÃ¶":9044,"Ġveranst":9045,"ĠStudio":9046,"ĠMischung":9047,"paar":9048,"glieder":9049,"derungen":9050,"leun":9051,"ata":9052,"Ġstruktur":9053,"denk":9054,"ĠAspekte":9055,"uff":9056,"Ġgearbeitet":9057,"Ġvorzu":9058,"ĠLiebes":9059,"Ġbezahlt":9060,"verhÃ¤ltnis":9061,"ĠVersicherung":9062,"ĠOsten":9063,"ĠOtt":9064,"ĠAbstand":9065,"Ġgegebenen":9066,"serie":9067,"Ġli":9068,"Ġcon":9069,"bleiben":9070,"Ġklassische":9071,"stab":9072,"Ġvermittelt":9073,"brauch":9074,"Ã¼ckt":9075,"92":9076,"ĠVan":9077,"swÃ¼rdig":9078,"Ġangepasst":9079,"bte":9080,"ĠRohr":9081,"okoll":9082,"86":9083,"ĠZauber":9084,"act":9085,"Ġverbessert":9086,"Ġechten":9087,"ĠWurz":9088,"ĠHamburger":9089,"Ġeig":9090,"ĠgÃ¼nstigen":9091,"orfer":9092,"ĠYoga":9093,"Ġnennt":9094,"ĠAnsicht":9095,"ĠAllgemeinen":9096,"Ġschwarze":9097,"Ġeventuell":9098,"ĠAdr":9099,"ĠKandid":9100,"zz":9101,"insel":9102,"ĠWiener":9103,"the":9104,"ĠRechner":9105,"gigen":9106,"ham":9107,"Ġdamal":9108,"merk":9109,"Ġlinken":9110,"beginn":9111,"ĠKratz":9112,"Ġgesprochen":9113,"ĠRÃ¤ume":9114,"ĠAllein":9115,"Ġbeteiligt":9116,"ĠEhr":9117,"ĠPlast":9118,"Ġapp":9119,"Ġgelernt":9120,"ension":9121,"IA":9122,"ischof":9123,"ĠRabatt":9124,"Ġspannende":9125,"Ġersetzt":9126,"ĠMehrheit":9127,"ration":9128,"html":9129,"ĠauswÃ¤hlen":9130,"ĠSchmerz":9131,"hor":9132,"ĠRich":9133,"Ġanalys":9134,"Ġehrlich":9135,"kaufen":9136,"ĠHaushalts":9137,"schlossen":9138,"Ġorganisiert":9139,"ologisch":9140,"ĠUmstÃ¤nden":9141,"Ġfreundlich":9142,"ĠFÃ¤lle":9143,"ĠBewerb":9144,"kum":9145,"ĠHalt":9146,"Ġeinsetzen":9147,"Ġbeantworten":9148,"Ġweisen":9149,"ĠHessen":9150,"Preis":9151,"ĠSoft":9152,"Ġhoff":9153,"EIN":9154,"ĠtÃ¼rk":9155,"ĠMÃ¤nnern":9156,"Ġbetrifft":9157,"ĠCasinos":9158,"57":9159,"ĠSongs":9160,"Ġgewisse":9161,"isierten":9162,"Art":9163,"Tube":9164,"ĠhauptsÃ¤chlich":9165,"gebnis":9166,"Ġeindeutig":9167,"ĠErz":9168,"ĠSwinger":9169,"Bahn":9170,"Ġgeboten":9171,"ĠGegenteil":9172,"ĠZin":9173,"Ġprofessionelle":9174,"Ã¼hen":9175,"ĠGemeinsam":9176,"Dem":9177,"ĠOptionen":9178,"ĠHilfs":9179,"ĠDusche":9180,"ĠBewegungs":9181,"Ġnerv":9182,"Ġgelingt":9183,"ĠLade":9184,"ĠEcke":9185,"âĨ":9186,"ĠFeder":9187,"Ã¤tzt":9188,"Ġeinzigen":9189,"ĠMuskel":9190,"Ġmann":9191,"ĠLein":9192,"ĠEnergien":9193,"gu":9194,"Ġverkauf":9195,"ĠÃ¼bert":9196,"Ġalter":9197,"Ġstimm":9198,"ĠPa":9199,"ĠEinstieg":9200,"ĠStÃ¤dten":9201,"Zus":9202,"kunst":9203,"ativer":9204,"ĠBeweis":9205,"gesetzes":9206,"DA":9207,"ĠWilhelm":9208,"Ġstrateg":9209,"SC":9210,"ĠPrivate":9211,"ĠKonkurrenz":9212,"strÃ¤ger":9213,"ĠMc":9214,"ĠsorgfÃ¤l":9215,"fred":9216,"ampagne":9217,"ĠHÃ¤user":9218,"Ġgleicher":9219,"Ġgesund":9220,"ettbewerb":9221,"ĠbezÃ¼glich":9222,"Ġwand":9223,"Ġmachten":9224,"Ġideen":9225,"Ġstil":9226,"Ġbar":9227,"ĠMeld":9228,"ĠAnzeigen":9229,"Ã¤b":9230,"Ġspielte":9231,"digung":9232,"ĠMusiker":9233,"Ġselben":9234,"Ġkalt":9235,"ĠBestandteil":9236,"zone":9237,"ĠTenn":9238,"raht":9239,"Ġ46":9240,".),":9241,"ĠRegionen":9242,"Ġentstand":9243,"ĠMasse":9244,"ĠabhÃ¤ngig":9245,"region":9246,"ĠAtom":9247,"grad":9248,"stÃ¤d":9249,"ĠFlÃ¤chen":9250,"ĠErb":9251,"ĠEinheit":9252,"ausschuss":9253,"anteil":9254,"Ġordentlich":9255,"Ġaufnehmen":9256,"ĠberÃ¼cksichtigt":9257,"eto":9258,"Ġeinver":9259,"Ġperson":9260,"Ro":9261,"Ġangekommen":9262,"ãĥ":9263,"ĠAusbau":9264,"ĠAnliegen":9265,"britann":9266,"ĠGehirn":9267,"94":9268,"une":9269,"ĠDemokratie":9270,"ĠDIN":9271,"sicher":9272,"schend":9273,"ologen":9274,"Ġemotion":9275,"star":9276,"here":9277,"Ġabgest":9278,"zene":9279,"Ġverschiedener":9280,"wohnungen":9281,"ĠWorten":9282,"ÃŃ":9283,"ĠOrte":9284,"ĠAsyl":9285,"Programm":9286,"ĠMaÃŁe":9287,"Ġschnellen":9288,"ĠAnsprechpartner":9289,"Mus":9290,"eintrÃ¤ch":9291,"ĠStatt":9292,"irr":9293,"Ã¤hrungs":9294,"bogen":9295,"zenten":9296,"Ã¼cher":9297,"Ġendg":9298,"ĠTodes":9299,"aters":9300,"lehen":9301,"Ġ800":9302,"Chr":9303,"grenz":9304,"ĠQualitÃ¤ts":9305,"echslungs":9306,"ĠHab":9307,"ĠEN":9308,"ĠDenken":9309,"prÃ¤sident":9310,"ĠCa":9311,"Ġsowas":9312,"Ġbrauch":9313,"ĠÃ¶k":9314,"Ã¤llig":9315,"Dass":9316,"orgungs":9317,"Up":9318,"Ġvari":9319,"ehmigung":9320,"webe":9321,"Ġ03":9322,"Ġdenkt":9323,"Ihre":9324,"UT":9325,"amera":9326,"Ġverwir":9327,"hÃ¶hung":9328,"grenzen":9329,"ĠSpar":9330,"ĠAndere":9331,"Ġsub":9332,"ouren":9333,"ĠSpenden":9334,"ĠSur":9335,"ĠTermine":9336,"Ġintegriert":9337,"ĠReserv":9338,"Ã¤sser":9339,"ĠFantas":9340,"geschoss":9341,"ĠangekÃ¼ndig":9342,"Ã¤mpfer":9343,"ĠDiabetes":9344,"Ġdauern":9345,"MA":9346,"ĠBildschirm":9347,"asche":9348,"sau":9349,"langen":9350,"Ġgefahren":9351,"ĠPri":9352,"Ã¶ten":9353,"tial":9354,"ĠMagen":9355,"ĠVerbrauch":9356,"Ġherz":9357,"ĠAkku":9358,"ĠSchÃ¶nheit":9359,"Ġbestehenden":9360,"fÃ¤ll":9361,"ĠGlÃ¼cks":9362,"Ġdenk":9363,"waren":9364,"ĠZuge":9365,"hauses":9366,"Ġserv":9367,"ĠSchulter":9368,"cript":9369,"ĠRepublik":9370,"ĠkÃ¤mpfen":9371,"tu":9372,"Ġsterben":9373,"ĠFlÃ¤che":9374,"Ġchines":9375,"zeichnungen":9376,"ibilitÃ¤t":9377,"anleitung":9378,"ĠgÃ¼nstiger":9379,"schlÃ¼ssel":9380,"ĠPolitiker":9381,"ĠIV":9382,"version":9383,"Ġspannend":9384,"Ġimmerhin":9385,"Ġbraun":9386,"nehmern":9387,"ĠHerkunft":9388,"ĠLizenz":9389,"ĠlÃ¶schen":9390,"Ġverteilt":9391,"ĠStaub":9392,"Ġbeziehen":9393,"ĠHot":9394,"winkel":9395,"ommst":9396,"Ġpost":9397,"Ġoffene":9398,"ĠDatenbank":9399,"Ġdiejenigen":9400,"ĠNase":9401,"ĠGÃ¤sten":9402,"ĠSchlieÃŁlich":9403,"Ġbesonderes":9404,"format":9405,"Ġpersonenbezogener":9406,"Ġoftmals":9407,"leute":9408,"Ġmil":9409,"ĠNiederl":9410,"Ġkrie":9411,"bauer":9412,"rÃ¤der":9413,"ĠGitar":9414,"ĠerÃ¶ff":9415,"Ġglaub":9416,"Bundes":9417,"ĠPolen":9418,"uver":9419,"Ġfestgestellt":9420,"ĠEintritt":9421,"stufe":9422,"ĠSec":9423,"Ġ1998":9424,"rÃ¤nk":9425,"ĠTrotzdem":9426,"93":9427,"ĠzwÃ¶lf":9428,"hnung":9429,"Ġroman":9430,"ĠFigur":9431,"eiche":9432,"gy":9433,"itÃ¤ts":9434,"eistern":9435,"Ġdr":9436,"ora":9437,"frauen":9438,"Ġerzielen":9439,"jektiv":9440,"usen":9441,"leitungen":9442,"ray":9443,"ĠTÃ¼ren":9444,"Ġter":9445,"Ġgeblieben":9446,"ĠTank":9447,"ĠAutomat":9448,"ĠBewohner":9449,"ĠBetrag":9450,"ĠTerror":9451,"ĠUpdate":9452,"reinigung":9453,"Ġanf":9454,"Ġdeutschland":9455,"Ġfordert":9456,"wender":9457,"Ġvorbereitet":9458,"ĠEngland":9459,"ĠVorgehen":9460,"Ġdefinitiv":9461,"verd":9462,"kasten":9463,"Ġghostwriter":9464,"ĠFunk":9465,"kw":9466,"Ġhilfreich":9467,"ping":9468,"Ġstarte":9469,"ĠfÃ¼hl":9470,"Besch":9471,"inuier":9472,"ringe":9473,"itektur":9474,"szeit":9475,"ĠHauses":9476,"Komm":9477,"richter":9478,"Ġschwarzen":9479,"mitglieder":9480,"ungsverfahren":9481,"schaff":9482,"ĠFuss":9483,"Ġvergleichen":9484,"Co":9485,"Ð¾Ð":9486,"Ã¶rm":9487,"schafter":9488,"Ġmobile":9489,"Wo":9490,"echselt":9491,"ĠSS":9492,"packt":9493,"Ġrechnen":9494,"Ġnix":9495,"Ġdis":9496,"erkennung":9497,"estern":9498,"ĠGegend":9499,"Ġeinzigartige":9500,"Ġkeinem":9501,"Ġgewissen":9502,"ĠBeam":9503,"namen":9504,"planung":9505,"ĠmÃ¤nn":9506,"Ġbesseren":9507,"ĠMarkus":9508,"ĠkÃ¼nstler":9509,"ĠDateien":9510,"iler":9511,"ĠKloster":9512,"ĠLos":9513,"sozial":9514,"ĠNachhal":9515,"ĠTelefonn":9516,"plant":9517,"ĠGrÃ¼ndung":9518,"team":9519,"Ġschein":9520,"ĠBlatt":9521,"stellbar":9522,"ĠCamping":9523,"nimmt":9524,"ĠZutaten":9525,"Ġunglaublich":9526,"Ġehemalige":9527,"ĠjÃ¼ng":9528,"ĠEintrag":9529,"Ġsor":9530,"ielte":9531,"ĠReaktion":9532,"Ġverbindet":9533,"ĠGastgeber":9534,"Ġdringend":9535,"Ġabgeb":9536,"linik":9537,"sichtigen":9538,"bestimm":9539,"Ġuntersch":9540,"ĠweiÃŁen":9541,"Ġfa":9542,"Ġinstalliert":9543,"ulen":9544,"Ġ43":9545,"ĠOrganisationen":9546,"ahrt":9547,"ĠGenuss":9548,"ĠSC":9549,"grÃ¶ÃŁ":9550,"ĠCy":9551,"umfang":9552,"Ġehren":9553,"64":9554,"gibt":9555,"ĠTheorie":9556,"Ġherunterladen":9557,"lim":9558,"blau":9559,"sted":9560,"ĠArsch":9561,"Ġdok":9562,"ĠBerech":9563,"ĠStich":9564,"ala":9565,"ĠKond":9566,"anspruch":9567,"ĠAnsatz":9568,"Ġholz":9569,"ĠHerstell":9570,"ĠBetroffenen":9571,"Ġplus":9572,"Ġletztlich":9573,"ĠProfessor":9574,"HR":9575,"fur":9576,"futter":9577,"stil":9578,"Ġdirekten":9579,"Ġdirekte":9580,"hÃ¤ndler":9581,"Web":9582,"bewegung":9583,"Ġfestge":9584,"vorsitzen":9585,"pÃ¤ck":9586,"ĠErschein":9587,"Ġfeier":9588,"Ġvorgenommen":9589,"oline":9590,"automat":9591,"beschichtung":9592,"Ġpraktische":9593,"Ġbedarf":9594,"ĠFernsehen":9595,"ĠRud":9596,"87":9597,"Ġvideo":9598,"ape":9599,"Ġqualit":9600,"ĠHir":9601,"ĠgeprÃ¤gt":9602,"Kinder":9603,"anzeige":9604,"Ġ1999":9605,"ĠverstÃ¤nd":9606,"getragen":9607,"fenster":9608,"ranken":9609,"Ġohn":9610,"eidet":9611,"ĠKass":9612,"Ġsowieso":9613,"Ġ49":9614,"Ġerreichbar":9615,"Ġgeliefert":9616,"mÃ¶bel":9617,"fleisch":9618,"****":9619,"Weitere":9620,"Ã¤ufe":9621,"ĠRisiken":9622,"Hoch":9623,"\")":9624,"gebiete":9625,"ĠWebsites":9626,"Ġerworben":9627,"ĠFur":9628,"adies":9629,"ĠkÃ¼mmern":9630,"ĠErkenntnis":9631,"ĠNachfrage":9632,"konzept":9633,"ĠWen":9634,"ĠmÃ¼sse":9635,"ĠInfo":9636,"ĠjÃ¼nger":9637,"ĠHaben":9638,"ĠWeiterbildung":9639,"Ġphys":9640,"gleichen":9641,"Ġreife":9642,"ĠVorstellungen":9643,"ĠErwachsenen":9644,"ĠKomponenten":9645,"Ġnord":9646,"Ġthem":9647,"ĠModer":9648,"testet":9649,"bedÃ¼rf":9650,"Ġabgel":9651,"ĠNeuen":9652,"ĠVerfÃ¼g":9653,"fit":9654,"werbung":9655,"ĠPhilipp":9656,"Ġwenigstens":9657,"nacht":9658,"ĠErste":9659,"ĠgewÃ¤hrleistet":9660,"ĠPreisen":9661,"ettet":9662,"ĠZweifel":9663,"ĠCookie":9664,"Ġunternehmen":9665,"mension":9666,"mÃ¤r":9667,"gebÃ¤ude":9668,"Ġinteressieren":9669,"gige":9670,"Sport":9671,"Ġbewegt":9672,"ĠAlpen":9673,"ĠHÃ¶chst":9674,"Rech":9675,"ĠKro":9676,"ĠLap":9677,"ĠglÃ¤n":9678,"wahr":9679,"odurch":9680,"ppich":9681,"ĠðŁĻ":9682,"ĠAnhÃ¤nger":9683,"NatÃ¼rlich":9684,"artigen":9685,"ĠAudi":9686,"itiert":9687,"ĠmÃ¼":9688,"ĠSpannung":9689,".âĢĿ":9690,"ĠQualif":9691,"Ġentwickelte":9692,"ĠDuft":9693,"steil":9694,"ĠPerformance":9695,"ĠTechnologien":9696,"afel":9697,"istin":9698,"Ġschlagen":9699,"organisation":9700,"ĠFotograf":9701,"haut":9702,"Ġ85":9703,"ĠBetracht":9704,"verordnung":9705,"ĠGalerie":9706,"hrt":9707,"ehin":9708,"euchten":9709,"ĠErstellung":9710,"ĠAussagen":9711,"itation":9712,"ĠInspir":9713,"ĠGefahren":9714,"Ġvolle":9715,"Ġlocker":9716,"ĠVielen":9717,"Ġtiefer":9718,"Ġzentrale":9719,"ĠLoch":9720,"ĠVarianten":9721,"zeugung":9722,"gyp":9723,"ĠHit":9724,"Ġstolz":9725,".Â»":9726,"ĠMerc":9727,"Ġweist":9728,"brÃ¼":9729,"tritt":9730,"lustr":9731,"ĠDam":9732,"ĠAuflÃ¶sung":9733,"rone":9734,"ĠSorgen":9735,"ĠergÃ¤nzt":9736,"Di":9737,"eins":9738,"Ġquasi":9739,"ĠJubilÃ¤um":9740,"ĠSituationen":9741,"ĠHandeln":9742,"leder":9743,"hose":9744,"ĠBundesliga":9745,"ĠgewÃ¼nschten":9746,"Men":9747,"ĠJuden":9748,"Ġ1990":9749,"ĠbeschÃ¤ftigen":9750,"ĠEinbau":9751,"steine":9752,"ĠEvangel":9753,"ĠMatth":9754,"ktiver":9755,"ĠSehenswÃ¼rdig":9756,"Ã¤mpft":9757,"Ġspiele":9758,"beschreibung":9759,"Ġfroh":9760,"ĠSterne":9761,"Ġklare":9762,"ĠSab":9763,"kea":9764,"ĠArznei":9765,"kinder":9766,"Ġanmelden":9767,"Zeit":9768,"ĠVerÃ¤nderung":9769,"Ġlegte":9770,"ĠMaus":9771,"wood":9772,"Ġdetaill":9773,"mun":9774,"Ġrichten":9775,"britannien":9776,"ĠThÃ¼r":9777,"ĠBewerbung":9778,"ĠTourismus":9779,"ahnsinn":9780,"Ġums":9781,"ĠHead":9782,"ĠPhys":9783,"portal":9784,"fahrten":9785,"Ġsim":9786,"onus":9787,"oret":9788,"ĠIngen":9789,"ĠAnruf":9790,"Ġqualifiz":9791,"ĠReinigung":9792,"ieller":9793,"ĠReh":9794,"riech":9795,"Ġendet":9796,"ĠursprÃ¼nglich":9797,"Ġansonsten":9798,"Ġsicheren":9799,"Ġwohnen":9800,"dex":9801,"ĠTÃ¤ter":9802,"ĠAppl":9803,"ĠJagd":9804,"Ġbeschreibt":9805,"ida":9806,"uld":9807,"Ins":9808,"ĠGetrÃ¤nke":9809,"ĠTu":9810,"ĠiP":9811,"ĠungewÃ¶hn":9812,"ĠKommunikations":9813,"Ġverwendeten":9814,"ĠWiderspruch":9815,"Ġ47":9816,"Ġverboten":9817,"ĠKnie":9818,"Ġabwechslungs":9819,"ĠTrump":9820,"reicher":9821,"ĠProzesse":9822,"Ġlautet":9823,"pot":9824,"Ġgefertigt":9825,"Ġhinweg":9826,"ĠWiderstand":9827,"wende":9828,"republik":9829,"ĠRichtig":9830,"ĠHeinrich":9831,"arriere":9832,"blog":9833,"ĠTablet":9834,"Ġfern":9835,"ĠfrÃ¼heren":9836,"ĠZwar":9837,"Ġkonkre":9838,"ĠEinwohner":9839,"familien":9840,"Port":9841,"ĠIslam":9842,"ĠBast":9843,"ĠEbenso":9844,"ĠSprecher":9845,"vort":9846,"Teil":9847,"Ġverlin":9848,"arische":9849,"vgl":9850,"Ġ180":9851,"Ġintelligen":9852,"jÃ¤hriger":9853,"Ġenglisch":9854,"Ġschlechte":9855,"cam":9856,"ĠFestival":9857,"ĠAnwalt":9858,"Ġunkompl":9859,"ĠAff":9860,"dach":9861,"ĠanschlieÃŁen":9862,"ĠCenter":9863,"Ġkontinuier":9864,"ĠFranken":9865,"scheinlichkeit":9866,"ĠGesetzes":9867,"ĠtÃ¤glichen":9868,"Ġsonstige":9869,"ĠFra":9870,"Ġjemanden":9871,"fuck":9872,"berichte":9873,"ialen":9874,"ĠGefÃ¼hle":9875,"osm":9876,"Ġkennenlernen":9877,"einheit":9878,"ĠBuchst":9879,"ĠÃľbungen":9880,"Ġbay":9881,"ĠKul":9882,"ĠgeprÃ¼ft":9883,"einsatz":9884,"arma":9885,"ĠSauer":9886,"ague":9887,"ĠInnovation":9888,"Ġeingetragen":9889,"ĠKriegs":9890,"Lin":9891,"Ġgeraten":9892,"2009":9893,"ĠWissenschaftler":9894,"ĠJede":9895,"ordnen":9896,"brig":9897,"Ġmiss":9898,"Ġdating":9899,"ĠKlick":9900,"forum":9901,"ĠJÃ¼rgen":9902,"TER":9903,"ĠKonzentr":9904,"ging":9905,"rika":9906,"ĠFast":9907,"New":9908,"Ġdarstellen":9909,"Ġpo":9910,"ĠEntwicklungen":9911,"Ġzeichnet":9912,"Ġeinstellen":9913,"Ġsichere":9914,"Ġschien":9915,"arbeitungs":9916,"Ġvielmehr":9917,"ĠPlÃ¤tze":9918,"Gut":9919,"WE":9920,"ĠVoraussetzung":9921,"ĠFinanzierung":9922,"ĠAuseinander":9923,"ĠerlÃ¤uter":9924,"Ġaust":9925,"ĠRechtsanwalt":9926,"fried":9927,"ctor":9928,"ĠÃ¼berwiegend":9929,"Ġwodurch":9930,"ĠverstÃ¤rkt":9931,"Ġallgemeine":9932,"ĠVordergrund":9933,"Ġok":9934,"ĠSteck":9935,"hallen":9936,"ĠDritter":9937,"orfen":9938,"tex":9939,"Ġanschauen":9940,"ĠCommunity":9941,"ĠExistenz":9942,"Ã¶cher":9943,"ĠwÃ¤r":9944,"Ġdo":9945,"Ġverlangt":9946,"vision":9947,"senz":9948,"ĠCent":9949,"reue":9950,"ĠmÃ¤ch":9951,"ĠPartie":9952,"ĠEigentÃ¼mer":9953,"ĠGanze":9954,"amens":9955,"stagram":9956,"ickte":9957,"ĠMaschine":9958,"Rei":9959,"http":9960,"geschwindigkeit":9961,"set":9962,"Ġdomin":9963,"schwer":9964,"atischen":9965,"ĠWellen":9966,"Selbst":9967,"geladen":9968,"ental":9969,"retung":9970,"ĠSpur":9971,"dienste":9972,"Ġdynam":9973,"IK":9974,"ĠSollten":9975,"ĠMach":9976,"mitglied":9977,"ĠKleine":9978,"Ġsw":9979,"ĠGroÃŁen":9980,"Ã¤be":9981,"nehmung":9982,"Ġ:-)":9983,"person":9984,"Ġgross":9985,"ĠYouTube":9986,"ĠMi":9987,"aumen":9988,"feuer":9989,"hi":9990,"otherapie":9991,"Ġkontaktieren":9992,"istent":9993,"ĠZy":9994,"ĠUnterlagen":9995,"ĠFlucht":9996,"ĠExtra":9997,"beauftrag":9998,"ĠBaumwolle":9999,"Ġausser":10000,"Ġgreifen":10001,"ĠBras":10002,"ĠMenÃ¼":10003,"ĠPod":10004,"ces":10005,"ĠLÃ¶schung":10006,"chner":10007,"ĠBraun":10008,"stete":10009,"Ġkostenfrei":10010,"Ġmanchen":10011,"ĠGehalt":10012,"Ġoper":10013,"Ġtraum":10014,"ĠEngel":10015,"/-":10016,"SA":10017,"ĠWeltkrieg":10018,"bestand":10019,"Ġerwerben":10020,"flu":10021,"ĠLok":10022,"ĠVersandkosten":10023,"ĠJer":10024,"Ġerkenn":10025,"ĠVerst":10026,"Ġgezielt":10027,"mÃ¤ch":10028,"ĠDame":10029,"ĠJed":10030,"Ġinhalt":10031,"Ġniedriger":10032,"Ġklin":10033,"ĠKommission":10034,"Ġvereinbart":10035,"ĠJustiz":10036,"91":10037,"ãĤ":10038,"ppchen":10039,"arischen":10040,"ĠStift":10041,"ĠLinien":10042,"ĠEntfernung":10043,"ĠMitgliedern":10044,"ĠInstrument":10045,"ĠAbteilung":10046,"Ġschneiden":10047,"ĠQuer":10048,"Ġgenerell":10049,"Ġfile":10050,"gesprÃ¤ch":10051,"ofen":10052,"tum":10053,"ĠStÃ¤rke":10054,"Ġdavor":10055,"Ġkleinere":10056,"baus":10057,"Ġgra":10058,"Ġerschien":10059,"ci":10060,"schÃ¶nen":10061,"iehlt":10062,"HL":10063,"ĠPhase":10064,"ror":10065,"ĠLack":10066,"ungskosten":10067,"Br":10068,"ehle":10069,"Ġschriftlich":10070,"ulÃ¤r":10071,"ros":10072,"gewinn":10073,"stÃ¤rke":10074,"Ġsign":10075,"ĠChamp":10076,"ĠSubst":10077,"ĠDunkel":10078,"ĠSchicks":10079,"ĠjÃ¼d":10080,"Ġmet":10081,"ausbildung":10082,"ĠAusflug":10083,"ixel":10084,"Ġwiderrufen":10085,"Ġbeding":10086,"Ġ64":10087,"betreiber":10088,"ĠPir":10089,"ĠFiguren":10090,"Ġdekor":10091,"ĠzugÃ¤nglich":10092,"ĠunzÃ¤hl":10093,"Ġeinverstanden":10094,"ĠKonsequ":10095,"Ġfrage":10096,"ĠLiga":10097,"ĠTun":10098,"Ġschlicht":10099,"ĠSÃ¤u":10100,"ĠLeuten":10101,"ĠDialog":10102,"Ã¤ssig":10103,"atin":10104,"ĠDor":10105,"ĠWerkstatt":10106,"ĠBaut":10107,"Ġnehme":10108,"ĠEvents":10109,"ente":10110,"ext":10111,"Ġverfolgt":10112,"konom":10113,"arts":10114,"Ġtrinken":10115,"ĠAuftraggeber":10116,"Netz":10117,"wn":10118,"ĠJava":10119,"ĠLook":10120,"ĠBR":10121,"Ġleer":10122,"Ġuntersucht":10123,"tifiziert":10124,"ĠPhilosophie":10125,"hÃ¤ngen":10126,"ĠSupport":10127,"ĠHitze":10128,"ĠUhren":10129,"finanz":10130,"mess":10131,"Ġberlin":10132,"ĠGB":10133,"rak":10134,"Ġtechnisch":10135,"Ġdesign":10136,"ĠSchle":10137,"adel":10138,"alition":10139,"ohne":10140,"Ġrechtzeitig":10141,"Ġhom":10142,"staaten":10143,"gelen":10144,"SE":10145,"asser":10146,"Ġverursacht":10147,"ĠWegen":10148,"ĠInvestition":10149,"nam":10150,"kÃ¼r":10151,"ĠPortal":10152,"ĠBegr":10153,"ĠSteuern":10154,"ĠRevolution":10155,"macher":10156,"ĠLippen":10157,"Ġberechnet":10158,"ĠmÃ¤dchen":10159,"zusehen":10160,"ĠFaktoren":10161,"Ġinnovative":10162,"ideen":10163,"zelt":10164,"Schon":10165,"Ġroten":10166,"ĠErwerb":10167,"ĠAuftritt":10168,"ĠVerg":10169,"ĠSpekt":10170,"ĠwÃ¤chst":10171,"stitu":10172,"Ġeffektiv":10173,"We":10174,"ĠDE":10175,"ĠGrab":10176,"ĠFlÃ¼ss":10177,"Ġbekomme":10178,"orge":10179,"ĠBesten":10180,"Ġangesehen":10181,"thm":10182,"Ġentscheidet":10183,"Ġhum":10184,"asten":10185,"Ġfotograf":10186,"Ġ(\"":10187,"ĠBesitzer":10188,"ĠFeier":10189,"ĠTrage":10190,"ĠfÃ¼hrenden":10191,"zend":10192,"kÃ¤":10193,"otoren":10194,"Ġnachvoll":10195,"Ġreagieren":10196,"Ġschwere":10197,"Ġzuge":10198,"rechtlichen":10199,"ĠVW":10200,"Ġ41":10201,"machung":10202,"Ġstimmen":10203,"rektur":10204,"klÃ¤rt":10205,"ĠbestÃ¤tigen":10206,"ĠGramm":10207,"Ġtat":10208,"Ġï":10209,"ahe":10210,"ĠSebastian":10211,"sberg":10212,"perten":10213,"Komp":10214,"fÃ¼hrte":10215,"IF":10216,"ĠForscher":10217,"izei":10218,"Tra":10219,"Ġunteren":10220,"Ġfordern":10221,"ĠArbeitsplatz":10222,"ĠRÃ¤":10223,"voller":10224,"Ġup":10225,"Ġ@":10226,"ĠheiÃŁe":10227,"Ġumwelt":10228,"ĠProjekten":10229,"ĠunverzÃ¼glich":10230,"ĠBetriebssystem":10231,"Projekt":10232,"ĠEM":10233,"Ã¤cheln":10234,"ĠÃ¼berlegen":10235,"Ġerfasst":10236,"ĠReligion":10237,"ĠGroup":10238,"ĠBezirks":10239,"ĠLied":10240,"Ġgetestet":10241,"eget":10242,"ĠMesser":10243,"Ġbeendet":10244,"ĠLogo":10245,"!!!!":10246,"ĠSar":10247,"Denn":10248,"Se":10249,"Ġgewann":10250,"Ġ95":10251,"nes":10252,"enten":10253,"ago":10254,"kra":10255,"Po":10256,"ĠÃ¤lte":10257,"ĠTennis":10258,"ĠHandlungs":10259,"bein":10260,"Ġdauerhaft":10261,"ĠRegistrierung":10262,"hÃ¶rer":10263,"ĠfranzÃ¶sischen":10264,"HH":10265,"anzlei":10266,"ĠFreiburg":10267,"ĠAlte":10268,"beruf":10269,"spreis":10270,"ĠGebÃ¼hren":10271,"lÃ¶sungen":10272,"hersteller":10273,"ĠQuadrat":10274,"ĠmÃ¶gen":10275,"ĠRost":10276,"Ġnein":10277,"ĠTitten":10278,"oche":10279,"dens":10280,"Ġmenschlichen":10281,"lÃ¤nge":10282,"ĠStation":10283,"Ġschlafen":10284,"zwungen":10285,"Mon":10286,"ĠAnschlieÃŁend":10287,"hotel":10288,"ĠAfD":10289,"ĠGre":10290,"zell":10291,"ĠUrlaubs":10292,"Ġgarten":10293,"ĠGleichzeitig":10294,"ĠUrsache":10295,"ĠKlavier":10296,"ĠUlt":10297,"Ġwissenschaftlichen":10298,"Per":10299,"Ġras":10300,"ĠBa":10301,"Sa":10302,"PC":10303,"Ġchem":10304,"Ã¤cht":10305,"ria":10306,"Ġarch":10307,"ĠStaffel":10308,"alb":10309,"Ã¼ben":10310,"ĠSpuren":10311,"ĠGame":10312,"ĠRettungs":10313,"Ġerkannt":10314,"Ġgetrennt":10315,"ĠMount":10316,"ĠDesigner":10317,"gemÃ¤":10318,"aufgaben":10319,"Ġvorn":10320,"bay":10321,"ĠER":10322,"iertem":10323,"Ġspont":10324,"ĠCr":10325,"TC":10326,"jet":10327,"ĠProblemen":10328,"ĠTextil":10329,"teilte":10330,"Hol":10331,"ĠBewusstsein":10332,"pts":10333,"Ġdel":10334,"fÃ¶rm":10335,"irekt":10336,"Ġlanger":10337,"ĠHochzeits":10338,"reiches":10339,"Ġtraditionellen":10340,"Ac":10341,"ords":10342,"lÃ¤uft":10343,"ĠProgramme":10344,"ĠMix":10345,"Ġbetrachten":10346,"fuckfuck":10347,"ĠgrÃ¶s":10348,"ĠSchauspiel":10349,"ĠNahrung":10350,"kus":10351,"ĠEffekt":10352,"ĠDigitalisierung":10353,"ĠEinkaufs":10354,"ĠSlot":10355,"Ġschlechter":10356,"ĠKonzern":10357,"ĠgefÃ¼hl":10358,"ĠgroÃŁzÃ¼":10359,"Ġmomentan":10360,"Ġpdf":10361,"Ġhalte":10362,"lineshop":10363,"ĠMobile":10364,"einrichtungen":10365,"ĠGegenwart":10366,"hofen":10367,"dicht":10368,"ird":10369,"schungen":10370,"Ġnackt":10371,"lech":10372,"ĠSehenswÃ¼rdigkeiten":10373,"ĠhieÃŁ":10374,"ilian":10375,"ĠSystems":10376,"ĠBarb":10377,"BE":10378,"####":10379,"Ġamerikanischen":10380,"Ġgo":10381,"ĠEinladung":10382,"Eigen":10383,"irmen":10384,"Ġexpl":10385,"89":10386,"ĠKlim":10387,"Ã¶h":10388,"itur":10389,"ĠBeschwerden":10390,"ĠKohlen":10391,"zert":10392,"Ġgewerb":10393,"ĠFinale":10394,"ĠBetreu":10395,"Ġbreite":10396,"ĠLogistik":10397,"Ġku":10398,"Par":10399,"ĠKindergarten":10400,"Serie":10401,"ĠEth":10402,"Ġgeschickt":10403,"schnittlich":10404,"ettel":10405,"ĠAdmin":10406,"kÃ¶mm":10407,"Ġperfekten":10408,"DI":10409,"Ġohnehin":10410,"kommun":10411,"Ġdiversen":10412,"Ġerstaun":10413,"isa":10414,"quelle":10415,"ĠÃ¼berrascht":10416,"lÃ¤ssig":10417,"ĠhÃ¤ngen":10418,"Ġâľ":10419,"ĠRauch":10420,"Ġeignen":10421,"bten":10422,"ĠSchild":10423,"Ġkurzem":10424,"ĠElement":10425,"schÃ¼t":10426,"ĠÃ¶fter":10427,"Kreis":10428,"ÃŁt":10429,"dy":10430,"usion":10431,"Ġbrauche":10432,"ĠNiedersachsen":10433,"ĠGerne":10434,"ĠSchokol":10435,"oires":10436,"ĠMarc":10437,"esh":10438,"Ġtrat":10439,"./":10440,"begl":10441,"anzÃ¶sisch":10442,"ĠInc":10443,"ĠOft":10444,"oral":10445,"ĠwÃ¼nsche":10446,"ĠWies":10447,"ĠDiesel":10448,"mt":10449,"ĠRechnungs":10450,"Ġpassend":10451,"kammer":10452,"ĠTir":10453,"ĠStau":10454,"ĠReiÃŁ":10455,"stehende":10456,"rÃ¼ckt":10457,"Ġabges":10458,"ther":10459,"ĠPotenz":10460,"prof":10461,"Warum":10462,"ĠDritt":10463,"ĠVerletzung":10464,"52":10465,"ĠergÃ¤nzen":10466,"schicht":10467,"ĠDurchmesser":10468,"ĠMomen":10469,"Ġfuer":10470,"ĠAnwendungs":10471,"drÃ¼ckt":10472,"ĠMetern":10473,"Ġmitge":10474,"ĠGriechenland":10475,"weitern":10476,"Ġfeststellen":10477,"ĠSper":10478,"ĠDampf":10479,"offen":10480,"ĠButter":10481,"museum":10482,"ĠSamsung":10483,"Ġunn":10484,"Ġoberen":10485,"Ġgarantieren":10486,"ĠLange":10487,"ffekte":10488,"ĠFlu":10489,"Ġzweimal":10490,"ĠIdeal":10491,"geschnitten":10492,"erische":10493,"krÃ¤f":10494,"ĠInhalten":10495,"ĠWillkommen":10496,"Ġgewinnt":10497,"ICHT":10498,"ĠKonflikt":10499,"Min":10500,"ĠFavor":10501,"core":10502,"Ġgrosse":10503,"ĠEiner":10504,"Ġnette":10505,"bringung":10506,"54":10507,"genau":10508,"rohr":10509,"Ġit":10510,"banken":10511,"Ġgeschieht":10512,"prozess":10513,"ĠSitzung":10514,"flÃ¼ge":10515,"born":10516,"schreibung":10517,"ritzen":10518,"ĠISBN":10519,"72":10520,"ĠSpeicherung":10521,"ĠprÃ¤z":10522,"ĠRegierungs":10523,"ĠBach":10524,"altete":10525,"ĠGerÃ¤ten":10526,"Ġoffiziell":10527,"Ġunverb":10528,"zufÃ¼gen":10529,"klang":10530,"ĠOrten":10531,"ĠPrÃ¤sentation":10532,"ĠzustÃ¤ndig":10533,"ssel":10534,"ĠGreen":10535,"Ġbetreiben":10536,"Ã¼ge":10537,"sphase":10538,"outube":10539,"ĠAngeboten":10540,"branche":10541,"ĠKonzer":10542,"Ġdiskutiert":10543,"ĠClass":10544,"Ġchron":10545,"ĠAnbie":10546,"zutage":10547,"ungsf":10548,"Ġzufolge":10549,"ĠMathem":10550,"Ã¤tigkeiten":10551,"ĠHaltung":10552,"ĠðŁĻĤ":10553,"ĠKnow":10554,"Ġbewerten":10555,"Ġerkennt":10556,"ema":10557,"mannschaft":10558,"ĠMieter":10559,"ield":10560,"Ġinstallieren":10561,"iment":10562,"Ġdurchschnittliche":10563,"nutzung":10564,"ĠHose":10565,"ĠStatus":10566,"ĠtatsÃ¤ch":10567,"ĠImpress":10568,"eutzutage":10569,"etze":10570,"fÃ¼llen":10571,"ĠSoldaten":10572,"lÃ¤ndischen":10573,"ĠVorlage":10574,"Ã¼rzen":10575,"Ġberuflichen":10576,"ĠGrunde":10577,"Ġkonsequ":10578,"emann":10579,"indliche":10580,"baut":10581,"ĠOberflÃ¤chen":10582,"ĠUV":10583,"Ġharmon":10584,"Ġerheblich":10585,"Tag":10586,"ĠMÃ¤ngel":10587,"ĠEntwickler":10588,"71":10589,"Ã¼ndigen":10590,"ĠSprachen":10591,"ĠKartoff":10592,"ĠGrÃ¼nder":10593,"schlagwortet":10594,"ĠSyr":10595,"atives":10596,"Ã¼cksichtigung":10597,"Ġzuhause":10598,"âĢ¦)":10599,"auschen":10600,"also":10601,"ĠSm":10602,"ĠAusgleich":10603,"ĠDritten":10604,"bungs":10605,"ipedia":10606,"53":10607,"Ġbevorzu":10608,"Ġgelassen":10609,"ĠGesprÃ¤che":10610,"ĠKugel":10611,"ĠSne":10612,"Ġwartet":10613,"ĠNordrhein":10614,"ĠInnenstadt":10615,"irl":10616,"KT":10617,"omet":10618,"ĠStory":10619,"ordnet":10620,"ura":10621,"worfen":10622,"ĠSexy":10623,"Zwei":10624,"ĠTouristen":10625,"Ġstet":10626,"fla":10627,"Version":10628,"Sol":10629,"swerte":10630,"arke":10631,"geschichten":10632,"Ġmassiv":10633,"behandlung":10634,"ĠAro":10635,"breite":10636,"Ġsach":10637,"Ġpraktischen":10638,"ĠÃ¤ltere":10639,"ĠPferd":10640,"Ġfragte":10641,"ĠRiesen":10642,"ĠEreignisse":10643,"hagen":10644,"ĠVeranstalter":10645,"reibungen":10646,"ĠForderungen":10647,"?\"":10648,"Ġkontakte":10649,"ĠModul":10650,"ĠÃ¼blichen":10651,"ĠStrukturen":10652,"Ġfuhr":10653,"ĠOrien":10654,"ranten":10655,"Ã¶ffentlichen":10656,"Ġ56":10657,"Ã¼lern":10658,"ĠPR":10659,"bÃ¼ro":10660,"ĠVorgaben":10661,"ĠkW":10662,"garn":10663,"ĠRE":10664,",...":10665,"ĠUnterschiede":10666,"ĠAlp":10667,"Ġeinheit":10668,"Ġwerfen":10669,"Ġvereinbar":10670,"82":10671,"hten":10672,"verlust":10673,"Ġap":10674,"pression":10675,"Ġschaut":10676,"Ġwirtschaftlichen":10677,"BER":10678,"ĠÃ¤hnliche":10679,"ays":10680,"Ġausgest":10681,"ĠPatient":10682,"ĠImpul":10683,"Ġjeweilige":10684,"ĠRegelungen":10685,"iefert":10686,"iessen":10687,"Ġpersonenbezogene":10688,"irts":10689,"seitige":10690,"uz":10691,"Ġreligi":10692,"gin":10693,"Dr":10694,"uro":10695,"ĠkÃ¼nst":10696,"ĠVereine":10697,"Ġglaubt":10698,"ĠWohnen":10699,"Ġerzeugt":10700,"onisten":10701,"ĠZiff":10702,"scheine":10703,"ĠLaptop":10704,"uchst":10705,"let":10706,"Ġgesetzliche":10707,"Ġgesetzlich":10708,"Ġempfiehlt":10709,"ĠAnna":10710,"ĠProvin":10711,"ĠBasel":10712,"ĠRegelung":10713,"aka":10714,"Ġsog":10715,"ĠGewerk":10716,"ĠAnalytics":10717,"rische":10718,"Ġscheinen":10719,"ktivitÃ¤t":10720,"ĠMedikamente":10721,"Ġpositiven":10722,"Ġfund":10723,"Ġfliegen":10724,"âĢ¦.":10725,"ĠMos":10726,"ĠHem":10727,"ĠfÃ¼n":10728,"ĠAbschnitt":10729,"Ġkathol":10730,"âĢĿ.":10731,"Ġvi":10732,"kolle":10733,"ĠAN":10734,"ĠWÃ¶rter":10735,"ĠAnnahme":10736,"ĠÃ¤lteren":10737,"ĠErkrankungen":10738,"geblich":10739,"ĠNachwuchs":10740,"ĠBundesland":10741,"mord":10742,"ĠhÃ¤ufiger":10743,"51":10744,"ĠBÃ¼nd":10745,"zucker":10746,"Ġreduzieren":10747,"Ġbefest":10748,"ĠTrocken":10749,"ĠMittler":10750,"ĠZen":10751,"Ġfragt":10752,"ĠnÃ¶r":10753,"ĠhÃ¶chst":10754,"ĠEntspannung":10755,"Ġangegebenen":10756,"ĠKrimin":10757,"acker":10758,"Ġoffiziellen":10759,"ĠChor":10760,"Ġfesten":10761,"ĠSchwierigkeiten":10762,"Ġgewohnt":10763,"Ġgeschm":10764,"ĠGames":10765,"ĠOhren":10766,"Ġdokumen":10767,"Ġhistorische":10768,"Hin":10769,"pool":10770,"ĠBGB":10771,"ĠLieder":10772,"Ġdick":10773,"ĠmÃ¼ssten":10774,"Ġgestartet":10775,"utern":10776,"ĠSonst":10777,"Ġbeherr":10778,"Ġaussieht":10779,"Ã¶ss":10780,"ĠstÃ¤rken":10781,"samkeit":10782,"etenzen":10783,"Ġnormale":10784,"ĠVeranstaltungs":10785,"ĠPlatten":10786,"Ġbreiten":10787,"ali":10788,"Ġtolles":10789,"iers":10790,"ĠBrandenburg":10791,"ĠBerater":10792,"ĠdurchfÃ¼hren":10793,"Gemein":10794,"ĠzuverlÃ¤ssig":10795,"wachsen":10796,"ĠErwartungen":10797,"Ġangeblich":10798,"ĠGeile":10799,"iene":10800,"Unternehmen":10801,"TL":10802,"ĠAltstadt":10803,"name":10804,"ĠLen":10805,"Ġdanke":10806,"ĠÃĸk":10807,"ierbar":10808,"bit":10809,"ĠgÃ¼nstige":10810,"mÃ¶glichkeit":10811,"mert":10812,"ĠKÃ¼hlschrank":10813,"ĠErotische":10814,"ĠSpazier":10815,"Ġfix":10816,"Ġfehl":10817,"ĠlieÃŁen":10818,"ĠSpielautomaten":10819,"Noch":10820,"ĠBraut":10821,"ĠFeed":10822,"Ġ52":10823,"folio":10824,"ĠFormular":10825,"menge":10826,"ĠSturm":10827,"ado":10828,"lieferung":10829,"ĠInsbesondere":10830,"ĠTreff":10831,"ichern":10832,"datum":10833,"ĠPiz":10834,"ĠBerÃ¼cksichtigung":10835,"Ġbasiert":10836,"Ġgeschehen":10837,"ĠenttÃ¤u":10838,"Leider":10839,"Ġgep":10840,"Ġanger":10841,"obel":10842,"ĠAufstieg":10843,"ĠGibt":10844,"ĠgÃ¼l":10845,"ĠBeschluss":10846,"mungs":10847,"Ġbeitragen":10848,"Ġvoran":10849,"ĠBenutzung":10850,"oli":10851,"methoden":10852,"Ġfehler":10853,"ĠFreien":10854,".:.:.:.:":10855,"ĠVersch":10856,"Ã¶ger":10857,"iode":10858,"ĠHelfer":10859,"Ġgegebenenfalls":10860,"Ġeinerseits":10861,"uns":10862,"Ġnachzu":10863,"wes":10864,"2008":10865,"kas":10866,"ĠDrittel":10867,"Ġbegeistern":10868,"ĠGroÃŁbritannien":10869,"Ġabends":10870,"indlichen":10871,"aby":10872,"Ġverfolgen":10873,"ysi":10874,"ĠOptik":10875,"ĠBam":10876,"ĠHierbei":10877,"Ġteils":10878,"ingu":10879,"riedenheit":10880,"59":10881,"cast":10882,"Ġnachhaltig":10883,"ĠExempl":10884,"UniversitÃ¤t":10885,"ĠSchles":10886,"ĠStabilitÃ¤t":10887,"otter":10888,"klassen":10889,"Ġtelefonisch":10890,"ĠMond":10891,"He":10892,"ehend":10893,"Ġlaufenden":10894,"fu":10895,"ĠFrucht":10896,"anking":10897,"Ġliebsten":10898,"Ġme":10899,"Ġ66":10900,"titel":10901,"ĠAkte":10902,"sprÃ¼chen":10903,"Ġbeziehungs":10904,"pflanzen":10905,"Ġhundert":10906,"hÃ¶rige":10907,"ĠWord":10908,"ĠLeucht":10909,"Ġvorhandenen":10910,"Ġsa":10911,"ĠBlÃ¼ten":10912,"SCH":10913,"ĠNaz":10914,"bacher":10915,"baden":10916,"ĠLassen":10917,"ĠAkt":10918,"Ġdrehen":10919,"Ã¶ck":10920,"drucks":10921,"ĠKoordin":10922,"gnÃ¼gen":10923,"Design":10924,"ted":10925,"ups":10926,"ĠFeatur":10927,"rust":10928,"Ġtier":10929,"ĠDrucker":10930,"su":10931,"Ġ99":10932,"hnacht":10933,"ĠStrecken":10934,"ĠSchwangerschaft":10935,"sprÃ¤":10936,"ĠVorfeld":10937,"Ġnam":10938,"ĠÃ¶ffnet":10939,"Ã¼nder":10940,"ĠNotwend":10941,"ĠDokumentation":10942,"bereiten":10943,"ĠHardware":10944,"ĠAM":10945,"ĠJazz":10946,"Ober":10947,"zo":10948,"oma":10949,"ĠAutobahn":10950,"ĠSaar":10951,"Vom":10952,"ĠProp":10953,"ĠMord":10954,"ĠPas":10955,"ĠPornos":10956,"Ġangeschlossen":10957,"ĠHochschul":10958,"zeichneten":10959,"Ġkontakt":10960,"ĠLaufen":10961,"Ġbeeindrucken":10962,"Ġnen":10963,"Ġgrossen":10964,"Alles":10965,"ĠFÃ¼hrer":10966,"wÃ¶rter":10967,"furter":10968,"stimmen":10969,"zustand":10970,"fÃ¼ll":10971,"ĠschlieÃŁt":10972,"?!":10973,"lÃ¤ufig":10974,"schneiden":10975,"ĠgÃ¤ng":10976,"ĠTax":10977,"ĠFakten":10978,"Ġlokalen":10979,"Bereich":10980,"ĠGewinner":10981,"ĠChemie":10982,"ĠRheinland":10983,"ĠÃ¼bermittelt":10984,"hoff":10985,"ĠExtrem":10986,"ĠKrankheiten":10987,"Ġgenaue":10988,"zahlungen":10989,"Ġleichten":10990,"Ġretten":10991,"ĠBeton":10992,"ĠIdentitÃ¤t":10993,"Na":10994,"ĠAbwehr":10995,"ato":10996,"003":10997,"Ġempfangen":10998,"AF":10999,"ĠUrsachen":11000,"Deutschland":11001,"ĠDrogen":11002,"Westfalen":11003,"ferien":11004,"Intern":11005,"Ã¶ll":11006,"74":11007,"Ġehrenamt":11008,"reckt":11009,"deutschen":11010,"sches":11011,"Ġmg":11012,"ĠVilla":11013,"Ġbezieht":11014,"ĠDokumente":11015,"ras":11016,"tipp":11017,"ĠErhalt":11018,"risten":11019,"tien":11020,"hythm":11021,"ĠKarlsruhe":11022,"ĠBrau":11023,"ĠweiÃŁe":11024,"Ġdetail":11025,"werber":11026,"Ġtraf":11027,"bul":11028,"gesetzten":11029,"gekommen":11030,"ĠJahrzehnten":11031,"Nein":11032,"apter":11033,"mittler":11034,"ĠRegional":11035,"vider":11036,"sern":11037,"vi":11038,"muster":11039,"Ġflexibel":11040,"ĠBatterie":11041,"Dienst":11042,"ĠSCH":11043,"ĠunmÃ¶glich":11044,"ordnungs":11045,"landschaft":11046,"ĠEigentum":11047,"Ġbezogen":11048,"verstÃ¤ndnis":11049,".....":11050,"ĠschlÃ¤gt":11051,"Erst":11052,"Log":11053,"BS":11054,"Inst":11055,"Ġansprechen":11056,"ila":11057,"ĠWahrscheinlichkeit":11058,"Ġq":11059,"ĠKrankenk":11060,"ĠMP":11061,"Ġpart":11062,"Ġersetzen":11063,"welle":11064,"ms":11065,"Ġfolgte":11066,"ĠLehre":11067,"ĠDeinen":11068,"ene":11069,"Ġerotische":11070,"ĠAllgemeine":11071,"miss":11072,"Ġfantast":11073,"schluÃŁ":11074,"ĠProduktions":11075,"73":11076,"Stadt":11077,"Ġbelegt":11078,"ĠMeeres":11079,"etts":11080,"Ã¤ste":11081,"ĠFeuchtigkeit":11082,"Ġverliert":11083,"ĠMengen":11084,"Ġgriech":11085,"ĠKlassiker":11086,"tere":11087,"ĠSG":11088,"urer":11089,"roman":11090,"Ġstattf":11091,"ĠGalax":11092,"igh":11093,"ĠAustralien":11094,"ĠFrÃ¼hling":11095,"ĠProfession":11096,"ĠBÃ¼ch":11097,"ĠWirklichkeit":11098,"instr":11099,"Ã¤digung":11100,"ildet":11101,"ronomie":11102,"finale":11103,"ikaner":11104,"ieber":11105,"ĠNachhaltigkeit":11106,"hÃ¤usern":11107,"Ġstelle":11108,"AV":11109,"Ã¼ste":11110,"Ġeinsch":11111,"Ġbearbeiten":11112,"Ġlangweil":11113,"ĠStÃ¼cke":11114,"ĠGÃ¶tt":11115,"eitete":11116,"ĠKonferenz":11117,"Ã¶gel":11118,"tasche":11119,"lÃ¤ndern":11120,"ĠKrebs":11121,"ĠZeitschrift":11122,"konferenz":11123,"ĠSchmidt":11124,"ĠAnwesen":11125,"urteilen":11126,"grenze":11127,"fels":11128,"ĠAnfÃ¤nger":11129,"Ġbeeinflussen":11130,"Ġziel":11131,"Ġspezialisiert":11132,"elberg":11133,"lade":11134,"ĠGymnas":11135,"ington":11136,"ĠTG":11137,"ĠWilli":11138,"ĠTiefe":11139,"wal":11140,"alitÃ¤ten":11141,"Ġeingehen":11142,"ĠFonds":11143,"ĠHP":11144,"ĠBenz":11145,"mass":11146,"ĠlÃ¤ngere":11147,"ĠKrÃ¤fte":11148,"attformen":11149,"ĠChristoph":11150,"Ġgolden":11151,"gs":11152,"Ã¼ht":11153,"ĠBoch":11154,"ĠPhot":11155,"ĠangekÃ¼ndigt":11156,"ĠFassung":11157,"jo":11158,"ĠZwie":11159,"ĠschÃ¼tzt":11160,"ĠwunderschÃ¶nen":11161,"ĠAhnung":11162,"personen":11163,"begriff":11164,"Ã¤ndige":11165,"ĠReb":11166,"gezogen":11167,"ĠQuart":11168,"ĠInstagram":11169,"Dabei":11170,"ĠNic":11171,"Ġzugelassen":11172,"beutel":11173,"shop":11174,"Ġattraktiv":11175,"Ġverbreitet":11176,"ĠBeleuchtung":11177,"ĠðŁĺī":11178,"glied":11179,"ami":11180,"ĠLabor":11181,"ĠGÃ¼n":11182,"83":11183,"ĠOf":11184,"ĠMuss":11185,"ĠKÃ¶nnen":11186,"ĠBezeichnung":11187,"ktions":11188,"Ġbeziehungsweise":11189,"bio":11190,"79":11191,"ĠAufsichts":11192,"hÃ¤nomen":11193,"Ġerweitern":11194,"Ġnacht":11195,"Jo":11196,"akete":11197,"ĠSendung":11198,"ternen":11199,"ĠeuropÃ¤ische":11200,"ĠLaun":11201,"Ġkonkrete":11202,"krÃ¤":11203,"Ġvideos":11204,"ĠSpeisen":11205,"zension":11206,"teilungen":11207,"ĠDomain":11208,"ĠAnton":11209,"ĠAst":11210,"Sc":11211,"ĠAufnahmen":11212,"acy":11213,"Ġumfassende":11214,"ĠAutomobil":11215,"kÃ¶n":11216,"ĠSpir":11217,"ĠRezepte":11218,"ĠHinblick":11219,"block":11220,"istet":11221,"Ġliefer":11222,"Ġschlie":11223,"ĠOnlineshop":11224,"ĠCafÃ©":11225,"aturen":11226,"Ġprodu":11227,"Ġmorgens":11228,"reien":11229,"ĠDefin":11230,"Ġanfangen":11231,"einrichtung":11232,"ĠNichts":11233,"Ġfrom":11234,"ĠNavig":11235,"ĠSymptome":11236,"ĠMatthias":11237,"Ġwichtigste":11238,"Jeder":11239,"Ġstill":11240,"Ġsonstigen":11241,"rel":11242,"ĠPrÃ¼fungs":11243,"Ġhinterlassen":11244,"ĠJedes":11245,"istischer":11246,"Fach":11247,"Ġumso":11248,"ĠAusÃ¼bung":11249,"geordneten":11250,"Ġbeliebtesten":11251,"Ġbeschreiben":11252,"ĠDingen":11253,"ĠTricks":11254,"start":11255,"ĠIntelligen":11256,"Ġeinzigartigen":11257,"Ġlangfristig":11258,"steck":11259,"center":11260,"ĠspÃ¼ren":11261,"ĠErfahrungs":11262,"Ġscheinbar":11263,"ĠBart":11264,"ĠDeiner":11265,"Ġgerech":11266,"Ġbestehende":11267,"Ġabgegeben":11268,"ĠBundesrepublik":11269,"ĠFlach":11270,"ĠWorkshops":11271,"ĠTore":11272,"kind":11273,"Ġvorsichtig":11274,"Ġsteigern":11275,"ĠTabelle":11276,"dates":11277,"Hz":11278,"ĠUntersuchungen":11279,"osexuell":11280,"Pol":11281,"ĠEmpfÃ¤nger":11282,"Ã¶sungs":11283,"tifizierung":11284,"ĠFÃ¼ÃŁe":11285,"sender":11286,"Schn":11287,"ĠSmartphones":11288,"ĠGeschÃ¤ftsbedingungen":11289,"aute":11290,"ĠberÃ¼ck":11291,"Ġaufgel":11292,"aufbau":11293,"ĠNoten":11294,"ĠVin":11295,"brand":11296,"eidung":11297,"Ġversorgt":11298,"ĠVÃ¶lker":11299,"ĠAachen":11300,"dule":11301,"2019":11302,"ĠWag":11303,"ĠJosef":11304,"ĠÃ¼brig":11305,"ĠLiebling":11306,"stant":11307,"ĠErweiterung":11308,"ĠBerichte":11309,"Ġ110":11310,"gers":11311,"ĠIntens":11312,"ĠMineral":11313,"ĠMauer":11314,"ĠgefÃ¶rdert":11315,"spflicht":11316,"Ġspiegel":11317,"ĠKonstruktion":11318,"Ġwohnzimmer":11319,"ĠEuropÃ¤ische":11320,"woche":11321,"ĠWÃ¤":11322,"amik":11323,"ĠEntwurf":11324,"ĠRec":11325,"Aktu":11326,"Ġehe":11327,"Ġ;)":11328,"ĠMem":11329,"ĠVerwand":11330,"Ġkenn":11331,"gÃ¤ngen":11332,"Ġinfo":11333,"ĠAnerkennung":11334,"ĠHammer":11335,"Ġorigin":11336,"Ġnormalerweise":11337,"ĠTelefonnummer":11338,"nungszeiten":11339,"azitÃ¤t":11340,"OK":11341,"ĠDJ":11342,"fahrzeug":11343,"oman":11344,"Ġausgesprochen":11345,"ĠBÃ¤ume":11346,"ĠbegrÃ¼ÃŁ":11347,"ĠInternetseiten":11348,"Ġfrischen":11349,"metik":11350,"ĠZo":11351,"ĠherkÃ¶mm":11352,"Ġhohem":11353,"ĠPerspektive":11354,"dpa":11355,"ĠWalter":11356,"entlicher":11357,"ĠButton":11358,"Ġevtl":11359,"Ġjener":11360,"antrag":11361,"...)":11362,"otheken":11363,"ĠGT":11364,"phase":11365,"urteilt":11366,"phan":11367,"Ġpfl":11368,"Software":11369,"schieben":11370,"ĠÂ©":11371,"ĠWerden":11372,"sprÃ¼fung":11373,"ĠBrÃ¼cke":11374,"Ġversuchte":11375,"splatz":11376,"ĠStreifen":11377,"ĠSeg":11378,"ĠSÃ¼ÃŁ":11379,"ĠâĢº":11380,"ĠSalzburg":11381,"strate":11382,"mes":11383,"izont":11384,"regungen":11385,"Ġkonk":11386,"ĠDynam":11387,"liegenden":11388,"Ġentspannt":11389,"Mag":11390,"gegangen":11391,"ĠzustÃ¤ndigen":11392,"ĠRathaus":11393,"ĠzurÃ¼ckzu":11394,"ĠLaser":11395,"ĠNachbarn":11396,"fot":11397,"ĠEntsteh":11398,"ĠDos":11399,"sofern":11400,"ĠMotivation":11401,"istan":11402,"Ġbesonderer":11403,"igsten":11404,"ĠAufruf":11405,"gemacht":11406,"ĠVorm":11407,"Ġinvestieren":11408,"meldungen":11409,"Ġangesichts":11410,"Ġzentralen":11411,"linder":11412,"Ġtranspor":11413,"bungen":11414,"Ġnahmen":11415,"Ġgesammelt":11416,"athie":11417,"Ġermittelt":11418,"Ġpop":11419,"ĠHinsicht":11420,"ĠAfrika":11421,"Cook":11422,"teils":11423,"akterien":11424,"hod":11425,"ĠPanor":11426,"bem":11427,"grundlage":11428,"Ã¤len":11429,"irur":11430,"ĠWandel":11431,"mein":11432,"Ġauss":11433,"ifest":11434,"ĠKoalition":11435,"stock":11436,"wetter":11437,"ĠAD":11438,"rn":11439,"ĠSignal":11440,"Ġ;-)":11441,"Ġsingle":11442,"ausstattung":11443,"amerika":11444,"ĠPotenzial":11445,"listen":11446,"flÃ¼ss":11447,"ĠScheiben":11448,"pfe":11449,"Kom":11450,"Ġgekenn":11451,"ĠErneuer":11452,"ĠgefÃ¤hrlich":11453,"ĠAction":11454,"ĠLeich":11455,"ĠTeig":11456,"gau":11457,"ĠDing":11458,"ĠKas":11459,"ĠKenntnisse":11460,"ĠWerner":11461,"onders":11462,"schwei":11463,"Ġrechte":11464,"Ġdeutschsprach":11465,"ĠTrends":11466,"ĠHung":11467,"Ġseitens":11468,"Ġliebt":11469,"ĠÃľbersetzung":11470,"Ġgenannte":11471,"63":11472,"rÃ¼cke":11473,"ĠKontext":11474,"Ġberuh":11475,"zieher":11476,"ĠNeubau":11477,"isseur":11478,"ĠSteuerung":11479,"omputer":11480,"Ġvis":11481,"lauch":11482,"ĠRecher":11483,"ĠZitat":11484,"Ġwahren":11485,"ffizient":11486,"ĠBotschaft":11487,"ĠHaupts":11488,"61":11489,"gebÃ¼hren":11490,"ĠHohen":11491,"erung":11492,"ĠFicken":11493,"uh":11494,"Ġdan":11495,"69":11496,"ĠKons":11497,"perrt":11498,"84":11499,"Ġare":11500,"testen":11501,"Part":11502,"ĠNeur":11503,"Met":11504,"ĠSchauspieler":11505,"zungen":11506,"Ġnationalen":11507,"Ġilleg":11508,"ĠGÃ¶t":11509,"Ġerotik":11510,"Ġrenomm":11511,"bal":11512,"ĠausgefÃ¼hrt":11513,"ĠgrÃ¼nen":11514,"Ã¤ndigen":11515,"gestellten":11516,"ĠAnfragen":11517,"kraine":11518,"ĠTickets":11519,"Ġgeplanten":11520,"Ġstecken":11521,"ĠFÃ¤higkeit":11522,"Ġrufen":11523,"ĠMul":11524,"gnor":11525,"ĠZweit":11526,"ahne":11527,"Ġkop":11528,"ĠSurf":11529,"ĠFell":11530,"81":11531,"ple":11532,"Con":11533,"steuerung":11534,"ĠausgewÃ¤hlt":11535,"gerÃ¤ten":11536,"treff":11537,"ĠVf":11538,"Ġerforderlichen":11539,"Ġumgehend":11540,"Arb":11541,"Ġ140":11542,"ĠbloÃŁ":11543,"ĠMB":11544,"mung":11545,"ĠAbsol":11546,"ni":11547,"ited":11548,"ĠBeach":11549,"Ġprofessionellen":11550,"Ã¤hnen":11551,"affung":11552,"passung":11553,"Ġerzielt":11554,"ĠHallen":11555,"ĠSternen":11556,"ĠBul":11557,"ĠTrag":11558,"ĠBron":11559,"ĠspÃ¼r":11560,"ĠEmpfang":11561,"strecke":11562,"Ġallzu":11563,"ĠGR":11564,"ĠGewinne":11565,"Ġaufre":11566,"ero":11567,"stisch":11568,"Ġgesunde":11569,"62":11570,"ĠFormul":11571,"Ġkorrekt":11572,"Ġdoppel":11573,"Ã¼nkt":11574,"Ġweitgehend":11575,"ĠUnterhaltung":11576,"ĠverlÃ¤nger":11577,"Ġgebunden":11578,"Ġbetont":11579,"ĠSpielzeug":11580,"ĠSorge":11581,"itch":11582,"ĠOptimierung":11583,"pÃ¤dagog":11584,"undern":11585,"ĠGran":11586,"----------------":11587,"Ġfinanzielle":11588,"ils":11589,"idar":11590,"ĠVitamin":11591,"ĠverÃ¶ffentlichen":11592,"ettern":11593,"ĠKnochen":11594,"schÃ¤den":11595,"locken":11596,"Ġangesprochen":11597,"ĠKoffer":11598,"imme":11599,"ĠProbe":11600,"alth":11601,"ĠProfi":11602,"ĠStuhl":11603,"kop":11604,"urteilung":11605,"betreuung":11606,"ĠZÃ¤hne":11607,"laubnis":11608,"ĠMehrwert":11609,"Inform":11610,"ĠFÃ¼nf":11611,"wirkt":11612,"ĠHost":11613,"Ġerfolgte":11614,"Ġgefeiert":11615,"ĠHeiligen":11616,"Ġangelegt":11617,"bahnhof":11618,"Ġmieten":11619,"ĠKÃ¼ndigung":11620,"blen":11621,"ĠSperr":11622,"inkt":11623,"Falls":11624,"ĠSho":11625,"ĠSus":11626,"ĠToil":11627,"ĠErmitt":11628,"grÃ¼nde":11629,"ĠbeschrÃ¤nkt":11630,"Ġ1997":11631,"ĠRuhr":11632,"emark":11633,"ĠMangel":11634,"Gl":11635,"ĠfÃ¶rdert":11636,"ĠMol":11637,"Ġerfordert":11638,"bestimmungen":11639,"ĠStrei":11640,"ĠGeburts":11641,"Kont":11642,"umb":11643,"ĠOffice":11644,"komfort":11645,"rint":11646,"plemen":11647,"ĠOtto":11648,"Ġgere":11649,"Wei":11650,"bund":11651,"ĠberÃ¼cksichtigen":11652,"utung":11653,"ĠDesigns":11654,"ĠVerw":11655,"Ġverwei":11656,"ĠStudierenden":11657,"ĠMex":11658,"ĠCheck":11659,"Ġabgestimmt":11660,"ĠFax":11661,"ĠBesser":11662,"Dis":11663,"Wohn":11664,"architektur":11665,"Ġkonzip":11666,"ĠMercedes":11667,"ĠAntrieb":11668,"ments":11669,"ĠAngelegen":11670,"ĠTieren":11671,"ĠKund":11672,"Ġumfangreiche":11673,"Ã¶nt":11674,"ĠschÃ¤tzen":11675,"ĠEurope":11676,"agerung":11677,"logen":11678,"ĠDecken":11679,"arbe":11680,"Ġelektronischen":11681,"Ġ51":11682,"ĠMannschaften":11683,"ĠCons":11684,"manns":11685,"Bau":11686,"Ġsolch":11687,"Ġkonstru":11688,"IER":11689,"ĠThre":11690,"hst":11691,"Ã¤le":11692,"ĠNachfolger":11693,"ĠErinnerungen":11694,"ĠkÃ¼rzlich":11695,"ĠErzÃ¤hl":11696,"adresse":11697,"ehrte":11698,"echanis":11699,"etto":11700,"zeitige":11701,"Ġverschiedensten":11702,"ĠVerkaufs":11703,"ĠwunderschÃ¶ne":11704,"Ġlauf":11705,"onte":11706,"ĠStreet":11707,"Ġrote":11708,"kontakt":11709,"ĠUnabhÃ¤ng":11710,"BM":11711,"schuh":11712,"Ã¶tet":11713,"ais":11714,"volles":11715,"ĠZurÃ¼ck":11716,"Ġstehe":11717,"lassung":11718,"wunsch":11719,"rix":11720,"abteilung":11721,"Ġbedienen":11722,"ĠWÃ¼nschen":11723,"euchte":11724,"liver":11725,"Ġbewertet":11726,"eber":11727,"Ġkonkreten":11728,"ĠdrÃ¼cken":11729,"ĠKok":11730,"ementen":11731,"ĠBan":11732,"Ġausprobieren":11733,"ĠBoots":11734,"==":11735,"gast":11736,"irma":11737,"ilch":11738,"Ġbege":11739,"Ã¤ud":11740,"Ġausgesch":11741,"herm":11742,"gefunden":11743,"ktop":11744,"Ġreisen":11745,"gebÃ¼hr":11746,"Rad":11747,"ĠKreativitÃ¤t":11748,"ĠSchatz":11749,"ĠHandlung":11750,"ĠHeizung":11751,"ĠGE":11752,"ĠLG":11753,"Ġsau":11754,"ĠFarbt":11755,"Ġanpassen":11756,"ĠStaatsanwalt":11757,"win":11758,"Ben":11759,"uhe":11760,"ĠAmateur":11761,"Ġeinzeln":11762,"arry":11763,"ĠeingefÃ¼hrt":11764,"ablen":11765,"Li":11766,"ĠComm":11767,"ĠErÃ¶ffnung":11768,"Ġandererseits":11769,"ĠVollzeit":11770,"ĠAmerika":11771,"ĠSuchen":11772,"forn":11773,"zeitung":11774,"Ġaktive":11775,"Gruppe":11776,"ĠNagel":11777,"Ġreagiert":11778,"ĠDÃ¶r":11779,"ĠMahl":11780,"lers":11781,"bereichen":11782,"ĠBegleiter":11783,"Ġ54":11784,"Ġangefangen":11785,"Ġfin":11786,"gesellschaften":11787,"ĠSofern":11788,"ĠSoweit":11789,"Ġmobilen":11790,"ĠÃ¤ndert":11791,"ĠGrand":11792,"rsg":11793,"ĠAnwender":11794,"Ġfrische":11795,"ĠGehÃ¤use":11796,"ĠĠĠĠ":11797,"Ġorg":11798,"ussten":11799,"Ġmithilfe":11800,"ĠKÃ¶nigs":11801,"quellen":11802,"Ġende":11803,"malen":11804,"prechen":11805,"kretÃ¤r":11806,"stedt":11807,"ĠgewÃ¼nschte":11808,"Ã¤mpfung":11809,"zÃ¼ndung":11810,"ĠStufe":11811,"Ã¤mpfe":11812,"ĠNamens":11813,"Ġaktiven":11814,"ĠColle":11815,"ĠMitteilung":11816,"ĠRedaktion":11817,"ĠNahrungs":11818,"messe":11819,"Startseite":11820,"Ganz":11821,"lein":11822,"unsten":11823,"quote":11824,"Trotz":11825,"ĠHub":11826,"Ġ(Â§":11827,"Ã¶sterreich":11828,"ÃŁig":11829,"Ġorganisieren":11830,"Ġaufger":11831,"Ġerwachsen":11832,"eminar":11833,"ĠÃĦhn":11834,"ĠReport":11835,"arz":11836,"Wor":11837,"kette":11838,"ĠPfe":11839,"iki":11840,"kleider":11841,"ĠAnsonsten":11842,"Ġwechsel":11843,"ĠHall":11844,"verantwort":11845,"ĠBrit":11846,"rest":11847,"ĠCop":11848,"lehnt":11849,"riester":11850,"ĠBibliothek":11851,"ĠBekl":11852,"Ġsl":11853,"rent":11854,"ĠSpiels":11855,"ĠStor":11856,"ĠspÃ¤teren":11857,"heizung":11858,"Ġyour":11859,"ĠKammer":11860,"enkorb":11861,"ĠJournalisten":11862,"Ġaufeinander":11863,"ĠExpl":11864,"ĠSpark":11865,"behÃ¶rden":11866,"krit":11867,"ĠApfel":11868,"unen":11869,"kleber":11870,"gg":11871,"ĠLiv":11872,"ĠKath":11873,"ĠJahreszeit":11874,"ĠBibel":11875,"ĠÃľbrigen":11876,"fehler":11877,"beteil":11878,"vern":11879,"Ġbegrenzt":11880,"ĠMÃ¼nchner":11881,"ĠISO":11882,"ĠTeu":11883,"Ġeffizien":11884,"ĠJeans":11885,"ĠSchÃ¼lern":11886,"Ġmenschen":11887,"ĠInstitutionen":11888,"ĠOma":11889,"ĠBeteiligung":11890,"ĠPlastik":11891,"Ã¤rzt":11892,"Ġdreht":11893,"Ġ53":11894,"amburg":11895,"ĠHalbzeit":11896,"elemente":11897,"ĠCur":11898,"ĠAmbiente":11899,"CE":11900,"Ġvorab":11901,"einheiten":11902,"ĠbefÃ¼r":11903,"Ġgemeint":11904,"ĠVerordnung":11905,"ĠBerge":11906,"lohn":11907,"ĠfÃ¼llen":11908,"Ġ130":11909,"Ã¼tung":11910,"lehrer":11911,"ĠSobald":11912,"ĠKiel":11913,"freunde":11914,"brem":11915,"ĠGeschÃ¤fte":11916,"ristall":11917,"meer":11918,"tischer":11919,"Ġ1996":11920,"rimin":11921,"gelegen":11922,"Ġgeschnitten":11923,"ĠIniti":11924,"ĠIrgend":11925,"ĠSchein":11926,"Ġliest":11927,"ĠLeinwand":11928,"ĠXX":11929,"yal":11930,"ĠSofort":11931,"hafter":11932,"ĠBelastung":11933,"Ã¼hlen":11934,"acebook":11935,"ĠBlei":11936,"Ġlangfrist":11937,"Ġschmerz":11938,"ĠPL":11939,"etik":11940,"Ġfinanziellen":11941,"ĠÃ¼berraschen":11942,"iensten":11943,"modelle":11944,"ratet":11945,"ĠTouren":11946,"itas":11947,"Ġvierten":11948,"ĠgroÃŁem":11949,"à¸":11950,"ĠMountain":11951,"OG":11952,"].":11953,"kehren":11954,"ĠMuschi":11955,"ĠsorgfÃ¤ltig":11956,"ĠPlÃ¤ne":11957,"NE":11958,"ĠGenehmigung":11959,"âĢĶ":11960,"ĠKurse":11961,"ĠFA":11962,"Einen":11963,"ĠFritz":11964,"Ġentnehmen":11965,"grÃ¼nden":11966,"ĠFeiert":11967,"kla":11968,"dest":11969,"ando":11970,"Fe":11971,"Ġdemokrat":11972,"Ġdahinter":11973,"ĠerlÃ¤utert":11974,"ĠAufbew":11975,"sÃ¤u":11976,"scheibe":11977,"ĠzerstÃ¶rt":11978,"ĠWeiterentwicklung":11979,"ĠErkenntnisse":11980,"Ġzusammengestellt":11981,"ĠSchÃ¼tzen":11982,"ĠMinder":11983,"ĠForen":11984,"Ġerzeugen":11985,"uÃŁball":11986,"jacke":11987,"ĠKÃ¤se":11988,"Ġbec":11989,"ĠÃľbung":11990,"Ġversp":11991,"ĠKf":11992,"ĠSin":11993,"Fest":11994,"ĠProje":11995,"scheiben":11996,"Ġzustande":11997,"Buch":11998,"termin":11999,"ĠBd":12000,"Ġwissenschaftliche":12001,"Ġfeiert":12002,"Ġsech":12003,"Ġ700":12004,"sprochen":12005,"izierte":12006,"farb":12007,"leiste":12008,"Ġwahre":12009,"ĠArzneimittel":12010,"ĠObjekte":12011,"info":12012,"ĠPartnerschaft":12013,"Arch":12014,"leitet":12015,"Ġproduzieren":12016,"leiten":12017,"cort":12018,"ĠÃ¶rt":12019,"Ġ(*":12020,"Ġprogramm":12021,"prÃ¤sent":12022,"wartet":12023,"optim":12024,"typ":12025,"ĠAnregungen":12026,"Ġhalbe":12027,"Ġml":12028,"ĠLind":12029,"gegnung":12030,"dere":12031,"Ġunterliegen":12032,"ĠgehÃ¶r":12033,"temberauben":12034,"ĠPsychologie":12035,"ĠMathematik":12036,"Box":12037,"Ġshort":12038,"ĠDeutscher":12039,"agern":12040,"ĠMission":12041,"Ġerleichtern":12042,"prakti":12043,"gehende":12044,"einigung":12045,"ology":12046,"ĠBehandlungs":12047,"gess":12048,"Ã¤nglich":12049,"Ġthat":12050,"edig":12051,"Ġsc":12052,"ĠAS":12053,"deutschland":12054,"ĠBegleitung":12055,"Ġgutem":12056,"FF":12057,"enner":12058,"Ġrasch":12059,"Ġvorgeschrieben":12060,"ĠMainz":12061,"ĠSlots":12062,"Ġwesentlichen":12063,"lebnisse":12064,"Ġgebrauch":12065,"ĠTransfer":12066,"Ġwirtschaftliche":12067,"ĠAnleger":12068,"Kurz":12069,"ĠAugenblick":12070,"ĠTum":12071,"Artikel":12072,"ĠVorjahr":12073,"ĠDatenverarbeitung":12074,"ĠIsland":12075,"bÃ¶":12076,"ĠBE":12077,"ĠkÃ¼nf":12078,"VG":12079,"PU":12080,"ĠrÃ¤um":12081,"ĠHÃ¶l":12082,"ĠGeheimnis":12083,"ĠÃľbersetz":12084,"ĠÃ¼bergeben":12085,"ĠReit":12086,"akult":12087,"ĠClau":12088,"ympath":12089,"DER":12090,"ĠMÃ¤rchen":12091,"ĠAkademie":12092,"ili":12093,"ĠEleg":12094,"ziele":12095,"ĠBogen":12096,"Ġ1995":12097,"mont":12098,"AuÃŁerdem":12099,"ban":12100,"glÃ¼ck":12101,"ĠEich":12102,"Ġtrans":12103,"ĠAusgaben":12104,"ĠWC":12105,"ĠGepÃ¤ck":12106,"ĠStandards":12107,"arbeiteten":12108,"Ġarbeitete":12109,"Ġtest":12110,"ĠErfolgs":12111,"Ġfestgelegt":12112,"ĠDurchschnitt":12113,"Ġidentifiz":12114,"Ġqualitativ":12115,"ĠTests":12116,"lehnen":12117,"Ġsage":12118,"ĠBÃ¼hnen":12119,"ãĢ":12120,"Ġangesch":12121,"Bereits":12122,"tage":12123,"ĠSchal":12124,"Ġinneren":12125,"Ã¤umt":12126,"ĠSumme":12127,"ume":12128,"Ġarbeits":12129,"ĠWarte":12130,"ĠEigentlich":12131,"ĠGenerationen":12132,"ĠSAP":12133,"ĠÃ¶sterreichischen":12134,"aille":12135,"ĠVereinbarung":12136,"achr":12137,"unnel":12138,"ĠHierzu":12139,"ĠtÃ¤gliche":12140,"TR":12141,"ĠLaufzeit":12142,"ĠVorstands":12143,"Ġvorbehalten":12144,"Ġauthen":12145,"folgung":12146,"Markt":12147,"ĠVerbindungen":12148,"scheinend":12149,"ĠSuchmaschinen":12150,"verbandes":12151,"ĠContent":12152,"Ġdeaktiviert":12153,"zentren":12154,"ĠTreppen":12155,"ĠChristus":12156,"sal":12157,"onom":12158,"ĠModerne":12159,"studium":12160,"ĠFliesen":12161,"ĠPrÃ¤sidenten":12162,"Ã¤ngerung":12163,"sparenz":12164,"ĠDol":12165,"ĠRÃ¤um":12166,"Ġabsch":12167,"ammern":12168,"neter":12169,"ĠInseln":12170,"ĠPaare":12171,"ĠDarauf":12172,"ĠAutorin":12173,"ĠRespekt":12174,"ĠJak":12175,"ĠÃ¼berprÃ¼ft":12176,"ĠBom":12177,"ĠFÃ¼hrungsk":12178,"Ġfalsche":12179,"ĠunnÃ¶":12180,"ĠBesuchern":12181,"ĠÃľbernahme":12182,"ĠNaturschutz":12183,"kabel":12184,"Ġpflegen":12185,"Ġdicht":12186,"Ġlasse":12187,"Ġzeichnen":12188,"ĠBischof":12189,"ĠDiplom":12190,"aste":12191,"ĠSant":12192,"achim":12193,"ĠSpez":12194,"wel":12195,"Ġzurecht":12196,"ĠEmpfehlungen":12197,"ĠStoffe":12198,"BB":12199,"ĠLautsprecher":12200,"ĠBeteiligten":12201,"Leben":12202,"venz":12203,"ĠZell":12204,"zÃ¼nd":12205,"ĠKey":12206,"ĠPasswort":12207,"post":12208,"Ġnamens":12209,"ĠPots":12210,"Ġhalben":12211,"sthe":12212,"Ġperman":12213,"Immer":12214,"Ġaktiviert":12215,"Ġcom":12216,"ĠRas":12217,"viertel":12218,"Ener":12219,"ĠVermieter":12220,"ĠManchmal":12221,"Ġerrichtet":12222,"Super":12223,"ĠReform":12224,"Ġletztes":12225,"dom":12226,"kenntnisse":12227,"Ġkonkret":12228,"herapeu":12229,"herz":12230,"Ġselt":12231,"ĠLeon":12232,"Ġunber":12233,"ĠErfolge":12234,"schnitte":12235,"ĠDF":12236,"ĠMÃ¼he":12237,"ĠaufgefÃ¼hrt":12238,"beitrag":12239,"Ġbez":12240,"Ã¼tze":12241,"ĠHalte":12242,"ĠOS":12243,"Ã¼ndeten":12244,"ocht":12245,"ahme":12246,"aufnahmen":12247,"ĠBestimmung":12248,"meldet":12249,"Ġstre":12250,"ĠWissens":12251,"ĠForst":12252,"weisungen":12253,"ĠMÃ¤d":12254,"ĠAng":12255,"blÃ¤tter":12256,"mutter":12257,"Ġbemerken":12258,"ĠBedienung":12259,"Ġgeringen":12260,"uster":12261,"ĠSchub":12262,"Ġchat":12263,"ĠGerÃ¤u":12264,"Danke":12265,"ĠDate":12266,"ietung":12267,"Ã¤ngnis":12268,"ĠKassen":12269,"ĠUmzug":12270,"Ġpubl":12271,"ĠMagazin":12272,"ĠKrise":12273,"Ġlegend":12274,"liebe":12275,"ĠPast":12276,"ersatz":12277,"ĠJobs":12278,"Ġwertvolle":12279,"Ã¤ÃŁt":12280,"einigt":12281,"Ġumgehen":12282,"ĠdiesjÃ¤hrigen":12283,"ĠKÃ¶rpers":12284,"Ã¼rtel":12285,"ĠHÃ¤uf":12286,"ĠSauna":12287,"ĠUmfrage":12288,"ulÃ¤ren":12289,"Ġpur":12290,"inderten":12291,"ĠFlexibilitÃ¤t":12292,"Will":12293,"Ġtrag":12294,"reibst":12295,"ĠRichtlinien":12296,"PO":12297,"ĠMau":12298,"Ġdiskutieren":12299,"ĠWinkel":12300,"ĠBezirk":12301,"ĠKontroll":12302,"Ġsolches":12303,"fass":12304,"Ġbetreut":12305,"ĠstÃ¤rk":12306,"ĠIM":12307,"ĠPrim":12308,"Ġgreift":12309,"list":12310,"ĠFDP":12311,"ĠDÃ¤n":12312,"ĠSchÃ¶ne":12313,"any":12314,"Ġoriginal":12315,"ĠSchlu":12316,"Ġinteressanten":12317,"ĠvielfÃ¤ltigen":12318,"cyc":12319,"Kann":12320,"PR":12321,"ĠSchleswig":12322,"ektak":12323,"PA":12324,"itsch":12325,"anzig":12326,"Kn":12327,"Chef":12328,"Ġunangen":12329,"Ġumgeben":12330,"austausch":12331,"ĠVorsitzende":12332,"rechtlich":12333,"Ġkonzentrieren":12334,"ĠstÃ¤d":12335,"urcht":12336,"Ġ....":12337,"Ġbeantwortet":12338,"Jugend":12339,"Ġhervorragende":12340,"Ġlern":12341,"indungs":12342,"gefÃ¼gt":12343,"Ġdarstellt":12344,"ĠArtikeln":12345,"NA":12346,"stritten":12347,"Mich":12348,"fas":12349,"Ġerstklass":12350,"rischen":12351,"ĠMama":12352,"Ġzauber":12353,"ĠGegenstand":12354,"Ã¶rg":12355,"ĠNation":12356,"ĠFerienhaus":12357,"abor":12358,"ario":12359,"Ġout":12360,"ĠJedoch":12361,"ĠSich":12362,"ĠEffizienz":12363,"ĠRechen":12364,"alteten":12365,"wohnern":12366,"Ġerreichte":12367,"ĠAussehen":12368,"ausgabe":12369,"grammen":12370,"Ġriesigen":12371,"sive":12372,"ĠOperation":12373,"ĠFormel":12374,"Ġanstatt":12375,"ĠFinden":12376,"Ġrechtlichen":12377,"ĠKleinen":12378,"ĠVorschlag":12379,"attung":12380,"Ã¤chtnis":12381,"ĠVorgÃ¤nger":12382,"ĠSky":12383,"antes":12384,"tages":12385,"ĠNachweis":12386,"Ġbecause":12387,"Ġworauf":12388,"Institut":12389,"vit":12390,"ĠKanton":12391,"fahrungen":12392,"tiven":12393,"ĠBlÃ¤tter":12394,"ĠGrafiken":12395,"ĠDIE":12396,"schaden":12397,"aktoren":12398,"Ġ1994":12399,"ĠSchneider":12400,"tal":12401,"ĠReiter":12402,"Ġabger":12403,"punkten":12404,"Ġdescription":12405,"Ġbaut":12406,"ĀĀĀĀĀĀĀĀĀĀĀĀĀĀĀĀ":12407,"Ġï¿½":12408,"studien":12409,"ĠAbst":12410,"Ġnachhaltige":12411,"Ġdownload":12412,"Ġantworten":12413,"Ġdefiniert":12414,"ĠWolken":12415,"kleid":12416,"olen":12417,"weig":12418,"ĠWahrnehmung":12419,"oland":12420,"ĠBegeister":12421,"Ġkleineren":12422,"wirksam":12423,"VB":12424,"ĠÃľberraschung":12425,"ĠKult":12426,"ĠSchrank":12427,"Ã¼tten":12428,"zusagen":12429,"ĠBrie":12430,"Ġ68":12431,"ĠFreundschaft":12432,"stufen":12433,"ĠAbwicklung":12434,"rechn":12435,"Liebe":12436,"ĠberÃ¼hmten":12437,"ĠPositionen":12438,"ĠsÃ¼ÃŁ":12439,"genÃ¶ss":12440,"Ġangebotenen":12441,"ĠEnts":12442,"ĠCHF":12443,"aufwand":12444,"Ã¼hl":12445,"Home":12446,"obb":12447,"ĠSexkontakte":12448,"Ġass":12449,"Ġbeliebten":12450,"ĠgeschÃ¤ft":12451,"Ġscharf":12452,"ĠBrasilien":12453,"irge":12454,"ĠInse":12455,"strahlung":12456,"ĠInformatik":12457,"ĠArchitekten":12458,"rauchen":12459,"ĠGebÃ¼hr":12460,"ickel":12461,"Ġdaten":12462,"Ġvan":12463,"ĠFlugzeug":12464,"iteratur":12465,"ĠAuftrags":12466,"ĠKatastrop":12467,"ĠbegrÃ¼ÃŁen":12468,"Ġgeltend":12469,"HS":12470,"Ġbesei":12471,"Ġspannenden":12472,"Ð»":12473,"aku":12474,"ĠMÃ¶n":12475,"uÃŁer":12476,"Ġausgehen":12477,"ĠWÃ¼rde":12478,"Ġbeobachtet":12479,"vereins":12480,"gerechte":12481,"real":12482,"ĠKalk":12483,"ĠTrÃ¤":12484,"ĠMaxim":12485,"vertreter":12486,"schaffung":12487,"asy":12488,"echer":12489,"ĠHermann":12490,"telle":12491,"?)":12492,"ĠKoll":12493,"Ġdamaligen":12494,"kam":12495,"bekommen":12496,"sanierung":12497,"bezir":12498,"Ġberichtete":12499,"ĠRucks":12500,"Ġbester":12501,"ĠGesetze":12502,"Ġpolitisch":12503,"Ġanfang":12504,"Ġdoppelt":12505,"reden":12506,"Ã¼ttel":12507,"ĠVerdacht":12508,"auswahl":12509,"Wasser":12510,"ĠLoc":12511,"Ġsamt":12512,"Ġdurften":12513,"Ã¼nchen":12514,"Ġumzu":12515,"ĠgrÃ¼nd":12516,"Ġheutige":12517,"ĠMannheim":12518,"ĠvorÃ¼ber":12519,"ĠMenschheit":12520,"Sk":12521,"Ġnachfolgenden":12522,"ĠTicket":12523,"Ġheutzutage":12524,"teste":12525,"Ġmechan":12526,"Ġgrundlegen":12527,"PD":12528,"Ġgeheim":12529,"ĠStartseite":12530,"ĠTelekom":12531,"ĠLeib":12532,"Ġleistungs":12533,"Ġleise":12534,"weiler":12535,"Ġac":12536,"ĠUND":12537,"Ġklasse":12538,"ĠSchicksal":12539,"ĠErdbe":12540,"ĠMS":12541,"Ġener":12542,"Online":12543,"etooth":12544,"Ġverspricht":12545,"big":12546,"Kunden":12547,"schrau":12548,"Top":12549,"Ġma":12550,"ĠKontaktformular":12551,"Ġjahrel":12552,"ĠMitteln":12553,"ĠUkraine":12554,"ĠGerÃ¼":12555,"Sicherheit":12556,"Ġabs":12557,"ĠTrack":12558,"ĠNiederlage":12559,"Ġverp":12560,"Ġabgeben":12561,"Ġeinrichten":12562,"ump":12563,"Test":12564,"fab":12565,"auten":12566,"ĠAuswertung":12567,"ĠMomente":12568,"eher":12569,"ĠNu":12570,"Ġaufgestellt":12571,"disziplin":12572,"mÃ¤nn":12573,"eland":12574,"witz":12575,"steht":12576,"Ġseri":12577,"Ġfit":12578,"anzt":12579,"Ġanonym":12580,"ippe":12581,"Ġbot":12582,"Ġeth":12583,"entsprechend":12584,"ĠVision":12585,"ĠBewerber":12586,"Ġwarmen":12587,"besitzer":12588,"ĠKrim":12589,"ĠWeis":12590,"ĠErkrankung":12591,"frÃ¼":12592,"zessen":12593,"ĠEreignis":12594,"wetten":12595,"gebieten":12596,"ĠErhebung":12597,"Ġkorrig":12598,"athon":12599,"Ġstation":12600,"ĠJens":12601,"melde":12602,"Ġgeg":12603,"Ġangeht":12604,"Ġentscheidend":12605,"Ġkar":12606,"ologe":12607,"lechter":12608,"Ġeinzus":12609,"orientierte":12610,"ĠBilanz":12611,"ĠlÃ¤ÃŁt":12612,"ĠAU":12613,"Ã¼stet":12614,"ĠTot":12615,"ĠVeg":12616,"ĠIndien":12617,"haar":12618,"Ġkrei":12619,"ĠFreiwill":12620,"Ġerkennbar":12621,"Ġmoderner":12622,"index":12623,"ĠServic":12624,"ĠApart":12625,"ĠTrauer":12626,"Ġunvergess":12627,"Mails":12628,"Ġoptisch":12629,"ĠGastronomie":12630,"ĠTeilnehmern":12631,"ĠDR":12632,"Ġakzeptieren":12633,"ĠausgewÃ¤hlten":12634,"ĠVerpackung":12635,"ĠLieferanten":12636,"ĠNerven":12637,"hÃ¶rt":12638,"ĠBuchung":12639,"Ġabsolute":12640,"Ġschmeckt":12641,"anal":12642,"obe":12643,"ĠRÃ¼ckkehr":12644,"vertreten":12645,"ĠVerfÃ¼gbarkeit":12646,"Kat":12647,"ĠKÃ¤lte":12648,"Ġschwerer":12649,"ĠBewegungen":12650,"ĠmilitÃ¤r":12651,"Ġerkunden":12652,"ĠRekord":12653,"mungsaktiv":12654,"Ġwild":12655,"Ġunterscheidet":12656,"Ġeuer":12657,"ĠKindheit":12658,"ĠBudget":12659,"ĠDiagnose":12660,"UL":12661,"zgl":12662,"Ã¤tsel":12663,"ĠBeschÃ¤ftigung":12664,"ĠAuÃŁer":12665,"asmus":12666,"Ġexper":12667,"ĠAnders":12668,"ĠgemÃ¼tlich":12669,"ĠNutzern":12670,"freude":12671,"web":12672,"Ġgewal":12673,"ĠOste":12674,"ĠDiesen":12675,"Ġgeltenden":12676,"spitze":12677,"Ġbezeichnen":12678,"ĠkÃ¼m":12679,"irche":12680,"ĠOP":12681,"Ã¤hle":12682,"Ġmedizinische":12683,"ĠSchulden":12684,"ĠGroÃŁteil":12685,"krie":12686,"Ġgepflegt":12687,"ĠForderung":12688,"ĠJeden":12689,"ĠausfÃ¼hrlich":12690,"nte":12691,"Ġbinnen":12692,"lenburg":12693,"Play":12694,"ĠAnim":12695,"binden":12696,"skosten":12697,"etails":12698,"ĠÃ¼blich":12699,"varian":12700,"Ġoff":12701,"fertig":12702,"ĠChristen":12703,"Ġelektronische":12704,"rend":12705,"ĠFrankfurter":12706,"Ġangebracht":12707,"Ġgesellschaftlichen":12708,"ĠPfeffer":12709,"verbindung":12710,"lÃ¤ndische":12711,"Ġ62":12712,"Ġlebens":12713,"ĠFlo":12714,"Ġreine":12715,"Ġerheben":12716,"ĠAttra":12717,"Ġregionalen":12718,"ĠFeedback":12719,"HK":12720,"ikte":12721,"genossen":12722,"ĠPlaneten":12723,"endorf":12724,"ĠWehr":12725,"strich":12726,"Ġoffizielle":12727,"ĠProtest":12728,"leiden":12729,"ĠBefrag":12730,"Ġlernt":12731,"ĠEingabe":12732,"ĠEigentums":12733,"Ġgalt":12734,"ausstellung":12735,"meisterschaft":12736,"Ã¤ppchen":12737,"ieÃŁt":12738,"ĠvielfÃ¤ltige":12739,"ĠZertif":12740,"ĠSeil":12741,"angaben":12742,"Script":12743,"ĠKanal":12744,"ĠStadtteil":12745,"âĢĭ":12746,"Ach":12747,"put":12748,"strasse":12749,"alisierte":12750,"ĠbehÃ¤lt":12751,"ĠMÃ¼ll":12752,"Ġgegenseitig":12753,"wÃ¼rfe":12754,"bergen":12755,"ehrung":12756,"Habe":12757,"ĠArmen":12758,"ĠWeiteren":12759,"âĨĳ":12760,"Ġschar":12761,"ket":12762,"ĠDiskussionen":12763,"Ã¤digt":12764,"isser":12765,"ĠOpp":12766,"Ðĵ":12767,"ĠHÃ¶hepunkt":12768,"Ġfried":12769,"ĠGÃ¼nst":12770,"kg":12771,"Ġvertraut":12772,"ĠverstÃ¤ndlich":12773,"volumen":12774,"Ġsensi":12775,"ĠBereitstellung":12776,"Ġlux":12777,"Ġdicke":12778,"Ġmaximale":12779,"FC":12780,"ĠnÃ¤chstes":12781,"Ħ¢":12782,"ĠToten":12783,"ĠBochum":12784,"ĠNotfall":12785,"lar":12786,"uri":12787,"Ġjetz":12788,"ĠEinschrÃ¤nkung":12789,"poten":12790,"ĠLas":12791,"ĠSchuss":12792,"Ã¶pfung":12793,"ĠMosk":12794,"Ġ160":12795,"ĠRichard":12796,"funktionen":12797,"ĠRal":12798,"ĠTeppich":12799,"bahnen":12800,"ĠEu":12801,"Ġschade":12802,"Ġschlechten":12803,"ĠJac":12804,"',":12805,"seitigen":12806,"ĠDisziplin":12807,"ĠSender":12808,"ĠTschech":12809,"Ġdigital":12810,"ellos":12811,"ĠWatt":12812,"Ġdurchge":12813,"Ġoptimalen":12814,"TA":12815,"ĠBeinen":12816,"ĠJog":12817,"ĠPerspektiven":12818,"ĠDER":12819,"ĠKatalog":12820,"abwicklung":12821,"ĠAusblick":12822,"ĠSyrien":12823,"ĠArmee":12824,"omer":12825,"Eben":12826,"Ġschlaf":12827,"fonds":12828,"ĠGerichte":12829,"hier":12830,"ĠBegrÃ¼ndung":12831,"ĠCharme":12832,"ĠBecken":12833,"ĠCha":12834,"Ġvorliegenden":12835,"Ġzeigten":12836,"link":12837,"Ġgeringe":12838,"Ġreinigen":12839,"Ġtraditionelle":12840,"Mann":12841,"ĠTechniken":12842,"ĠTopf":12843,"ĠMittelalter":12844,"ĠGipfel":12845,"ĠiPad":12846,"ĠUnterhalt":12847,"ĠPartnersuche":12848,"ĠLeague":12849,"Ġsyn":12850,"fahrzeuge":12851,"Ġinnere":12852,"zungs":12853,"Ġgesichert":12854,"ĠInvestitionen":12855,"Ġschaff":12856,"ĠEntsch":12857,"Ġrobu":12858,"ĠVersionen":12859,"Ġerlauben":12860,"ĠSoll":12861,"ĠBefest":12862,"ialis":12863,"Ġzukunft":12864,"Schw":12865,"sÃ¤tzen":12866,"ript":12867,"2007":12868,"Ġbehaupten":12869,"ĠRÃ¼ckseite":12870,"ĠKontaktdaten":12871,"chron":12872,"fiz":12873,"ĠLine":12874,"Ġ58":12875,"wider":12876,"flie":12877,"ĠKub":12878,"Ġeuren":12879,"ĠVorhaben":12880,"Ġjunger":12881,"brochen":12882,"^^":12883,"ĠMun":12884,"Ġoptimieren":12885,"Ġjugend":12886,"Ġeinsetz":12887,"ĠÃĦgyp":12888,"Ġnegativ":12889,"Ġriesige":12890,"Ġgibts":12891,"ĠDI":12892,"ĠHex":12893,"roller":12894,"fein":12895,"kredit":12896,"ĠZufall":12897,"ĠElektronik":12898,"institut":12899,"Ġ360":12900,"ĠgegenwÃ¤r":12901,"rechtliche":12902,"Ġexternen":12903,"col":12904,"ĠAugsburg":12905,"ĠEv":12906,"ĠUltra":12907,"ĠBetr":12908,"bedien":12909,"Ã¤tte":12910,"sslich":12911,"ji":12912,"Ã¤ttern":12913,"affe":12914,"ĠKali":12915,"worte":12916,"ietet":12917,"Ġ1980":12918,"Ġverteilen":12919,"Ġreichlich":12920,"Ġkomm":12921,"StraÃŁe":12922,"mÃ¤ÃŁige":12923,"ĠKlicken":12924,"entin":12925,"ashion":12926,"ĠFun":12927,"bearbeitung":12928,"ĠPartnern":12929,"Ġleg":12930,"ĠTempo":12931,"ĠSpielern":12932,"ĠArgument":12933,"oberflÃ¤che":12934,"ĠKaufen":12935,"ĠEinhaltung":12936,"Ġprofessionell":12937,"ocken":12938,"orse":12939,"Ġstrahlen":12940,"Ġherrscht":12941,"Ġtreiben":12942,"ĠTomaten":12943,"ĠTÃ¤tigkeiten":12944,"ildete":12945,"ĠGermany":12946,"esp":12947,"Ġfre":12948,"ĠRÃ¼":12949,"ĠSprung":12950,"Aller":12951,"irektor":12952,"ĠTherm":12953,"indel":12954,"veranstaltung":12955,"Laut":12956,"Ã¤ngern":12957,"pfung":12958,"Ġ900":12959,"ĠProvinz":12960,"anschluss":12961,"ĠSMS":12962,"ĠgewÃ¼nscht":12963,"ĠVerpflichtung":12964,"Ġindustr":12965,"ĠTreffer":12966,"ĠSkla":12967,"ĠbewÃ¤hr":12968,"belast":12969,"ĠDachbeschichtung":12970,"Technologie":12971,"Ġnackte":12972,"feste":12973,"ĠbeeintrÃ¤ch":12974,"ĠTrennung":12975,"ĠEmpfehlung":12976,"rott":12977,"gehalt":12978,"aftet":12979,"ĠOfen":12980,"agert":12981,"ĠArn":12982,"ografen":12983,"Ġ>>":12984,"Ġ72":12985,"landes":12986,"Ġspektak":12987,"geschritten":12988,"Ġumfassenden":12989,"schnitts":12990,"ĠEntstehung":12991,"ĠOliven":12992,"Ġumfangreichen":12993,"ĠFernseher":12994,"drÃ¼cken":12995,"add":12996,"paket":12997,"ĠSchwÃ¤":12998,"ĠGegenstÃ¤nde":12999,"tro":13000,"Ġsonn":13001,"Ġunterhalten":13002,"jenige":13003,"ĠPin":13004,"ĠErhÃ¶hung":13005,"ĠImpressum":13006,"uxe":13007,"ĠDM":13008,"brief":13009,"ĠSchlacht":13010,"ĠgefÃ¼llt":13011,"Ġ(âĢ¦)":13012,"Ġkurzfristig":13013,"produkt":13014,"ĠBegegnung":13015,"auty":13016,"ĠSchall":13017,"Ġgefordert":13018,"rasse":13019,"Ġverring":13020,"ĠAutomaten":13021,"ĠwÃ¶ch":13022,"ĠAC":13023,"geordnete":13024,"ĠPrint":13025,"ĠVerletzungen":13026,"pend":13027,"ĠHandbuch":13028,"ĠflÃ¼ss":13029,"ĠSpons":13030,"Ġwaschen":13031,"schild":13032,"TH":13033,"Modell":13034,"ĠZwecken":13035,"priv":13036,"Ġche":13037,"media":13038,"Ã¶pfen":13039,"Shirt":13040,"Ġ->":13041,"ĠÃ¼berraschend":13042,"hÃ¤ngt":13043,"Ġrussischen":13044,"ĠverÃ¤nder":13045,"ĠSaal":13046,"GeschÃ¤ft":13047,"ĠDire":13048,"ĠEingriff":13049,"ĠBernd":13050,"gelÃ¤nde":13051,"ĠKÃ¶lner":13052,"Ġenger":13053,"schlieÃŁt":13054,"ĠVerfassungs":13055,"300":13056,"ĠPhÃ¤nomen":13057,"Ġ2020":13058,"Ġgebucht":13059,"ĠCarl":13060,"Ġtypischen":13061,"Ġfalschen":13062,"kuchen":13063,"ĠImmun":13064,"freundlich":13065,"ĠKorrektur":13066,"Ġveg":13067,"Ġgeladen":13068,"stunde":13069,"Ġbedanken":13070,"sprozesse":13071,"ĠKÃ¼ste":13072,"veranstaltungen":13073,"ĠSpektrum":13074,"Ġbearbeitet":13075,"ĠFotografie":13076,"irurgie":13077,"warten":13078,"Ġmehrmals":13079,"siver":13080,"ĠTit":13081,"merkt":13082,"abeth":13083,"ĠNÃ¤hr":13084,"wanderung":13085,"Ġunkompliziert":13086,"behalt":13087,"ĠDomin":13088,"Dollar":13089,"wanne":13090,"regeln":13091,"ĠmÃ¼sst":13092,"Ġseitdem":13093,"ĠCast":13094,"ĠGrÃ¼ÃŁe":13095,"Ġleiten":13096,"systems":13097,"ĠStudent":13098,"ecial":13099,"VP":13100,"ĠAusfÃ¼hrungen":13101,"ĠWarenkorb":13102,"rung":13103,"uther":13104,"gor":13105,"Ġbeweisen":13106,"Ġerledigt":13107,"ĠBege":13108,"ĠZelt":13109,"ĠSy":13110,"Ġquer":13111,"ĠBohr":13112,"sicherung":13113,"Ġbestand":13114,"ĠFlecken":13115,"Ġattraktive":13116,"sprachen":13117,"Ġbeinahe":13118,"ĠAnkunft":13119,"samt":13120,"Ġfeine":13121,"verteidig":13122,"lekt":13123,"ussion":13124,"ĠNackt":13125,"ĠSchreibtisch":13126,"norm":13127,"Ġwh":13128,"ĠTob":13129,"Ġerleichtert":13130,"sprodu":13131,"ally":13132,"ĠHeft":13133,"Ġbad":13134,"mitten":13135,"arien":13136,"ĠTonnen":13137,"ahnung":13138,"ansprÃ¼che":13139,"Ġdemnach":13140,"Ġminim":13141,"ĠZe":13142,"Ġignor":13143,"Ġbekommst":13144,"afrika":13145,"ween":13146,"ĠBestÃ¤tigung":13147,"klÃ¤rungen":13148,"ĠOrgan":13149,"ĠFerienwohnung":13150,"Ġverleihen":13151,"Mir":13152,"ĠEure":13153,"ĠlangjÃ¤hrige":13154,"ĠWarm":13155,"ĠÃĦuÃŁer":13156,"ĠverknÃ¼":13157,"Ġversuche":13158,"ĠDecke":13159,"Ġmessen":13160,"ĠBetten":13161,"ĠWÃ¤l":13162,"Ġvereint":13163,"weilen":13164,"ĠKnopf":13165,"ĠGlanz":13166,"Ã¶ÃŁer":13167,"ĠVertrau":13168,"ĠDienstleister":13169,"ĠLeitungs":13170,"zweck":13171,"ĠGeschenke":13172,"ido":13173,"uppert":13174,"bewusstsein":13175,"Bas":13176,"Ġabgelegt":13177,"Ġrezeptfrei":13178,"Press":13179,"nÃ¤chst":13180,"ĠVersorgungs":13181,"solvenz":13182,"Ġwollt":13183,"Ġnotwendige":13184,"Ã¼bt":13185,"ĠKollektion":13186,"ĠKlage":13187,"Ġannehmen":13188,"ĠHaushalte":13189,"Ġsicherzustellen":13190,"ĠDarlehen":13191,"ĠSchach":13192,"INE":13193,"Out":13194,"regung":13195,"ua":13196,"ĠSpass":13197,"ĠÃľbertragung":13198,"Frank":13199,"bildet":13200,"ĠFair":13201,"Ġanerkannt":13202,"ĠResult":13203,"deutsche":13204,"sertation":13205,"ĠMobilitÃ¤t":13206,"ĠAuseinandersetzung":13207,"Ġ59":13208,"ĠEtwas":13209,"schritte":13210,"Ġgewachsen":13211,"ĠLevel":13212,"ĠCat":13213,"Ed":13214,"ĠLob":13215,"Ġatemberauben":13216,"reide":13217,"ĠBevor":13218,"pause":13219,"mengen":13220,"Ġkontrolliert":13221,"ĠAlternativen":13222,"ĠBass":13223,"lÃ¶s":13224,"grÃ¶ÃŁen":13225,"Ġunterschiedlicher":13226,"ĠSeh":13227,"Ġgeholfen":13228,"gungen":13229,"Ġunent":13230,"Vielleicht":13231,"Ġtrafen":13232,"ĠDeko":13233,"ĠMagnet":13234,"kreuz":13235,"Ġsanft":13236,"Ġgeilen":13237,"AND":13238,"ĠAbendessen":13239,"Ġkombinieren":13240,"lÃ¤ufe":13241,"ĠVel":13242,"ussy":13243,"Ã¤rchen":13244,"ĠAuftakt":13245,"ĠVorsitzender":13246,"ĠAnbau":13247,"ĠiOS":13248,"ĠTherap":13249,"Ġrunden":13250,"ĠGross":13251,"Ġechter":13252,"ĠStatistik":13253,"erer":13254,"ĠMall":13255,"Neue":13256,"ĠTen":13257,"kal":13258,"ĠGalaxy":13259,"PrÃ¤sident":13260,"Ġport":13261,"ries":13262,"hardt":13263,"Ġ69":13264,"Gew":13265,"hers":13266,"irch":13267,"ĠAGB":13268,"ĠAccount":13269,"heft":13270,"unterlagen":13271,"ĠSportler":13272,"Ġrat":13273,"ĠTauch":13274,"ĠWÃ¤nde":13275,"Ġgekennzeichnet":13276,"ford":13277,"sti":13278,"ĠSU":13279,"ĠRunden":13280,"Gegen":13281,"ĠSW":13282,"itute":13283,"Ġprim":13284,"ĠfÃ¼hlte":13285,"Ġklappt":13286,"Ã¤mmer":13287,"habe":13288,"ingend":13289,"Ġkonf":13290,"ĠJon":13291,"ĠBezahlung":13292,"Ġzahlt":13293,"ĠHas":13294,"sonst":13295,"utin":13296,"Ġgehei":13297,"ĠMonitor":13298,"ĠDA":13299,"Ġharten":13300,"irgend":13301,"ĠCle":13302,"gespielt":13303,"Ġstieg":13304,"Ġmedizinischen":13305,"Ġferner":13306,"ĠÃľbergang":13307,"Ġerneuer":13308,"ĠErgÃ¤nzung":13309,"ĠNeum":13310,"Bez":13311,"Ġandern":13312,"Ġoption":13313,"tran":13314,"sens":13315,"ĠStephan":13316,"Ġstetig":13317,"ĠReis":13318,"marken":13319,"Ġhoffentlich":13320,"ĠEmo":13321,"ĠStrategien":13322,"flÃ¼gel":13323,"âĦ¢":13324,"ĠPortug":13325,"ĠBewerbungs":13326,"klicken":13327,"Ã¤uden":13328,"Ġschreibe":13329,"luste":13330,"ĠDeinem":13331,"Ġmenschliche":13332,"Ġverhalten":13333,"ĠursprÃ¼nglichen":13334,"ĠNormal":13335,"ĠKandidaten":13336,"ĠErsch":13337,"ĠJahrgang":13338,"verlauf":13339,"Ġunterschiedlichsten":13340,"Tipp":13341,"ĠHelden":13342,"Ġitalienischen":13343,"ĠMent":13344,"Ġbeeinflusst":13345,"Ġleuchten":13346,"Foto":13347,"ĠRechtsanw":13348,"Ġgerufen":13349,"kasse":13350,"ĠAngebots":13351,"ĠRegisseur":13352,"ĠKno":13353,"eiz":13354,"ela":13355,"ĠSalat":13356,"ĠDirektor":13357,"RL":13358,"endel":13359,"ildeten":13360,"Ġfremden":13361,"ĠReiÃŁverschluss":13362,"ĠKie":13363,"Ġabgesehen":13364,"cia":13365,"ĠabschlieÃŁen":13366,"Ġ978":13367,"ilen":13368,"ĠAbstimmung":13369,"Ġunend":13370,"ican":13371,"ĠCouch":13372,"ĠVerstÃ¤r":13373,"ywood":13374,"Ġasiat":13375,"ulette":13376,"Ġanstren":13377,"Ġexistiert":13378,"Musik":13379,"andal":13380,"ĠSpieltag":13381,"Ġkommerz":13382,"ĠSchicht":13383,"Ã¤uschen":13384,"eidigen":13385,"Tour":13386,"Ġhinterher":13387,"ĠWeile":13388,"ĠVER":13389,";;;;;;;;;;;;;;;;":13390,"ĠSingleb":13391,"Ġdram":13392,"ĠBakterien":13393,"ĠKontaktaufnahme":13394,"ĠImmobilie":13395,"ĠGn":13396,"ĠRÃ¤umen":13397,"Ġenglischen":13398,"eifen":13399,"vorschlag":13400,"Ġgeschlagen":13401,"Ġkreative":13402,"schef":13403,"Ġdankbar":13404,"besuch":13405,"ĠTuch":13406,"Ġaufw":13407,"plÃ¤tzen":13408,"dlichen":13409,"abletten":13410,"ĠkÃ¼che":13411,"ĠSeitensprung":13412,"Ġmerkt":13413,"Ġzugreifen":13414,"ĠRasen":13415,"Ġ1945":13416,"ĠRubr":13417,"rise":13418,"ĠEinmal":13419,"Ġrenov":13420,"ĠDusch":13421,"steckt":13422,"Ġdaraufhin":13423,"ĠCover":13424,"ĠHeck":13425,"Ġliebevoll":13426,"ĠRam":13427,"Ġelf":13428,"verbot":13429,"ĠJames":13430,"Ġanfallen":13431,"ĠGelt":13432,"sentwicklung":13433,"Ġflei":13434,"ĠManche":13435,"ĠGefÃ¤hr":13436,"ĠMusic":13437,"ĠMur":13438,"liegt":13439,"Ġverleiht":13440,"Ġbelast":13441,"ĠArmb":13442,"lehre":13443,"Ġausgesetzt":13444,"Ġ1993":13445,"ĠÃĸffnungszeiten":13446,"undet":13447,"ĠKonsum":13448,"dro":13449,"echslung":13450,"ĠAufenthalts":13451,"ĠKob":13452,"seller":13453,"ĠKletter":13454,"ĠUmkehr":13455,"ĠMw":13456,"Ġzuzu":13457,"Ġsolle":13458,"ĠVertrÃ¤ge":13459,"Bi":13460,"Ġeinzigartig":13461,"isation":13462,"Ġbehauptet":13463,"isburg":13464,"spuren":13465,"Ġerfahrenen":13466,"Ġunbesch":13467,"ĠSanierung":13468,"ĠHumor":13469,"Ġfreiwillig":13470,"ĠAccessoires":13471,"Ġteilte":13472,"wandel":13473,"ĠEC":13474,"ĠBegeisterung":13475,"Ġblock":13476,"Ġverhei":13477,"ives":13478,"Ġgemessen":13479,"studio":13480,"ĠVermittlung":13481,"ĠBluetooth":13482,"ĠFraktion":13483,"Ġkan":13484,"ĠInvestoren":13485,"ĠZinsen":13486,"ĠGesichts":13487,"ĠAbsch":13488,"ĠgehÃ¶rte":13489,"ĠWork":13490,"ĠMessen":13491,"omo":13492,"ĠKohle":13493,"ĠSchuljahr":13494,"dner":13495,"ĠKompetenzen":13496,"Google":13497,"vermÃ¶gen":13498,"Ġ57":13499,"Ġblu":13500,"ielefeld":13501,"ĠVolumen":13502,"Ġumsetzen":13503,"ĠMale":13504,"coin":13505,"ĠSteiger":13506,"geist":13507,"Ġeindrucks":13508,"ĠhÃ¶rte":13509,"Ġbesetzt":13510,"Bel":13511,"Ġneutr":13512,"Christ":13513,"Ġ1992":13514,"ĠLou":13515,"ĠTempel":13516,"ĠMillion":13517,"Ġerl":13518,"ĠDeckel":13519,"ĠHass":13520,"Ġrief":13521,"empfeh":13522,"Ġvertrag":13523,"Ġmore":13524,"Ġklaren":13525,"Ġeingegangen":13526,"Ġsilber":13527,"Ġsteuern":13528,"ĠDienstleistung":13529,"Ġ96":13530,"Ðº":13531,"ason":13532,"ĠLetz":13533,"ĠInternationalen":13534,"GVO":13535,"praxis":13536,"zburg":13537,"ĠKetten":13538,"ĠWeitergabe":13539,"seud":13540,"geordnet":13541,"Ġeigentlichen":13542,"ĠwÃ¼nscht":13543,"ĠÃ¼berlassen":13544,"ĠCall":13545,"ĠVorschlÃ¤ge":13546,"braun":13547,"nee":13548,"issionen":13549,"ĠAufklÃ¤rung":13550,"amts":13551,"eingang":13552,"glanz":13553,"ĠVorbild":13554,"pper":13555,"ĠFinn":13556,"ĠMilf":13557,"Hrsg":13558,"Ġneugier":13559,"ĠSofa":13560,"ĠTransparenz":13561,"Ġhiermit":13562,"ĠBegriffe":13563,"ĠendgÃ¼ltig":13564,"ĠMachen":13565,"Ġgesonder":13566,"urity":13567,"ĠMeldung":13568,"Ġ63":13569,"ĠzukÃ¼nftig":13570,"ĠBruch":13571,"ĠFrÃ¼chte":13572,"Ġheisst":13573,"Ġlangweilig":13574,"Ġzwe":13575,"ĠZir":13576,"Werk":13577,"athl":13578,"Ã¤rtner":13579,"ĠgÃ¼ltig":13580,"Ġphil":13581,"Ġeinander":13582,"ĠKonzepte":13583,"bereitet":13584,"ĠDeswegen":13585,"ĠStd":13586,"ĠDarmstadt":13587,"cts":13588,"anzer":13589,"mach":13590,"Ġkompletten":13591,"ĠLay":13592,"ĠTast":13593,"ierst":13594,"Fi":13595,"ĠKommunen":13596,"handels":13597,"ĠEL":13598,"To":13599,"uni":13600,"Ġbelegen":13601,"derte":13602,"ĠOld":13603,"geschn":13604,"ĠLÃ¤rm":13605,"ĠEinleitung":13606,"hilfen":13607,"ĠStore":13608,"ĠFR":13609,"Ġbritischen":13610,"ommern":13611,"ameter":13612,"ĠUngarn":13613,"Ġhilfe":13614,"Ġanhalten":13615,"regen":13616,"ĠSilv":13617,"ĠStadion":13618,"ated":13619,"Ġzumal":13620,"ĠLenk":13621,"Ġcharakter":13622,"ratze":13623,"Ġsympath":13624,"ĠJacke":13625,"weif":13626,"Ġverzichtet":13627,"Ġregistriert":13628,"ziehbar":13629,"Ġgebeten":13630,"ĠBraunsch":13631,"ĠSchad":13632,"ĠSchrauben":13633,"ĠSchwein":13634,"ĠKomplett":13635,"QualitÃ¤t":13636,"ĠGutes":13637,"Partner":13638,"ĠPromo":13639,"oden":13640,"ĠnÃ¼tz":13641,"Ã¤her":13642,"schon":13643,"ĠHut":13644,"ĠgewÃ¤hrt":13645,"Ġangemeldet":13646,"ae":13647,"Ġfamil":13648,"Ġ0180":13649,"brÃ¼cke":13650,"ĠFlasche":13651,"ĠHorn":13652,"ĠDist":13653,"Ġkochen":13654,"ĠTrock":13655,"Ġgelangt":13656,"yll":13657,"ĠDieter":13658,"Ġeinwand":13659,"ĠÃľbungs":13660,"ĠzufÃ¤llig":13661,"Ġstarb":13662,"Ã¤ltigen":13663,"ĠImage":13664,"ylon":13665,"Ġverschwunden":13666,"ĠEisenbahn":13667,"Ġtiefen":13668,"Ġtrainieren":13669,"ĠfÃĥ":13670,"ĠStufen":13671,"ped":13672,"ĠMisch":13673,"ĠLuxem":13674,"ĠUmbau":13675,"ĠThÃ¼ringen":13676,"ĠgelÃ¶st":13677,"Ġgestattet":13678,"OB":13679,"ĠKassel":13680,"eif":13681,"ĠErsatzteile":13682,"Ġspontan":13683,"itat":13684,"Ġaufweisen":13685,"Herr":13686,"ĠBB":13687,"ĠberÃ¼hrt":13688,"ĠBlitz":13689,"ĠBestehen":13690,"Ġfeste":13691,"ĠInhaber":13692,"Ã¤udes":13693,"ingern":13694,"ELL":13695,"ĠKissen":13696,"schloss":13697,"Ġgesunden":13698,"ĠFrisch":13699,"ĠÃľberleben":13700,"Ġganzheit":13701,"wies":13702,"ĠLieben":13703,"ĠNachteile":13704,"ĠModel":13705,"nÃ¼tz":13706,"Ġgespeicher":13707,"ĠCE":13708,"bezogene":13709,"aks":13710,"ĠHonig":13711,"ĠBeamten":13712,"motor":13713,"sproblem":13714,"Ġexakt":13715,"ysteme":13716,"ĠTool":13717,"ĠInterpret":13718,"giene":13719,"ĠVerbreitung":13720,"ĠDay":13721,"Ġwunderbare":13722,"Ġlustig":13723,"ĠÃ¤rzt":13724,"ĠInspiration":13725,"400":13726,"Ã¼nktlich":13727,"mi":13728,"ĠPV":13729,"ĠRitter":13730,"Ġbachelor":13731,"effizienz":13732,"Ġgestiegen":13733,"ĠBÃ¼chern":13734,"diger":13735,"alem":13736,"ĠBeu":13737,"Ġ98":13738,"ĠHighlights":13739,"Ġstehenden":13740,"ĠZehn":13741,"dt":13742,"ĠAsp":13743,"Ġarg":13744,"Ġ//":13745,"Ġgeeignete":13746,"pir":13747,"Ġhaut":13748,"ĠkÃ¼ndig":13749,"vorgang":13750,"ĠBuches":13751,"online":13752,"OW":13753,"ĠAP":13754,"ĠSpeed":13755,"Ġinnovativen":13756,"Ġeigentliche":13757,"ĠNationen":13758,"Ġinvestiert":13759,"arbon":13760,"ĠSchokolade":13761,"denz":13762,"ĠâĢĺ":13763,"Ġbunt":13764,"Ġermitteln":13765,"lover":13766,"Ġparallel":13767,"tisches":13768,"Ġkunst":13769,"utschen":13770,"ĠklÃ¤ren":13771,"ĠQuartal":13772,"ĠLÃ¶sungs":13773,"phen":13774,"ĠMaler":13775,"ĠPolyester":13776,"Ġschwed":13777,"ĠvielfÃ¤ltig":13778,"KK":13779,"familie":13780,"Ġkraft":13781,"ĠMeck":13782,"Ã¶ÃŁt":13783,"ĠTechnische":13784,"bÃ¶rse":13785,"ologischer":13786,"ĠLÃ¤cheln":13787,"ĠVic":13788,"Ġdunklen":13789,"eigert":13790,"faser":13791,"ĠDiet":13792,"ĠAngehÃ¶rigen":13793,"ĠMeg":13794,"Ġenge":13795,"ello":13796,"ĠVerteidigung":13797,"Bus":13798,"fotos":13799,"ifik":13800,"ĠvollstÃ¤ndige":13801,"Autor":13802,"ĠMei":13803,"ĠNotebook":13804,"Ġcan":13805,"ĠChampions":13806,"ĠAspekt":13807,"ĠAx":13808,"ĠZerst":13809,"rian":13810,"sehr":13811,"ĠhÃ¤ufigsten":13812,"ĠQue":13813,"Ġvorkommen":13814,"eho":13815,"Klasse":13816,"Ġgesperrt":13817,"pil":13818,"ĠbÃ¼rger":13819,"Ġirgendwelche":13820,"methode":13821,"ĠMuseums":13822,"Ġkulin":13823,"Ġpraxis":13824,"Ġikea":13825,"ogramm":13826,"ĠKomplex":13827,"ĠSchriftsteller":13828,"ĠHeidelberg":13829,"Ġ125":13830,"Ġniedrig":13831,"ĠGeschirr":13832,"âĢ¦âĢ¦":13833,"Ġblieben":13834,"Ġexistieren":13835,"Ġmulti":13836,"ĠRoute":13837,"Ġaufgehoben":13838,"ĠZellen":13839,"ĠDebatte":13840,"ĠTypen":13841,"flekti":13842,"cal":13843,"Ġverstehe":13844,"omb":13845,"ĠInsekten":13846,"ĠFachbereich":13847,"ĠWikipedia":13848,"ĠKonfigur":13849,"ĠfrÃ¶h":13850,"schall":13851,"wiegen":13852,"otheke":13853,"Gerade":13854,"Ġletztendlich":13855,"Ġdez":13856,"ĠBody":13857,"ĠWiesen":13858,"ĠDefinition":13859,"zeitigen":13860,"ĠUnis":13861,"ault":13862,"cktail":13863,"ĠBehinderung":13864,"astur":13865,"Ġgesorgt":13866,"ĠBetriebe":13867,"kin":13868,"ĠTouch":13869,"ĠBA":13870,"ĠfranzÃ¶sische":13871,"ĠOrigin":13872,"ĠCSU":13873,"Ġ1989":13874,"ĠAlltags":13875,"ĠUlrich":13876,"ĠregelmÃ¤ÃŁigen":13877,"Ġpoln":13878,"ll":13879,"imeter":13880,"Ġbestehend":13881,"ĠBreit":13882,"hofer":13883,"software":13884,"Ġbegegnen":13885,"ĠFakult":13886,"ĠWann":13887,"ĠCup":13888,"Ġwin":13889,"ui":13890,"cor":13891,"ĠFlÃ¼gel":13892,"gelte":13893,"ĠIran":13894,"ĠWettkampf":13895,"ĠPriester":13896,"kab":13897,"lef":13898,"ĠschÃ¤d":13899,"spunkte":13900,"ĠFlaschen":13901,"Ġaufgerufen":13902,"Ġswinger":13903,"Druck":13904,"ĠNackte":13905,"ĠDiÃ¤t":13906,"hochschule":13907,"Ġwolle":13908,"Ġunivers":13909,"Holstein":13910,"Ġaktualisiert":13911,"ĠHeinz":13912,"aunen":13913,"ĠOrdner":13914,"ĠNotwendigkeit":13915,"assten":13916,"ĠLaune":13917,"ĠZigar":13918,"Aufgrund":13919,"Ġentspannen":13920,"ĠKonsequenzen":13921,"Ã¤rzte":13922,"ĠAnpassung":13923,"ĠKreditkarte":13924,"Ġgezwungen":13925,"ĠSzenen":13926,"gÃ¤rten":13927,"riss":13928,"Ġhy":13929,"Ã¤nderungen":13930,"Ġgeplante":13931,"ĠSpa":13932,"beziehung":13933,"ĠWeber":13934,"fertigung":13935,"Ġstartete":13936,"ĠLÃ¶cher":13937,"interest":13938,"MI":13939,"ĠKonzentration":13940,"assend":13941,"ĠDiam":13942,"kter":13943,"ĠVereinigten":13944,"Ġaufbauen":13945,"Ġdurchschnittlich":13946,"Ġangewiesen":13947,"ĠWerkzeuge":13948,"ĠErziehung":13949,"Ġnachts":13950,"Typ":13951,"klein":13952,"ĠbemÃ¼ht":13953,"ĠLight":13954,"ĠSimon":13955,"ĠZeugen":13956,"Ġbrauchst":13957,"ĠBerufung":13958,"cer":13959,"iener":13960,"ĠBerechnung":13961,"Ġmerken":13962,"ĠSied":13963,"ĠMobilfunk":13964,"Bran":13965,"Ã¤tzchen":13966,"ĠkÃ¼rz":13967,"ĠStaatsanwaltschaft":13968,"Ġschwach":13969,"ĠregelmÃ¤ÃŁige":13970,"ĠBy":13971,"ikes":13972,"Ġwiederholt":13973,"Ġbeschleun":13974,"aw":13975,"ĠAkten":13976,"ĠUrlau":13977,"Ġtour":13978,"ĠZielgruppe":13979,"ĠWiesbaden":13980,"Ġrealisiert":13981,"Ġprobieren":13982,"ethe":13983,"amtes":13984,"ĠSachver":13985,"ĠBehÃ¶rde":13986,"Ġrestlichen":13987,"ĠSeen":13988,"ĠMitgliedschaft":13989,"aaten":13990,"ĠDev":13991,"ĠMA":13992,"Ġbeauft":13993,"ĠData":13994,"ĠTransa":13995,"ĠGebraucht":13996,"Ġstattdessen":13997,"verkehrs":13998,"videos":13999,"ĠWirbel":14000,"ĠSegel":14001,"Ġbemerkt":14002,"ĠDesktop":14003,"ĠCann":14004,"ĠAsien":14005,"Vol":14006,"obs":14007,"ĠDemonstr":14008,"ĠlÃ¤ngeren":14009,"ĠSicherung":14010,"vorschriften":14011,"manager":14012,"streifen":14013,"iets":14014,"ĠProfis":14015,"ĠkostengÃ¼nst":14016,"Ġregistrieren":14017,"Pfalz":14018,"folie":14019,"TP":14020,"ĠLande":14021,"Ġmerk":14022,"Ã¼llt":14023,"ĠUniversity":14024,"ĠFranzÃ¶sisch":14025,"auschal":14026,"Ġposition":14027,"ĠCount":14028,"ĠGewissen":14029,"ĠNat":14030,"Besonders":14031,"Ġamerikanische":14032,"Ġglobalen":14033,"Ġbetreffenden":14034,"ĠTurm":14035,"ĠUfer":14036,"ĠBienen":14037,"ĠVertrages":14038,
[...]
