#version: 0.2
e n
e r
c h
Ġ d
e i
u n
i e
s t
i n
a n
Ġ s
i ch
ei n
e s
a u
Ġ S
Ġ un
Ã ¼
Ġ w
o n
g e
a l
t e
Ã ¤
Ġun d
Ġ m
un g
Ġd ie
s ch
a r
i t
Ġ v
a s
Ġ ein
Ġ b
e l
o r
Ġd er
Ġ A
a t
Ġ D
Ġ B
Ġ z
Ġ i
Ġ n
h r
t en
Ġ au
u r
g en
d er
e m
Ġ M
Ġ f
Ġ h
Ġ in
t er
Ġ E
d en
Ġ F
Ġ K
e t
Ġ k
Ã ¶
Ġ G
Ġ W
Ġ P
Ġz u
l ich
t i
a b
i r
o l
a ch
l e
Ġ g
a m
Ã¼ r
d e
Ġ T
Ġ H
Ġ I
ei t
c k
Ġd as
Ġ V
b er
i er
Ġ ge
Ġ R
Ġ L
Ġd en
Ġm it
r o
i s
Ġ er
i l
ich t
Ġ an
u s
r e
o m
â Ģ
Ġv on
Ġi st
i g
Ġau f
u t
u m
r a
s en
e h
Ã Ł
Ġ al
i sch
an d
Ġf Ã¼r
Ġv er
Ġ N
s e
an n
Ġ o
r ei
Ġi m
Ġ l
b en
l en
en t
Ġ 1
Ġ Z
Ġ U
f t
i on
n en
Ġs ich
Ġn icht
Ġw ir
s er
Ġb e
Ġ (
ĠS ch
Ġs ch
o ch
m en
ĠV er
Ġau s
ĠS t
Ġ 2
in d
Ġ J
Ġd es
Ġein e
Ġ p
e u
f f
a hr
k t
Ġ C
s p
Ġau ch
a g
Ġ es
Ġd em
ĠS ie
e hr
el l
Ġ âĢ
Ġb ei
st en
a h
ĠI n
ĠA n
ung en
ie l
Ã¤ n
Ã¼ ber
u ch
Ġs o
Ġ ab
in g
Ġ st
. .
Ġ j
Ġ t
ei ch
ĠD ie
Ġw er
v er
Ġ O
i en
i k
er n
et z
Ġw ie
Ġo der
Ġ ich
es ch
Ġ Ã¼ber
Ġal s
w ei
Ã¶ n
un d
Ġwer den
ung s
at ion
b e
m er
Ġh at
o t
Ġs ind
en n
h n
o s
u f
Ġh ab
0 0
ĠE r
or t
Ġs ein
i m
Ġv or
ti g
ĠU n
ol l
Ġs ie
Ġ um
ĠE in
ĠS p
e st
ur ch
Ġn ach
ch en
Ġ -
a d
r au
ei l
isch en
u l
r i
e d
Ã¼ n
Ġdas s
Ã¤ t
h al
g er
h e
en d
l a
o p
au s
Ġwir d
Ġi hr
e g
an z
Ġw ar
w er
k ti
ĠP ro
Ġein en
e ch
an g
au f
al l
0 1
te l
ter n
Ġein er
ein e
sch a
te t
g t
Ġzu m
r u
l er
Ġk ann
Ġm an
Ã¼ ck
i ck
Ġz ur
Ġd a
Ġk Ã¶n
z en
âĢ ľ
Ġein em
Ã¶ r
z u
ĠA r
ei ter
p p
Ġ ent
Ġd urch
Ġn och
r ie
Ġ am
r Ã¤
i v
st e
n er
lich en
ar t
Ã¤ r
b t
i gen
or m
Ġun ter
ĠJ ahr
ĠâĢ ŀ
ge l
Ġn ur
f Ã¼
us s
ei ten
ĠG e
ier t
Ġhab en
sch l
ĠA l
Ġ r
st er
ar b
Ġab er
o g
an k
p f
h l
isch e
D ie
ĠI hr
at en
ge b
sch en
ĠA us
Ġs p
Ġ 3
scha ft
Ġm ehr
lich e
er s
l in
Ġun ser
st ell
ier en
ĠM it
ach t
e ben
Ġ "
es s
el t
i ge
Ġb is
Ġw ur
ĠB e
ĠkÃ¶n nen
eh en
ch e
Ġ Ã
ĠâĢ ĵ
e ut
as s
at z
ch t
g r
b l
b ar
ĠE n
der n
e x
Ã¤ l
k eit
ut z
.. .
Â Ń
h en
h er
Ġ2 01
om men
Ġan der
g l
h t
ĠD as
as sen
ĠG r
ĠB er
Ġdie s
i st
ah l
el len
h eit
l ei
Ġn eu
ĠA b
g lich
er t
Ġ re
ĠD er
f en
d u
Ġun s
il l
o k
r it
om m
o b
ĠV or
Ã¤ hr
etz t
ff en
Ġw enn
un den
ÃŁ en
an t
g es
Ġal l
Ġb er
r Ã¼
ei gen
on t
s am
m al
kti on
i c
Ġd ann
s s
al t
i z
il d
ĠA uf
e b
eh men
a p
m e
Ġk l
Ġw eiter
k en
e kt
a st
f ahr
Ġg es
Ġ 4
Ġj e
p l
w ie
f orm
b st
z e
n is
a k
Ġb es
Ġwie der
Ġ gen
ĠR e
Ġwur de
Ġs ehr
w ar
a ge
Ġd ar
ra g
n e
o d
ĠA u
p er
Ġw as
k l
Ġ 5
ĠZ u
Ġs oll
Ġh ier
i al
Ġ et
Ġsch on
i bt
f er
Ġim mer
at t
ĠW ir
Ġdie se
o hn
Ã¶ glich
Ġl ie
im m
ÃŁ e
Ġh in
ĠH er
eit s
f ach
ĠZ eit
l eich
ar k
ein en
ie le
Ġ c
Ġ1 9
Ã¼ t
l ie
a ck
Ġv iel
Ġge w
l o
h o
it Ã¤t
Ġg ro
Ġh er
t s
m it
ĠS o
Ġv om
f ol
Ġg ibt
Ġg anz
ĠE s
Ã¤ ch
el le
h nen
el d
ach en
gen d
ĠU m
el n
Ġhab e
Ġm ir
f e
sch ie
Ġs el
d em
ei te
w as
l u
ĠM a
d ig
o sten
Ġbe st
in den
sch e
Ġal le
l ung
ĠG esch
ĠG es
Ġdie ser
ĠM en
z eit
fÃ¼ hr
hn e
on der
q u
Ġz wei
Ġ a
r in
u d
ra gen
rei s
l Ã¤
ĠB ei
Ġm ich
in der
l os
or d
p t
ĠI m
Ġ Â
a gen
ti gen
hal ten
ĠD aten
ĠO r
ĠAr b
ĠÃ ľ
) .
ĠI ch
Ġge gen
ĠN ach
ation en
ĠEn t
am m
g esch
I n
ĠK l
k te
ĠD eut
ich tig
et t
Ġ le
ier ung
Ã¼ hr
v or
au t
Ġ 6
Ġge m
ÃŁ er
ĠUn ter
Ġd u
m a
ad t
b ur
on n
Ġ eigen
ck en
Ġg ut
Ġein fach
i d
ol len
Ġso wie
r an
l au
ers on
is sen
r ank
sp iel
Ġk eine
ich er
Ġ e
ĠC h
Ġm ein
al e
Ġein es
ol le
in n
rei ch
ig er
D er
ei st
Ã¼ s
Ã¶ ch
Ġg er
a te
Ġw o
it z
f or
w ick
am it
an gen
ĠP l
n et
Ġm al
at ur
g ab
Ġbe k
ĠÃľ ber
ĠB l
ti ge
ĠK on
eh t
Ġb et
n ah
ĠUn d
k e
ie len
es en
w ischen
kti v
ĠE ur
ĠW er
ĠL eben
Ġp ro
st Ã¤n
Ġg esch
at iv
un de
eu te
w e
at er
) ,
p ro
Ġo hne
in e
ĠSp iel
b au
D as
re u
w end
Ġ |
Ġs on
b r
o ff
ei m
Ġg r
ĠT h
Ġihr e
al en
Ġsel bst
ti on
Q u
Ã¶ ff
ĠL and
y st
ab ei
ĠW as
Ġbei m
a y
ge ben
z eu
Ġw en
ĠH and
s atz
a de
arb eit
Ġj ed
ar ten
i a
t eil
s o
wei se
f ten
f all
ĠR ech
Ġw el
Ġm uss
Ġdies em
ar d
e z
h a
ĠB et
Ġ2 00
ĠM ar
Ġb ie
Ġet was
Ġhat te
sp r
yst em
Ġan ge
Ã¤ h
om p
er en
Ġer st
Ġ 7
st and
d ing
z t
Ġd eut
Ġd ir
Ġander en
Ġsein e
Ġ 8
ĠF rau
tern ehmen
o w
o v
Ġ Qu
ĠS e
uch t
ĠIhr e
lin e
ĠMen schen
Ġin s
auf en
k el
ru ck
Ã¶ l
r en
Ã¤ u
te m
or en
am en
i o
Ġge l
n ung
f l
Ġ /
ver s
o st
it ion
d r
omm t
re chen
Ġd amit
ch er
ĠR ei
Ġf inden
au m
in nen
Ã¤l t
ie der
Ġo b
c e
ĠPro du
Ġg leich
hal b
schl and
ĠD u
g ang
ier te
ĠA ut
Ġge f
Ġj a
ĠI hnen
S t
Ġneu e
Ã¶ s
ich te
2 01
Ġm achen
Ġge ht
b es
o gen
stell t
an ge
ĠG er
Ġsch n
Ġ 9
Ġ1 0
bur g
Ġaus ge
o ur
u ten
Ġd och
ah n
ĠGr und
ĠJahr en
i de
ĠK inder
l t
la ge
Ġm Ã¼s
Ġ 0
Ġ &
s k
w eg
ĠB r
s st
h m
ĠT ag
mit tel
ra d
Ġj etzt
ĠT eil
in de
ĠD a
l and
ĠIn form
ol og
ei d
schie den
u st
ĠL ie
i p
fahr en
uch en
Ġk ein
ei ÃŁ
g ung
u te
z eich
es se
k eiten
s etz
s i
Ġv iele
ge m
Ġz wischen
a ar
ĠB es
z ent
ĠH o
Ġden n
ĠW eb
rie b
an der
w ir
Ġge h
ru pp
Ġall es
ĠP erson
im mer
hal t
isch er
und es
o ten
I ch
k ommen
at s
o ok
Ġw Ã¼r
b ild
Ġl assen
at Ã¼r
Ġwur den
ĠB est
Ġn un
or n
Ã¤ d
f Ã¼r
un ktion
a kt
ĠW elt
un der
el e
Ġs eit
Ġson dern
ĠSt adt
i um
as se
ĠDeut schland
lich er
k s
Ã¤ re
r icht
la gen
Ġunser e
ich ten
a il
Ã¤ m
Ġein z
Ġwar en
ĠF ahr
f te
al ten
ĠVer s
t rag
ĠM us
es sen
ĠU hr
âĢ ¦
ann t
ĠF l
z ie
ĠH aus
s el
Ġd abei
ig keit
sch utz
ĠUn ternehmen
ei g
ur z
stell ung
S ch
am t
ĠM in
ra ge
U n
ĠA m
ĠF Ã¼r
Ġ1 8
ĠM on
Ġber eits
Ġb in
Ġ eben
eu er
al itÃ¤t
ĠIn tern
ĠE x
ach e
an den
Ġdies es
p h
ien st
Ġbes onder
ĠJahr e
al d
Ġm Ã¶ch
ro t
t ur
en den
Ġander e
Ġal ler
Ġk onn
gl eich
ĠR eg
Ġsoll te
sch u
bl em
Ġer sten
ĠH au
ĠP ol
Ġge st
ĠF r
ĠGe w
Ġunser er
A n
Ġsein er
am il
00 0
in ter
Ġm Ã¶glich
Ġp er
h ol
Ġl etz
Ġ ex
t schaft
ĠM an
a c
ie s
ĠP art
Ġb esch
ĠSch w
ĠB o
rei chen
au er
Ġzur Ã¼ck
er v
ĠK ont
Ġ2 0
Ġk ommen
ei den
ei le
Ġw ill
or den
i an
un kt
Ã¤t z
sam men
ber g
Ġ ...
ind et
m in
ĠW och
E in
ĠArb eit
Ã¤n der
z w
a den
ĠmÃ¼s sen
un ter
iv e
wer t
Ġzu sammen
g ie
kt u
ĠTh em
ĠB ild
fol g
kl Ã¤r
e k
ĠÃ ĸ
m ent
p r
st ellen
w w
ier ten
z ei
i f
Ġh eute
ĠWas ser
t ag
h Ã¤lt
o hl
rau m
Ġver schieden
Ġneu en
h aus
Ã¼ l
A l
Ã¤ ÃŁ
ĠF or
ĠB au
ĠN eu
re cht
W ir
Ġ1 5
ĠkÃ¶n n
Ġd rei
b el
ent lich
ĠR o
Ġver l
Ġda zu
st r
z ahl
Ġ te
ern e
Ġals o
Ġdie sen
ĠSt ra
u ÃŁ
n it
or g
Ġver s
atÃ¼r lich
ig n
rei ben
Ã¼n st
Ġk ommt
for der
Ġbe g
Ġschn ell
s icht
Ã¤hr end
ĠGe b
is s
m an
ĠK unden
ĠW enn
ĠE l
ĠF re
en de
ĠZ us
ĠW ohn
ĠS ex
w ort
Ġihr er
ech n
ĠM ed
ĠG l
Ġf Ã¼hr
ĠP f
Ã¤ hl
Ġw eil
Ġk osten
ĠIn ter
h Ã¤n
Ġbe f
w a
k lich
Ġs ei
ĠS ti
ĠU r
am men
Ġ1 2
am p
ĠD es
ĠT e
Ġver b
ĠS te
ĠW ei
g ar
Ġein mal
ach ten
Ġsich er
il der
ĠDie se
E R
Ġm eine
y m
_ _
ei ster
Ġd e
st ag
Ġh och
uch e
r on
ĠA uch
Ġi hn
rit t
Ġst eht
h in
ĠB undes
Ġf ol
Ġsch Ã¶n
wer k
ĠEin e
Ġn ie
r at
sp rechen
h au
Ġihr en
Ġje der
i sten
ri v
Ã¼n d
t lich
st Ã¼t
m us
schl ie
ĠA ber
ĠS eite
m ann
f ern
r em
ĠIntern et
ĠG em
sch ein
ĠVer b
nah me
ĠO n
ĠL e
1 0
gr und
e ter
ge w
y p
ĠInform ationen
Ġh o
ĠW ar
ag t
b ung
ĠG en
Ġsein en
ĠEur o
z ogen
z ial
ck er
Ã¤ uf
al len
um en
ion en
ra in
imm t
Ġjed och
ĠSch u
alt ung
k er
ĠM o
ĠF il
ĠF rei
fall s
ot t
ĠG ro
ĠSch l
eu ch
ĠW ie
k un
Ġs ol
nis se
rin gen
ĠN utz
- -
en s
zu g
Ġl ang
ĠF ot
p ti
âĢľ ,
ch n
Ġv oll
ĠAr t
a z
en z
k ehr
ei tet
Ġb lei
w eit
ĠJ u
Ġge b
ĠR Ã¼ck
ck e
ĠL u
Ġ en
Ġall em
Ġre cht
le gen
ĠM ann
V er
a f
Ã¤ ft
ĠD e
ĠD urch
M it
Ġd ort
ĠwÃ¼r de
Ġbie tet
stÃ¤n d
j ekt
ĠF all
gab e
p rÃ¤
schl uss
lu g
f ang
ĠN e
ĠB uch
Ġ â
al s
i der
Ġf est
Ã¤n ger
or gen
t re
ĠK omm
Ġein ge
Ġ em
f rei
Ġb en
Ġwel che
eit ung
f Ã¤l
enn t
ri ff
ti er
ĠH ier
ic e
Ġg ar
in gen
ĠÃ Ħ
it te
v on
ĠF amil
gr amm
Ġf rei
k on
al is
1 1
Ġb zw
Ġk on
w or
Ġ eh
Ġin ter
Ġk om
f ort
ation s
ĠL in
Ã¶r t
o te
Ġm acht
Ġal len
ĠM Ã¶glich
ĠBer eich
an st
ĠPro blem
arb eiten
or f
Ġs ehen
Ġi hm
rie ben
Ġb el
ck t
u er
i pp
Ġa ktu
en k
ĠB eg
Ġst ehen
kun ft
ĠAn geb
Ġwir klich
ĠS on
ĠD r
ĠLeben s
Ġb r
c o
Ġbes ser
tig t
schie d
el s
ti ert
ra f
gab en
ĠF orm
ĠBer lin
ra ft
il fe
ĠEn de
ĠÂ »
ie t
Ġnicht s
I m
s eite
ĠU S
Ġb eh
in anz
wick lung
sten s
an s
Ġkonn te
as st
icher heit
h Ã¶
y s
scha ften
ĠFrau en
ding s
t t
Ã¼n f
k ten
h op
ĠAl l
ĠSch ul
ĠSt ud
f il
ĠK ar
z er
Ġer halten
on e
u g
wei l
ein er
r um
ĠSt and
Ġletz ten
n eh
un st
Ġver w
Ġ [
1 9
i te
et ten
an is
Ġ ,
k auf
Ġlie gt
Ġn atÃ¼rlich
ĠP reis
op f
ĠB esch
Ġ1 4
ĠDie s
ei len
Ġw ichtig
Ġl eich
st off
b o
Ġgr Ã¶
ers Ã¶n
Ġ .
a v
kt ur
ro m
ĠC o
Ġ Y
Ġ201 8
1 2
ob il
Ġ1 6
Ġg erne
iel t
w ohl
Ġm us
zeu g
ei der
ĠK osten
ul tur
u ter
ĠW eiter
Ġst att
ĠArb eits
Ġda fÃ¼r
le x
ut zen
h len
Ġw ollen
ĠB Ã¼r
Ġver st
ach sen
ĠS tel
Ġ3 0
ĠO ber
E s
ti kel
g angen
Ġwo hl
ol it
ĠH och
ĠOn line
Ĥ ¬
Ġgen au
z immer
em ber
Ġn Ã¤ch
Ġgem ein
ĠS u
a pp
ĠmÃ¶ch te
ing er
Ġ on
v oll
Ġge ben
s Ã¤tz
b et
en nen
ar m
b ie
E N
Ã¼ ss
ĠP h
et ter
ĠZus ammen
ĠM al
h eim
et te
5 0
b ei
ater ial
Ġw e
lei st
ag er
p unkt
ĠEur op
r Ã¤n
ĠSt a
Ã¶r per
h and
is k
re ch
Ġsch w
Ġger ade
3 0
in o
Ã¤ ter
ri ft
ĠF ach
ell schaft
Ġw Ã¤hrend
Ġdir ekt
Ġweiter e
ĠB ed
ĠSp ort
ier e
n ehmen
Ġge t
it zen
Ġw Ã¤re
ig ung
Ġje den
ing t
Ġr und
ĠIhr er
leich t
st ra
Ġv ielen
l ig
Ġsein em
ĠK Ã¼
ah men
ver b
s ol
" ,
ĠL eist
Ġ1 7
ĠMus ik
rupp e
Ġ :
ut ter
i ff
b eh
op p
Ġden en
ĠS el
d ruck
Ġein ige
ĠW eg
ie d
ick en
Ġi r
Ġl Ã¤
Ġwen ig
ber eich
ri st
ativ e
ĠS a
ĠG eld
âĢ Ŀ
schlie ÃŁ
Ġh and
Ġh Ã¤t
Ġgro ÃŁe
Ġk urz
a ÃŁ
Ġo ft
ĠM od
lich t
ĠB eh
Ġ u
Ġ1 00
ah er
Ġunser en
m Ã¶glich
Ġbei den
ĠE ner
Ġge hen
ie f
j e
it u
ĠSt r
sch eid
Ġgro ÃŁen
i x
ar e
v en
Ġbie ten
1 8
ge stellt
ĠGem ein
er k
Ġo ffen
Ġl ange
ĠV ide
rot z
o se
Ġdar auf
s l
Ġm o
ĠS eiten
ĠGe gen
Ġbesonder s
ach te
Ã¶r der
Ġem pf
ĠMit gl
m b
ol z
i b
Ġo f
Ã¶r en
Ġf r
st adt
Ġet wa
a x
ĠHo tel
Ġb rau
uf en
ĠWoch en
I N
al er
Ġs ex
Ġeigen en
arbeit ung
S p
eh n
Ġso gar
ah len
ĠGesch Ã¤ft
f eld
Ġ Ã¶ff
Ġgro ÃŁ
ĠThem a
Ġst ell
g Ã¤n
ĠPl atz
er e
ei gt
ĠM ill
am pf
ĠF ar
2 0
Ġgem acht
E r
Ġver m
ur s
rei se
wei s
los sen
! !
Ġer ste
ol d
au ft
ing s
m ar
ein ander
S ie
Ġent sprechen
ĠT echn
Ġw issen
Ġt eil
Ã¼ b
il t
ĠAl s
Ġ1 3
olog ie
le gt
ĠC hr
ĠG o
ĠkÃ¶nn te
sch t
fÃ¼ l
Ġc a
gen den
Ġau ÃŁer
C H
j Ã¤hr
ĠI de
P ro
om mer
ĠlÃ¤ sst
ĠOr t
Ġbe sten
lau b
ĠN atur
fÃ¼hr t
ĠP ar
ge gen
i ster
le ben
Ã¼ d
ĠBei spiel
ho f
Ġ ch
Ġje weil
ab en
m Ã¤ÃŁ
w and
ĠA d
ĠR ahmen
Ġ1 1
m m
or e
ĠK n
ech t
Ġp ersÃ¶n
ĠF ol
ĠIhr en
ĠH Ã¶
on d
ĠMit tel
Ġ euch
u b
ĠK unst
Ġf rÃ¼
bild ung
am e
zie h
Ã¤ ten
arb eiter
ĠPro zent
nit t
Ġin ner
Ã ©
ĠK r
Ġunser em
war e
ĠT er
ĠEr fahr
ĠVer ein
ant wort
Ġda von
y n
nah men
ĠF ir
w ahl
ĠE m
Ġ X
ĠS icherheit
ro ffen
oll te
ich tet
Ġauf ge
Ġf ast
w elt
g lichen
i vers
ĠSp r
ĠD ienst
Â «
Ġg ute
ti eren
âĢ ŀ
ĠT ex
ank en
ff e
ĠT he
ĠJu gend
ĠRe gel
ĠZ iel
in en
Ġent wick
Ġw ei
etz en
Ġr ichtig
ĠO b
om at
Ġ5 0
Ġgemein sam
Ġw eiÃŁ
ĠAn t
Ġp l
re d
Ġf indet
ĠTe am
Ã¤ tig
Ġz ie
ur t
Ġ el
ĠA ben
Ġin d
ĠF rank
ĠA pp
Ġinter ess
ĠF rage
. âĢľ
W enn
Ġab ge
ĠS er
ti k
ĠS ystem
o ber
Ġg ilt
ei sten
ĠD ar
as e
in a
ĠM ark
Ġhin ter
ĠHau pt
ann ten
au en
an ten
Ġp aar
Ġmein er
ĠM et
z ung
Ġd ich
isch es
Ġt he
Ã¤h len
u p
ĠD i
ĠE igen
Ġv ier
Ġ rei
at h
B ei
am er
Ġir gend
.. ..
iv i
ur e
Ġz war
fÃ¼hr ung
st Ã¼ck
om e
ĠK ir
Ġ x
ĠM ehr
Ġkl eine
ĠB eit
ĠVer t
b all
Ġder en
rau en
ĠVer fÃ¼
ĠQu alitÃ¤t
ge hen
ĠSel bst
pl atz
Ġver fÃ¼
Ġihr em
Â »
re ffen
ig es
Ġher aus
b uch
j ahr
ti v
ĠBes uch
l i
ĠB ilder
al ter
u bl
ĠH in
it al
N ach
sch er
ĠF ragen
Ġer folg
Ġ2 5
bl ick
s y
ĠRech ts
d es
m Ã¶
lich es
be ding
et s
Ã¤t ze
ik er
sch w
ĠâĢ ľ
Ġ19 9
ĠS k
ĠE U
ĠAr tikel
ĠPart ner
Ġkl einen
Ġg ab
ĠH a
Ġer n
at ten
Ġon line
Ġg l
ĠF est
Ã¤ us
ĠâĢ ¦
h le
Ġ201 7
h eiten
Ġges p
und heit
i le
Ġhat ten
age ment
ĠAu ft
ur en
lich keit
Ġsch wer
ĠVer l
ĠEner gie
ĠK om
ĠP rÃ¤
ivi du
ze pt
Ã¤n dern
ech s
Ġaller dings
Ġ #
v ent
at te
Ġda ÃŁ
ĠJ un
ĠSch wei
ind ung
on s
ĠM Ã¼n
ra kti
A N
Ġsp ez
re g
Ġn ehmen
ĠM e
ĠD enn
ĠZ ahl
ar te
Ġunter stÃ¼t
1 5
ĠEin satz
ĠD och
icht s
o ck
Ġn eben
le ge
ĠV iel
ĠN ov
st ehen
Ã¤hl t
ĠW issen
ĠV ol
ann te
eh len
inde st
Ġw ahr
Ġp rÃ¤
it y
c om
Ġunter schied
Ã¤ hn
Ġt un
sp ro
f lÃ¤
a in
gen ommen
Ġsp Ã¤ter
Ã¤n d
si te
Ġ ro
b ach
ag te
Ġsoll ten
ĠGesch ichte
rÃ¼ f
ĠB el
at or
ĠF uÃŁ
rau ch
spr uch
ĠSt Ã¼ck
ĠS erv
ĠD ir
ĠR u
ĠJ e
Ġk aufen
ich tige
Ã¶ff entlich
Ġd Ã¼r
M ail
t h
ĠT r
ell er
og le
z Ã¼
ĠP er
ĠRech t
l es
rÃ¤ ge
mb H
ster reich
ĠMar kt
de ut
setz ung
est er
ĠV on
ĠK rank
mal s
ĠF er
be zogen
ĠMÃ¶glich keit
Ġw eit
o ol
Ġer klÃ¤r
ĠF unktion
ut t
A uf
ĠAngeb ot
ĠPro jekt
le b
ru ktur
la den
arb eitet
rupp en
ĠKont akt
bar en
Ġk am
a ffen
Ġbek ommen
lie ÃŁ
Ġle ben
em en
Ġver k
Ġst ark
ĠM Ã¤n
erson en
Ġeigen tlich
Ġ2 4
Ġn ah
ĠBer uf
ĠFil m
Ġi hnen
ĠP at
ĠK a
bar e
ĠP r
s f
ĠProdu kt
om it
wend ung
ation al
i ent
Ġw orden
ĠBl ick
er st
ein t
Ġs agen
ĠBet rieb
F Ã¼r
g st
m o
w ohn
1 4
Ã¤ te
ĠB Ã¼
ĠL ehr
âĢľ .
ĠT age
stell er
f on
ĠG eh
Ġin tern
ĠT ran
ri gen
ĠG mbH
Ġver t
ĠMin uten
ĠGr Ã¼n
ĠN etz
Ġau t
Ġleich t
ĠW e
Ġk einen
Ġge k
ĠVerfÃ¼ gung
den t
ol f
ess ion
/ /
1 6
Ġo pti
ar en
ar f
Ġz eigt
ĠAut o
ĠM Ã¤r
Ġwen iger
rei che
Ġst ellen
Ġz ahl
ĠSch n
ges etzt
z el
ff iz
wer b
ĠGro ÃŁ
ĠR aum
ĠVer anst
ĠhÃ¤t te
ĠK o
ĠH e
b in
ĠWir tschaft
gem ein
Ġf or
ĠW or
k ung
an ce
Ã¼ ler
ĠM ein
rei fen
icher ung
Ġsch reiben
Ġc m
Ġ qu
: //
ĠEr geb
Ġverschieden en
sch ung
l ungen
ĠH am
ĠIhr em
neh mer
stÃ¤n dig
p tion
ĠPerson en
Ã¤r en
Ġbe de
Ã¤n de
icht ung
ĠB as
s weise
ien en
ĠT ele
ĠN acht
war z
ĠVer trag
Ġm einen
ĠAu gen
ĠT est
ĠJahr es
ge ber
Ġf reu
A m
Ġzu sÃ¤tz
hÃ¤n g
st ein
ĠF rÃ¼
un k
ĠV ort
ĠRei se
bes ser
sp ort
Ġer fol
fÃ¼ hl
f r
e ten
hal te
Ġd aher
ĠAb s
m el
ĠK Ã¶rper
Ġeben falls
Ġer z
1 7
ĠWeb site
p en
in ner
Ġ201 6
ĠLand es
ĠD ann
Ġeh er
um mer
ich tigen
i tel
or ien
ĠMit arbeiter
Ġviel leicht
ĠF lug
ĠD at
ĠR ad
utz t
ĠD ank
ĠT rain
was ser
Ã¶ ÃŁe
Ġkom pl
sch eiden
Ġâ Ĥ¬
ĠK omp
ab el
schl ag
Ã¤ch st
Ã¤ um
ĠK ap
ass ung
Ã¶s ung
art ner
an te
__ __
Ġp assen
ĠNe w
ĠW ind
2 00
ĠDes ign
ch es
Ġbe w
ĠH al
ĠPro f
Ġs ollen
tre ten
Ġ end
Ġwe gen
ti f
zei tig
lÃ¤ ss
le g
wend et
ĠK ind
Ġkann st
c t
ĠA t
ĠD abei
ĠS ommer
ĠB en
onder e
ĠJ an
" .
iz in
her ap
lo se
z ess
al y
Ã ľ
ser e
Ġbest eht
lei d
Ġkosten los
Ġan geb
ĠS al
r uf
p ar
l auf
ĠSt unden
ter s
z lich
ĠR est
un t
ĠM aterial
hr en
schu le
ĠAben d
sp l
Ġgeh Ã¶rt
ie g
Ġbek annt
tem ber
ik a
re und
f in
Ġsp ielen
ĠK at
st att
ĠL i
Ġsie ht
os ition
ĠEnt wicklung
ĠIn st
ĠW ahl
Ġson st
ĠD en
ik ation
ti sch
ĠJ ul
s ehen
. "
ĠD em
gen de
la y
Ġso fort
âĢ Ļ
Ġk n
ĠWer k
Ġg ing
b esch
ĠPro gramm
ĠW ert
el fen
Ġz un
Ġt rotz
il f
ĠHer r
Ġk ont
Ġb itte
Ġblei bt
ĠN amen
. )
ĠOr g
er nen
Ġinner halb
Ġind ividu
ĠG ott
ĠO kt
ĠnÃ¤ch sten
Ġn utzen
ot or
Ġwer de
ĠS am
ur op
ik en
d ie
S o
wei sen
Ġbis her
Ġeinz el
ĠAu g
ra x
rie den
ĠC as
ĠChr ist
ĠK auf
in s
Ã¤ f
ĠG arten
w alt
Ġw under
ĠG el
te gr
t ragen
A us
Ġdar Ã¼ber
ĠF inanz
1 3
eig net
Ġbe d
sy ch
ĠGo ogle
ĠH olz
ĠB ad
ktion en
ĠLu ft
ie gel
ĠN icht
schu he
ar r
ĠWoch e
pf en
Ġjed em
Ġs agt
rit ten
Ġs agte
un kte
anz en
Ġl eider
la f
ĠBÃ¼r ger
; ;
Ġ4 0
ge f
Ġkl ar
Ġw ollte
Ġdar f
au ber
ĠT a
ĠGeschÃ¤ft s
ĠUn ivers
ĠPl an
ĠG ut
Ġdeut schen
ĠK opf
ĠmÃ¶ch ten
Ġre g
ĠD ruck
t ler
Ġ201 5
E ine
ft ware
Ġp ersonen
Ġdeut lich
c en
bes ondere
Ġre gel
ech sel
ha ft
ik an
ĠB ro
ĠProdu kte
ĠÂ §
Ġkl ein
s ystem
Ġstell t
m et
ge h
Ġganz e
Ġj em
sch nitt
Ã¤d chen
ĠGes undheit
lu b
v est
Ġer sch
it Ã¤ten
A r
Ġm eisten
ĠFamil ie
k o
Ġin form
f est
ĠgrÃ¶ ÃŁ
r Ã¼ck
ĠZ um
au r
ĠG ed
Ġf unktion
ch te
d ienst
it ter
l eitung
Ġ %
Ġmein em
ĠT Ã¼r
ĠJun i
ĠB and
Ġblei ben
ent r
ĠAl le
Ġ +
orn o
Ġh eiÃŁ
ges etz
2 4
ĠL es
ĠK ultur
ot s
Ġpersonen bezogen
ak te
ei en
us st
m eld
ĠZu kunft
Ã¶ hn
Ġben Ã¶
Ġsch le
ĠSch utz
p s
ĠW inter
is mus
hau pt
Ġp riv
ĠDaten schutz
ie b
o c
it er
ĠE le
Ġh Ã¶
ĠG ast
z ip
ĠFamil ien
ĠLie fer
ungs k
w Ã¼r
ĠS h
ĠMa i
ig ht
Ġan d
ĠSch Ã¼ler
ow n
rie g
ĠZ wei
a sch
Ġer war
ĠKomm un
ĠH ilfe
Ġhin aus
Ġb l
Ġte chn
ĠP riv
is e
um m
ig t
ĠOkt ober
Ġo ben
at ung
ĠSe p
Ã¤ch lich
eich en
ĠN eben
ad urch
ĠÂ «
Ġf Ã¼
st imm
Ġa ktiv
Ġges am
ĠB i
Ġje de
ĠF ern
is on
ĠFre und
Ā Ā
ĠN ieder
Ġver d
ĠEl tern
ot he
ges amt
ĠA k
Ġk omp
ĠEr folg
um ent
m eister
stell ungen
Ġb ringen
ĠNutz ung
in ge
Ġk ennen
Ġgegen Ã¼ber
Ã¶ t
Ġver wendet
ord nung
g riff
Ġeigen e
Ġz eigen
ĠE d
Ġpro f
zeich net
ĠNov ember
et ail
o u
Ġh ast
Ġbest imm
ĠSt art
Ġ2 2
ig in
Ġd ein
ĠMill ionen
E n
201 8
ĠHÃ¶ he
ar i
te chn
un ge
omm un
tig keit
l ungs
ĠG Ã¤
s on
sen t
en zen
Ġn ot
ĠHer z
z us
ĠSep tember
ĠVide o
ĠT our
ien ten
Ġk aum
ĠS ol
Ġ Ã¶
kl us
f rage
Ġweiter en
ĠEnt scheid
Ġ201 4
ĠN ord
an ach
eh m
ĠB us
Ġ Ã¼b
ĠL icht
r ichten
Ġverschieden e
Ġh tt
k sam
ĠAn fang
Ġh alten
- ,
ĠW ider
f el
Ġer k
u ck
ĠGes ellschaft
ĠMed ien
ativ en
Ġg uten
du z
ĠIn f
ĠC ook
zie hen
Ġer w
ĠS uche
. ,
um s
Ġ2 1
ĠfÃ¼hr en
ww w
Ġg Ã¼nst
ĠEin zel
z uf
8 0
rax is
w ill
ĠR es
Ġh elfen
rit te
Ġw elt
ĠMa ÃŁ
ab l
Ġs uchen
h ein
setz en
Ġh al
Ġh Ã¤uf
ĠK Ã¶n
Ġi de
ĠPol iz
st elle
ĠPol it
Ġer forder
Ġf Ã¼nf
ĠL auf
wir tschaft
ĠEr n
bie ter
h ab
ĠAus wahl
Ġn e
ĠBo den
ĠGl Ã¼ck
ĠH eim
ent lichen
dr Ã¼ck
ĠT em
S T
d orf
V or
ĠReg ion
iel l
os it
ul t
ist or
Ġso zial
ĠH inter
W ie
p ort
ge st
eh ler
ber t
rad ition
Ġab sol
ĠN Ã¤
Ġw eg
klÃ¤r ung
ahr en
mÃ¤ÃŁ ig
ĠB ar
au sch
ĠIn nen
Ġer f
we gen
it ze
ï ¿
ĠVer arbeitung
Ġher vor
rÃ¤ gt
ĠM ag
ĠBeit rag
ï¿ ½
s a
ĠMÃ¤r z
2 5
l ang
an de
y l
ĠAn d
ĠB ay
Ġun ver
Ġer hÃ¤lt
Ġs u
un sch
on nen
or gt
Ġdes sen
ĠThem en
og raf
sch ul
ĠG est
ĠP ark
B er
gesch lossen
ig it
Ġkonn ten
r ich
ĠT ier
Ġbe vor
Ġum f
ti sche
iel le
ĠK raft
i ver
Ã¼n dig
Ġ ar
Ġvor h
ĠServ ice
k r
pf er
ĠF Ã¼hr
ĠSte uer
Ã¶ sen
mar kt
Ġer fahren
ĠA pr
ĠUS A
as en
ĠKl ein
6 0
org anis
ten s
ate g
Ġso wohl
on en
Ġber eit
ĠD ez
Ġf l
ĠH ei
s ver
ĠJul i
ubl ik
w issen
I T
n ach
u ar
red it
Ġh ei
eb ook
Ġ ru
flÃ¤ che
ĠZ we
f Ã¤h
Ġt Ã¤
ĠJ o
dr esse
Ġ *
ĠCh ar
richt ung
op h
W as
Ġn orm
Ġ arbeiten
ĠM ont
ĠF ac
au b
j a
wei ter
Ġs omit
w ehr
ĠfÃ¼hr t
and lung
im men
U m
m art
Ġl esen
t ra
Ġmehr ere
ier ungs
Ġ6 0
im a
au ch
ei er
l esen
ak ter
Ġbei spiel
ĠT agen
ĠAug ust
ĠE is
eich er
Ġander s
stra ÃŁe
ĠWei se
schlieÃŁ lich
Ġp olit
Ġhand elt
Ġge geben
te st
Ġlie gen
Ġdar an
. :
2 2
ĠTag es
forder ungen
Un d
Ġd eine
ĠD is
ĠP ost
ĠA c
Ġ2 3
Ġr ein
W er
h ei
an geb
A R
Ġl in
Al s
Ġl Ã¤nger
Ġz eit
-- --
pp en
fÃ¼hr er
u tet
l ass
ack en
sp iele
Ġp ass
ĠL age
al ien
ĠC omp
ĠSo zial
ĠZ immer
b ahn
a un
os sen
sch rift
fahr t
Ġg lau
Ġ201 3
ĠgrÃ¶ ÃŁer
ĠD ach
mit t
Ġ '
ĠS itz
Ġerfol gt
ĠVer gleich
Ã¶ nen
k reis
ĠSpiel er
Ġm m
in ne
ĠP ap
ĠGen er
ĠEr w
per atur
f allen
ig keiten
Ġsch l
ĠT ur
Ġdes halb
ĠEle kt
Ã¤n ge
ĠK in
4 0
och en
Ġent scheiden
iel len
lie gen
Ġgef unden
Ġm ag
ick t
ĠD amen
Ġbet roffen
eh l
Ġst and
Ã¤l lt
al le
d aten
Ġaut omat
gel n
geb ung
onn tag
ĠhÃ¶ her
ĠS Ã¼d
A uch
ĠF euer
ĠA uss
ĠM utter
Ġmus ste
ĠSch m
Ġsol che
h under
al tet
wert ung
ĠheiÃŁ t
sp h
Ã ĥ
rei cht
n ov
Ġins besondere
ĠG ar
Ġjed es
g n
h ilfe
ge t
la st
Ã¼nst ler
ĠD amit
h em
ĠI st
ft ung
f ft
ĠT ra
ĠMÃ¤n ner
A T
ĠApr il
hr e
Ġbe gr
ĠUnter stÃ¼t
ab il
rit er
ĠH aut
Ġver sch
Ġal ten
ĠS il
ĠMÃ¼n chen
k a
g ien
ungs ver
ĠM il
ĠdÃ¼r fen
at is
pl an
ma sch
z eiten
it ten
Ġw es
Ġges etz
tig ung
teil ung
Ġk m
Ġmit tel
Ġm eist
Ġt o
ie ÃŁen
w Ã¤r
Ġfreu en
ĠSp aÃŁ
Ġt ats
ĠEurop a
s ei
ĠAr ch
ir t
ÃŁer dem
t rem
z ig
min ister
ĠW ein
rei bt
Ġauf grund
ĠW ahr
m obil
p e
ĠWei hn
' s
Ġs ucht
Ġhoch wer
ĠLie be
ĠFot o
ab e
om ent
ĠSt re
Ġ Ã¤hn
Die se
iv en
ĠÃĸ sterreich
Ġganz en
ĠL eute
Ġzwei ten
ĠJan uar
ĠGes etz
Ġp rakti
ĠV oll
Ġd am
b ank
k ont
p reis
O N
o o
rei ber
beh Ã¶r
ĠEr k
Ġnot wend
r oll
ĠUr laub
ĠZ ur
ĠP ort
f urt
Ã¼hr en
wie sen
Ġh Ã¶ch
is se
E L
w agen
ĠBe weg
ĠS ing
os s
D a
ĠT op
Ġer reichen
ĠGe bur
teil t
A b
ĠprÃ¤ sen
ne te
r acht
ra gt
ĠN ur
sp ann
pro du
je kte
ĠC ar
Ã¶ffentlich t
ĠI I
k osten
Ġm Ã¶
il den
Ġbeispiel sweise
ch ten
Ã¶ st
ĠM Ã¤dchen
Ġjem and
ĠL ei
ĠPf lege
ĠMen sch
ĠBest ell
ĠS en
m ehr
ĠÃ¼ber haupt
B e
ĠH el
or ie
Ġvorh anden
ion s
ĠK ur
ĠOrg anis
E S
ĠVer antwort
sp e
Ġ201 2
Ġwel ches
ĠHau se
Ġver gangen
a ktiv
ĠD on
Ã¤uf er
f ekt
ĠA G
ĠGr Ã¶ÃŁe
ĠN ot
ĠDez ember
ab hÃ¤ng
ĠIn d
Ġw ww
ĠKomm ent
ĠW ien
ĠHer ren
ĠM otor
tig er
Ã¤t zen
Ġintern ation
rÃ¼f ung
hÃ¤lt nis
g ruppe
ĠD ort
ĠSch laf
Ġs etzen
c a
l ing
Ġbef indet
rei b
ĠVer kehr
Ġun be
ĠDeut schen
ĠIn s
ĠPoliz ei
l assen
herap ie
z te
m ed
st a
ĠH eil
ie w
f rist
m od
h ang
ĠM ich
ĠGes amt
ĠStel le
ĠProblem e
ĠMitgl ied
ist r
Ġerfolg reich
ĠT or
d i
Ġgel ten
Ġgew esen
lieÃŁ lich
ĠW and
te te
o x
Ġeben so
ĠfrÃ¼ her
Ġk ur
re ten
opp el
ver stÃ¤nd
ĠAuft rag
ĠTex t
Ġjeweil s
Ġ2 7
ri ften
inde stens
ĠDie ser
Ġaktu ellen
m lich
Ġver z
Ġf inde
ĠS c
ĠS an
bar keit
be d
Ġel ekt
A S
ĠFot os
inn t
ĠSo ftware
g liche
ĠCook ies
am ent
ĠEx per
ĠErfahr ung
ĠR olle
Ġent st
Ġentwick elt
ĠC on
de ck
Ġvor her
E D
eh e
Ġander em
rÃ¤ um
Ġ rau
ĠR at
an ger
Ġk Ã¼
sicht lich
Ġmo dern
ĠEm pf
Ġent fern
sen d
ĠBl og
itu ation
Ġm ed
Ġge d
ĠW ett
ĠG ruppe
ĠSt rom
em in
Ġverw enden
Ã¤u de
ĠW el
ĠMitgl ieder
Ġ2 8
ĠM u
ĠMÃ¶glich keiten
ĠF eb
er r
Ġer hÃ¶
ĠP au
ĠT itel
ĠUm welt
du st
rei ten
R e
Ġgew orden
ĠO l
Ġgr und
ĠIn halte
Ġd ank
ei ger
ĠHam burg
iz iert
meld ung
weg s
ĠSon nen
ĠSchu le
ĠGÃ¤ ste
ck s
ĠW ald
Ã¤nder t
k ungen
zei gt
rÃ¤ ger
ĠAl t
aur ant
Ġet c
ĠP o
ken nen
ĠT ipp
ĠF Ã¶rder
ĠK olle
mittel n
U N
ĠR om
ĠP ass
ĠÃĸ ff
v e
ĠB ahn
Ġbest ehen
it i
ĠS eit
ez ial
y r
Ġ8 0
ĠS onntag
ĠB ank
p el
Ã¶s ungen
a ir
zeu gen
ĠErgeb nis
ĠFrÃ¼ h
hal ts
ĠR ichtung
sch au
ĠEr st
all o
ĠGes prÃ¤
v olle
n ungs
rei sen
Ġ2 6
ĠF e
ð Ł
ĠJahr hunder
Ġein igen
ĠK il
ĠN r
Ġsu per
ĠFl Ã¼
ĠE ing
st ieg
s ie
ĠB aum
lo sen
eit ag
rei bung
lin gen
ĠD isk
an lage
ar ch
ĠwÃ¼r den
f ter
Ġ ur
ĠMod ell
ĠBer g
ĠhÃ¤uf ig
9 9
Ġbr ingt
Ġbel ieb
s es
k ur
pf lich
ĠS or
ĠL og
Ã¤ ischen
& #
Ġbe ste
ĠW ort
Ġall ein
zieh ung
Z u
ĠFac ebook
ĠT o
Ġw Ã¼n
Ġp osit
ĠS mart
ĠB al
Ġdeut sche
w ser
4 5
u e
Ġges ehen
ro p
zent r
O R
Ġb em
own lo
sam m
ĠIde en
st at
s uch
ĠSp iele
â Ĥ¬
Ġan ges
halt ung
ĠFar be
ru ar
ĠH aar
ohn t
ĠInter esse
Ġ ak
p rÃ¼
et ing
Ġmit tler
wor ten
Ġwar um
Ġf and
Ġ us
v ol
Ġbede utet
w esen
ĠK reis
ĠE ben
Ġver besser
Ġan zu
re ut
Ġw ider
ĠNÃ¤ he
Ġge eignet
Ġz w
ĠK u
ĠSchwei z
Ġopti mal
ob ei
s or
Ġpersonenbezogen en
beding ungen
ur f
ĠA ktiv
Ġneu es
em ent
s ichtig
Ġf ort
ĠG leich
ik o
Ġl os
ich ter
ĠF Ã¤l
ho w
st o
Ġzun Ã¤chst
ĠVerb indung
ĠEs sen
Ã¼ss el
w o
ĠB ur
Ġm indestens
Ġho hen
ĠK Ã¶l
ĠT re
Ġr el
ĠStand ard
Ġgeh Ã¶ren
ĠBl ut
ĠFar ben
schl Ã¤
Ġver ein
il len
ĠF ort
M an
ĠR en
I S
ĠGemein de
Ġbrau cht
ĠTele fon
Ġkl ass
se e
ĠFer ien
p or
ĠSch Ã¶n
Ġho he
fol ge
op er
Ã¼t zen
ĠStra ÃŁe
k om
wei le
Ġent halten
ĠR is
Ġ201 1
m ack
ĠVers and
ĠVer k
ul ar
Ã¼r f
ĠFeb ruar
g ern
Ã¤l ter
ĠS P
2 3
ĠUnterstÃ¼t zung
rie d
s b
Ġv Ã¶l
p ack
Ġ rie
ĠF en
ĠM er
Ġins gesamt
Ġempf ehlen
ĠS ym
ra te
ĠPriv at
ĠDies es
ĠNutz er
ĠW ieder
ĠW o
Ġsel ber
ĠSam stag
Ġgen ug
ĠP rin
Ġal t
ĠAu ÃŁerdem
ĠschÃ¶n e
ĠDa zu
Ġjeder zeit
ĠD etail
eich ert
ul l
Ġn immt
ĠÃĦ n
ĠWohn ung
ach tet
s h
Ġber ech
ĠUnivers itÃ¤t
ĠAl ler
Ġl ernen
ĠEn d
a ktion
ĠJ etzt
Ġf er
ĠLeist ung
zeu ge
Ġend lich
u ell
ser v
ĠStud ien
Ġe urop
ig ar
ĠB is
Ã¤m lich
o der
it h
am a
S G
ĠW etter
r y
ĠKÃ¼ che
geb iet
ĠB ru
Ġd adurch
Ġeinzel nen
ch mal
Ã¼s se
ĠBas is
ĠSt u
ĠAl ter
Ã¶l ker
al k
hau sen
Ġ201 0
b y
ĠKin dern
Ġ >
il le
am mer
ne ten
ĠSu per
Ã¤n dig
Ġal te
at ik
A L
Ġ19 8
ĠK urz
ĠWeb seite
ĠAut or
; &#
Ġfol genden
Ġ or
ĠT ri
z wischen
gel d
ĠK or
st re
Ġzu dem
aly se
b Ã¼r
Ġjeweil igen
Ġt reffen
7 0
ĠS hop
G e
ĠHer aus
Ã¼n de
es ser
ĠB ran
Ġer fÃ¼l
ĠSa ison
ĠS icht
ĠRe gen
leist ungen
dust rie
ĠAn ge
si dent
ĠPat ienten
Ġi s
er in
ĠPolit ik
Ġentfern t
Ġl aufen
st ru
ĠProdu ktion
Ġkompl ett
Ġ ?
Ġin dem
br acht
b and
is iert
ĠSta ats
ĠP raxis
H ier
* *
ĠR ein
ĠGl as
an e
9 0
ier ter
Ġsel ten
ĠStra ÃŁen
ownlo ad
Ġer mÃ¶glich
z ahlen
ĠT od
us e
ti l
ĠVer kauf
ĠSt ein
r olle
Ġvor bei
om en
n ess
ri fft
ek ten
reu de
Ġst Ã¤r
Ġges agt
Ġsch eint
ĠO der
re cher
d o
b ringen
hl t
Ġverb unden
ĠBeh andlung
ĠFol ge
Ġbei de
Ã¼ gen
Ġtats Ã¤chlich
o ut
G B
st all
ĠTeil nehmer
ĠR ot
b ol
sp rÃ¼
D F
u be
Ġvergangen en
ges sen
ĠÃĦ r
ĠSch ritt
eu cht
itz t
Ġs e
Ġm in
pro chen
alt ungen
ĠP eter
Ġj unge
h el
Ġs etzt
ĠR a
ĠEn gl
schlieÃŁ end
ĠB on
ĠSchu he
ĠA ma
ĠErfahr ungen
ver t
ĠAuf gaben
ĠD inge
in k
s ein
ĠCas ino
t liche
Ã¤hr t
de cken
Ġn Ã¤mlich
Ġbek ommt
ra ph
ĠP fl
ĠKrank en
Ġsp ann
ĠunterstÃ¼t zen
ist ischen
Ġnah e
ĠL a
st euer
Ġangeb oten
ver ein
ĠW est
ĠH ig
ĠO st
U S
ĠVor aus
Ġso gen
ĠDeut sch
ei sen
Ì Ī
fl uss
ĠFir men
Ã¼ ch
zent rum
ktiv e
Ġer reicht
ĠUn sere
be w
Ġz ehn
Ġaus zu
g te
Ġkl einer
ĠAu ÃŁen
ĠD ok
a el
ĠGebur t
Ġd rau
ĠerklÃ¤r t
Ġh Ã¤lt
Ġf al
O S
ĠPh il
Ġf inanz
Ġm ax
sch riften
ĠMe er
ar ian
Ġt ragen
ĠEnt wick
n ern
it ut
ĠWar en
ĠK re
Ġ9 0
ĠSti l
Ġ2 9
iss ion
ĠR eich
uch s
alis ierung
f ar
mÃ¶glich keiten
ĠB itte
bur ger
ĠunterstÃ¼t zt
ĠFir ma
ge fÃ¼hrt
ĠT isch
Ġin tegr
Ġb ist
ĠC D
sch n
ĠRest aurant
or gung
z eigen
ĠBesuch er
ĠFahr zeug
ĠAn bieter
ĠK ateg
Ġf ahren
ĠEntscheid ung
sp ar
Ġd anach
ĠFuÃŁ ball
ie ten
Ġkein er
ĠB ab
ik e
ĠUnternehmen s
uf e
Ġm on
w ind
Ġst ar
se x
deut ung
Ġbe ein
ĠvÃ¶l lig
ĠWissen schaft
el te
ĠBes onder
ĠG et
ĠK an
ĠM Ã¶
ĠBen utz
Ġbest immt
ĠSch wer
lo ck
al if
ĠGew inn
beding t
ĠR ed
ĠAus bildung
ow s
den ten
V O
ĠW unsch
s eiten
ĠG old
âĢ ĵ
it t
ĠSta at
ĠBe k
Ã¤u ft
ĠKir che
Ġlie be
Ġt oll
ĠIde e
igin al
ĠAngeb ote
ĠI t
oll ten
ĠIn vest
Ã¼t zt
ĠermÃ¶glich t
ĠStel len
Ġb ald
z ul
ĠIm mobil
Ġgleich zeitig
Ġl aut
ĠPerson al
anz Ã¶s
w och
Ġsp iel
G r
s itzen
ĠD re
reu z
ma ÃŁ
u tion
ĠAl so
zu stellen
Ġs orgen
ĠFr eitag
ok rat
ĠMon ate
rei te
ĠAn gaben
ĠC he
Ġkn app
Ġ y
Ġun ten
Ġdam als
ĠW Ã¼r
ĠSti m
w altung
ho ben
ro h
2 6
p ark
rÃ¤ fte
Ġ =
jÃ¤hr ige
s m
Ã¼nd ung
ze p
leist ung
Ġeh em
tel l
ĠVer fahren
Ġweiter hin
Ġge stellt
ĠJ ob
Ġsein es
Ġerforder lich
ĠMen ge
Ġtrotz dem
om eter
ĠT ro
Ã¼nd et
r es
ĠKÃ¶n ig
u hr
ĠK amer
Ġwer t
0 9
Ġs echs
stÃ¤n de
ĠDeut sche
ĠG ruppen
. -
ap an
ie fer
Ã¶ pf
ĠverfÃ¼ g
ho st
ĠL Ã¶sung
n ungen
vers icherung
Ã¼ck en
s eh
Ã¤ den
Ġm en
ĠG anz
ĠS and
and elt
k unden
ĠEr d
Ġ Ã¤u
as h
stimm ung
rau cher
richt ungen
verb and
ĠComp uter
lt ag
in t
ĠMon at
ĠL iter
ak e
ĠE ro
neh m
Ġwelt weit
Ġen g
l s
h ard
ĠUm gebung
Ã¼ ÃŁ
ĠE t
ĠM eter
Ġletz te
v iew
schein lich
Ġper fekt
ti schen
Ġper fe
ĠL Ã¶
on g
Ġsp ielt
pr ess
ĠT ab
ĠBer atung
ĠS atz
Ġ ech
Ġ 01
ĠS l
ĠLin k
ĠÃ¼ber n
ĠB ett
Ġ7 0
v is
w ig
ĠVer wendung
ĠF ehler
ĠMa sch
3 3
s sen
Ġw obei
Ġzie mlich
h ann
ĠzusÃ¤tz lich
Ġn Ã¤
Ã ĸ
pp e
ĠVers icher
ĠTer r
ar a
g arten
Ġder zeit
Ġg ern
f ragen
af ft
ĠFen ster
stoff e
ĠBeg inn
ĠR el
A dresse
Ġs ah
ĠN un
Ġbesch Ã¤f
Ġgen ommen
Ã¤ ss
ger icht
Ġwel cher
Ġ echt
ĠSch warz
o ver
ĠInter essen
Ġh eu
ĠK rieg
ĠS ache
Ġbe gl
ist ische
ĠR hein
ĠÃĦn der
etz ung
ĠBro wser
ĠT V
Ġmo der
Ġhtt p
Ġrecht s
Ã¤us er
an lagen
ter t
ĠP orno
In nen
Ãľ ber
ĠR und
ĠTechn ik
2 7
ĠGed anken
w en
Ġd igit
Ġ3 1
imm el
ier ungen
lei sch
ĠAl ltag
ĠI T
ig ur
ĠGe fÃ¼hl
Ġunser es
Ġ organis
ennt nis
ach st
ĠV ater
ĠStr and
zeich en
P l
ar s
ĠB all
be werb
ff er
off e
Ġzum indest
ĠBe deutung
ĠHer steller
Ġj en
s se
ĠWeihn acht
2 8
Ġander es
ĠP unkt
ĠS inne
- )
schlie ÃŁen
rau t
zahl ung
om aten
enn ung
mÃ¶ glichen
Ġer kennen
k raft
ĠLeist ungen
Ġfunktion iert
ĠD om
itz er
ĠKon z
ĠâĢ ¢
ĠIn dustrie
wer te
Ġh il
ĠI s
ĠMein ung
n a
ĠH ome
v an
la ck
d at
zeu gt
Ġh istor
am in
) :
ĠK ampf
gesch ichte
ĠAn der
Ġgesch rieben
leb nis
Ġprof ession
Ġs inn
e c
Ġr ichtige
om as
un ternehmen
g ut
leid ung
ĠpersÃ¶n lichen
d et
ei dig
Ġp h
Ġt ran
techn ik
ĠS ituation
st ruktur
an en
ĠMit te
uch te
Ġst ets
x t
Ã¼t z
ĠP reise
ĠSt Ã¤d
Ġaus schlieÃŁlich
den ken
Ġh ol
Ġsp r
Ġher r
Ġf reund
ĠIn halt
Ġru h
a ff
Ġge pl
ĠP al
ĠAb schluss
ge geben
ĠZu stand
ĠRei he
Ġo ber
rie f
Ġt h
ĠGe f
att form
ra un
t a
jÃ¤hr igen
qu em
tig es
i as
e um
Ġver gleich
ĠZusammen arbeit
ĠIhr es
Ġsch lieÃŁlich
ĠSch au
ĠA p
ul ti
olit ik
Ġl Ã¤uft
ĠkÃ¶nn ten
mitt lung
Ġbeg innt
ĠW olf
ĠN ational
k arte
ĠB ern
Ġ ðŁ
ist ik
ien ste
lin ge
ĠK Ã¼nstler
2 9
ir m
Ġverst ehen
spr icht
Ġ3 5
it en
arb eite
K l
ĠFor um
ĠBeruf s
ĠKÃ¶l n
Ġ200 9
Ġsch affen
2 1
Ġex trem
statt ung
0 5
ĠGeb Ã¤ude
ĠM art
l eiter
ĠW ander
Ġso weit
ĠS onder
ele gen
Ġzahl reiche
ĠS w
u x
Ã¤n gt
sÃ¤tz lich
ĠVol ks
Ġgro ÃŁer
Ġn atÃ¼r
am es
Ġbe ant
z ehn
Ġneu er
lie b
0 8
ĠAn ti
ĠK redit
Ġaktu ell
geb aut
ha fen
0 7
z in
Ġer he
ĠZeit punkt
âĢ¦ ]
es e
ĠAn spruch
ĠÂ ·
Â ®
ĠKa ffe
Ġaktu elle
rin k
ĠT yp
ĠSp ezial
d urch
0 6
ĠVide os
au p
Ġausge w
Ġer le
ĠMon aten
at ter
ach er
Ġan gen
ĠSpr ache
d ass
Ġein zu
Ġgem Ã¤ÃŁ
lu st
____ ____
uch ten
ĠL ang
ĠBay ern
mer zen
Ġs orgt
Ġz entr
Ġt ot
ĠW ill
Ġehem al
Ġzwei te
ieren den
Ġsch Ã¶nen
il de
;; ;;
och ter
Ġ ehr
ĠTem peratur
gew Ã¶hn
c m
ĠF arb
ĠS amm
gel t
m and
schaft s
ir e
geh end
l ad
ann e
ĠGer Ã¤t
ĠW Ã¤hrend
Ġlang sam
I E
ĠP C
Ã¤hr ung
ĠC l
ĠK arten
k ir
ges ehen
fer enz
Ġw ichtige
Ã¤tig keit
Ġsch warz
Ġ ;
ĠS inn
Ġun bedingt
ĠBÃ¼ cher
stell ten
ĠM ass
Ġent stehen
3 5
an cen
ĠSal z
zÃ¼ glich
a kti
ĠL o
ĠF in
Ġl o
v el
Ġumf assen
ĠT on
ĠM eister
Ġz er
hol z
ĠAl tern
ger ech
ĠBeg riff
ĠL ust
ĠD ich
ieren de
ĠP unkte
u ft
eh mer
ĠBei m
s burg
ĠZ ahn
Â °
ĠD o
Ġgen utzt
ĠOr d
ĠTer min
Ġsei en
ĠP osition
ĠgrÃ¶ÃŁ ten
ent rum
eich t
Ġander er
Ġgleich en
Ã¤n g
bau en
z ut
Ġzu vor
ĠN ame
f reund
mittel t
Ġhil ft
ĠO ut
sp ir
v iel
d a
Ġp asst
eg al
v Ã¶lker
all s
Ġr ichtigen
sch uss
ad em
Ġer h
ent liche
ĠV is
mer ksam
f rieden
im e
ĠB ack
Ġgar an
y er
Ġeinz igar
l ag
ĠG raf
ĠV iele
los s
k u
ĠVer m
rÃ¤ f
Ġgew Ã¤hr
Ġgesp eichert
Ġautomat isch
ĠD rei
e f
ĠÃ¼b rigen
ĠMet ho
a i
lie ÃŁen
ĠSer ver
ĠFrank furt
ĠM ess
Ġdeut sch
ĠP sych
A ber
ĠVers ion
r am
ĠPro zess
Ġver Ã¶ffentlicht
pro gramm
ĠAn gst
Ġihr es
klus ive
ĠMa x
wohn er
Ġab zu
sch rank
Ġent hÃ¤lt
r et
ĠSch aden
ĀĀ ĀĀ
g art
0 4
z ir
Ġle dig
Ġbrau chen
ĠAn wendung
Ġst e
Ġ200 8
g ruppen
is ierung
ĠA ktion
Ġl au
ĠReg ierung
Ġsp rechen
f lug
ĠZu dem
Ġgesam te
E T
D u
Ġgesam ten
Ġt olle
ĠF reude
ĠLeist ungs
ĠFre unde
Ġteil weise
k Ã¼
ĠÃ¶ff entlichen
ĠErgeb nisse
Ġgen ieÃŁen
mÃ¶ gen
k n
tig ten
Ġ19 7
setz ungen
ĠS ach
Ġj ungen
our n
w echsel
âĢ ĺ
ĠKommun ikation
Ġbesonder e
Ġt ro
ĠMich ael
ĠKl ima
st ud
ĠkÃ¶nn t
ĠVeranst altung
Ġf Ã¤llt
end es
Al le
ĠM oment
ĠAn zahl
ĠSt at
ei ben
ĠverfÃ¼ gt
man agement
ĠBe f
S eit
ĠTipp s
0 3
ĠWeiter e
ver kehr
sch Ã¶n
ĠnÃ¤ch ste
Ġunter wegs
Ã¶ff net
Ġledig lich
ĠD ek
fÃ¼hr en
ĠSmart ph
be k
ĠI P
ĠArb eiten
host w
tion en
ĠE uch
Ġp reis
Ã¤n den
Ġn Ã¶
ĠGesprÃ¤ ch
ri ffen
Ġus w
Un ter
Ġregel mÃ¤ÃŁig
gang s
ĠZusammen hang
wer ke
Ġ ad
sph Ã¤re
we der
ĠA bl
Ġr es
ak et
pf licht
Ġwir tschaft
ĠL ager
f ert
Ġver antwort
Ġm ass
samm lung
Ġdurch aus
ĠI r
ĠAr zt
ĠAu st
Ġentsprechen d
ie te
Ġer g
mer z
Ġzie hen
v ollen
Ġde fin
in ess
Ġf rauen
K on
ĠM obil
Ġer lau
ĠD oppel
spiel er
o f
l ern
ab et
A M
ĠKom bin
P h
ĠV ier
p ft
ĠWirtschaft s
st echn
Ġdar in
Ġschw ier
Ġge kommen
am s
ĠEU R
ĠK unde
Ġein ger
ĠB ade
s etzt
aus o
Ġschle cht
ĠW Ã¤r
z on
Ġk or
for men
ĠE ind
ĠAnt wort
Ġw Ã¤hlen
Ġsol chen
ĠT raum
Ġ5 00
Ġein gesetzt
ge g
D urch
z un
ĠmÃ¶glich st
Ġzu frieden
rau cht
Ã¤l te
ĠAuf gabe
Ġlie ber
p a
ĠUn ser
umen te
ĠHer bst
? ?
sch nit
de ckt
Ġverl oren
ĠP aar
Ġmittler weile
Ã¶ se
Ġvers ucht
ĠSt utt
etz te
Ġent gegen
ĠS ohn
Ġt au
ĠO pti
ĠÃ¤u ÃŁer
ĠS uch
br uch
r aten
ik al
ĠImmobil ien
i kt
ĠH y
ĠtÃ¤ glich
gem einen
Ġd re
f inden
h y
Ġdenn och
ab end
ĠhÃ¤t ten
ĠEr satz
al z
Ġo ffiz
zeich nung
ĠR uss
og raph
Ġge bracht
ĠAller dings
ri d
ĠZ wischen
ĠSicherheit s
ĠDes halb
Ġunterschied lichen
im al
tiv e
ĠMaÃŁ nahmen
Ġ Ð
ĠV o
ĠAn forderungen
4 9
ĠH ann
Ġerwar tet
ĠDisk uss
Ġ[ âĢ¦]
el ten
tier te
ic ro
r t
st Ã¤t
Ġgew innen
Ġrau s
te uer
ĠfrÃ¼ h
au ern
ĠMar ken
ĠTur n
Ġman chmal
ĠHal b
an a
Ġd isk
Ã¤ dig
ĠMont ag
G er
Ġ att
f assung
i ar
ges ellschaft
sp ielen
Ġt radition
Ġinform ieren
Ġob wohl
ĠH und
ĠWind ows
ĠMa in
A G
Ġd ah
ĠBe zug
f o
Ġgen er
ĠEigen t
ĠS achen
ĠBed ing
Ġern eut
p artner
s wert
ig ten
Ġber uf
ĠauÃŁer dem
Ġm uÃŁ
ĠJo hann
ĠKl asse
ĠC om
Ã¤um e
Ġaus reichen
ĠM at
it Ã¤r
spr ache
ĠpersÃ¶n lich
Ġnach dem
ĠK urs
ie ÃŁ
Ġ Ã¤lter
Ġver pflich
w ald
ĠI S
Ġun er
ĠSch rift
ffiz ien
ĠInform ation
D R
H allo
ti c
wend ungen
ĠGes icht
Ġer mÃ¶glichen
ĠSt unde
Ġaus drÃ¼ck
ĠEn g
v ier
Ġh alt
ĠAl b
ick e
Ġbestimm ten
Ġ ra
6 5
Ġun abhÃ¤ng
ĠMed izin
ber eitung
Ġentwick eln
ĠE vent
I D
ĠW ohl
Ġd rin
ĠB il
pf el
j en
ĠM acht
Ġhin zu
Ġ4 5
as er
Ġâ Ĩ
ĠM Ã¼l
t au
ĠHotel s
ha fte
ĠF el
ĠK lin
t es
Ġm achte
l Ã¶sung
ĠHinter grund
ĠTrain ing
ĠMa il
ĠB u
Ġfol gen
ĠP fer
ĠF eld
bar er
ik ro
ĠGesch mack
al te
ĠÃ¼ber ra
wer ten
la pp
Ġbef inden
f unktion
ĠIt alien
Ġ )
Ġbet r
Ġ !
f le
Ġfol gende
ĠZ eiten
Ġdar um
ĠSch ne
ĠK rit
ĠP ublik
un kten
Ġen gl
ĠÃľ b
ĠAn schluss
othe k
bet rieb
ĠD auer
Ġden ke
ĠHer zen
ĠZahl ungs
m ark
U R
ĠM orgen
ei ert
ĠLin ks
Ġer leben
c ri
Ġ Ã¤ndern
Ġk rit
Ġge legen
tif iz
ĠBr and
Ġ reich
Ġm orgen
i at
verstÃ¤nd lich
ob ile
ver lÃ¤ss
ĠAus land
Ġw ohn
spr Ã¼n
b Ã¼
ur m
Ġbest ellen
sch ungs
ĠWochen ende
ĠFunktion en
ĠCh ance
ym p
Ġbis schen
it s
Ġb ein
Ġbesonder en
un kel
ĠG ra
hau se
h ung
ĠFlÃ¼ cht
Ġwissen schaft
ĠHeim at
En t
ĠO ption
ĠSchwei zer
Ġvers uchen
I L
ĠC lub
g o
0 2
Ġ Ã¼
flÃ¤ chen
Ġwen ige
ĠnÃ¤ her
Un sere
Ġgen annt
Ġver gessen
is h
omm e
ĠH unde
k arten
Ġt ief
lo w
ĠAll es
ĠSon g
ĠFrei zeit
Ã¤m pf
im in
ĠSer ie
Ġer ster
bo x
ĠSe e
Ġsch war
or y
Ã¼n den
l etzt
ĠH ol
f a
ĠBest and
Z um
ĠErw achsen
ĠGrund lage
ag n
bie ten
b i
ĠA ir
Ġf orm
duz iert
Ġbeg ann
Ġj Ã¤hr
an walt
al es
ĠSt ruktur
p ol
Ġp ar
st Ã¤r
Ġm el
Ã¤n gen
bl i
p lay
ĠH eute
d as
s Ã¤tze
t woch
Ġwen igen
ĠL eit
ĠFÃ¤l len
ĠUnter such
Ġbe quem
b il
ĠS tern
ĠA ss
ĠRÃ¼ck en
ief el
fil ter
Ġge z
ĠMet all
sp rech
Ã¼r en
ner stag
Ġabsol ut
b u
ĠAnd re
ĠK er
H er
ĠArch ite
S ystem
Ġher unter
ten t
end et
alen der
ĠT ochter
ĠVerl ag
Ġgew Ã¼n
lig a
ĠVer halten
ĠMark eting
Ġbest Ã¤
ĠS zen
ĠP orn
3 8
ĠWir kung
ĠBetrieb s
ĠGer Ã¤te
ĠBed Ã¼rf
ĠG u
ĠTh omas
ĠU p
7 8
Ġnotwend ig
ĠD an
Ã Ħ
ĠA bt
kl asse
Ġlin ks
ĠM el
ĠMann schaft
ĠRu he
Ġvor aus
Ġ egal
Ġentsprechen den
ĠRech te
b ieren
ekt or
ĠÃĸ l
Ġwichtig sten
Ġz eig
ank e
ĠIn sel
ĠVertrag s
Ġt yp
ĠVer Ã¤nder
Ġgest alten
ĠT eile
lei der
Ġg uter
ĠbenÃ¶ tigt
Ġwe der
Ġbe achten
am me
p o
b s
ennt nisse
Ġmehr eren
ĠEd el
201 7
Ġso dass
ĠAn trag
Die ser
hostw riter
Ġverl assen
Ã¼ck e
ern t
wir kungen
Ġbet rÃ¤gt
Ġda gegen
ber ger
ĠW Ã¼n
Ġb ild
h aben
ĠA ktu
qu alitÃ¤t
lin ie
Ġfer tig
f alt
ĠPfl anzen
ĠZwe ck
Ġirgend wie
bau m
stÃ¤n den
E x
ĠBestell ung
ĠH or
Ġeinz ige
ĠLe der
R E
ĠD ownload
ĠGott es
9 5
wissen schaft
ĠKat zen
Ã¶t zlich
ru cken
ĠNach bar
z i
angeb ot
ĠU N
ĠKir chen
Ã¼ ÃŁe
Ġgl Ã¼ck
ĠNetz werk
ĠSti mm
Ġle gen
!! !
ĠChar akter
wÃ¼r dig
Ġwir kt
Ã¶ ÃŁen
Ġgef Ã¤hr
Ġ acht
ĠJ ung
ĠAn meldung
Ġk amen
4 8
Ġh Ã¶ren
ss ystem
Ġinternation alen
ĠOr iginal
reu ung
ven tion
ach el
ium s
ĠT el
yn am
ĠVor stand
ĠEin sch
ger Ã¤t
zep te
sch te
ĠSchl uss
ĠSon ne
ot h
Ã¤l fte
ĠExper ten
ĠB rÃ¼
ĠM eine
S V
Ġge gr
Ġd einen
ĠH off
hab er
ei se
ar kt
isch em
e ck
ĠSch iff
Ġgen annten
ktiv en
ĠSchl ag
ĠG eist
ĠFrank reich
ĠSt off
w Ã¤
l eit
Ġgesch lossen
Ġwar ten
ĠH ar
A P
Ġpass iert
Ġum fang
ĠAn lage
ĠLi ste
zun ehmen
spr ach
o de
ĠNach richten
r ik
ĠWe ge
heit s
Ġver f
ie ben
r ig
ĠBe vÃ¶lker
Ġzu letzt
e y
T E
ĠN atÃ¼rlich
ch ter
Ġindividu ell
er klÃ¤rung
or k
ĠL Ã¤ndern
ĠFor schung
ĠverfÃ¼g bar
ĠRei sen
Ġ200 7
ĠBild ung
ost et
rie be
C h
ĠS emin
ĠK ern
O b
tern ehmer
ĠSch nitt
ĠBest imm
Ġgen auso
Ġf ehlen
ri ge
rÃ¤um e
ĠVerb raucher
Ġden ken
ĠP oten
r ein
sch auen
r ufen
h Ã¶r
Ġerwar ten
Ġbeg eister
Ġbestimm te
w urf
Ġnach hal
Ġer reich
ĠDetail s
ĠSp ann
ĠT at
Ġl ag
z Ã¤hl
ĠVer d
Ġdurch gefÃ¼hrt
mit tag
7 5
ĠâĨ Ĵ
ge ord
Ġver h
Ġher um
ĠWer be
Ġl angen
V on
sl etter
4 3
is er
ĠLei p
ver fahren
p assen
ĠKil ometer
Ġauf zu
UN G
ĠU l
ĠMan agement
O M
Ġin tens
c ial
ir n
Ġange geben
re e
ĠSie g
Ġin stall
Ġ at
a der
Ġrei cht
ĠL Ã¤nder
ĠSp eicher
mit gl
lÃ¤ uf
d auer
ĠGeburt stag
Ġf allen
ĠL Ã¶sungen
m ut
Ġgef allen
ĠBÃ¼r o
Ġin nov
ĠO hne
ĠM Ã¼
ĠL ive
ĠElekt ro
ĠC amp
m aterial
in es
Ġlie ÃŁ
Ġsie ben
b le
le gung
Ġj Ã¼n
ĠStutt gart
Ġf ach
eh lt
Ġerst ellen
z ur
Ġviel fÃ¤l
ĠThe ater
Ã¤d ag
fl Ã¼
ok al
Ġbes uchen
ĠP rem
ĠbenÃ¶ tigen
ĠEin t
stat tet
wind igkeit
ĠVeranst altungen
Ġin zwischen
ĠTr end
ĠW ild
ĠBereich en
ĠA lex
Ġ3 00
ĠMart in
Ġirgend w
Ã¼ss eld
ĠF C
âĢ ¢
ĠA mer
Ã¼ hm
ĠH Ã¶r
ĠG rad
Ġbet eil
ĠVerkehr s
Ġent schieden
r ess
p ublik
ĠT iere
ĠHand el
ĠZ entrum
rÃ¤ gen
wor tet
ĠÃ¼ber all
ie gen
ĠN a
tier ung
Ġst Ã¤ndig
ĠD aher
ĠVerein s
ĠF rie
ĠAuf ent
O L
an ien
ĠgÃ¼nst ig
ĠGew alt
au se
Ġan al
ĠâĢ Ķ
ĠD ass
ĠBeding ungen
ĠBeweg ung
Ġsp ort
g reifen
ack t
p art
ĠEr de
ĠF lÃ¤
Ġkom bin
masch inen
J e
u elle
Ġgut es
Ġan t
Ġs icht
in form
Ġun mittel
Ġbe ob
ĠD ein
w art
3 6
Ġrel ativ
p age
Ġhtt ps
spr ung
ĠSp ielen
ĠKl ass
ĠJ a
Ġausge stattet
i ste
ĠZu g
ive au
ĠP an
Ġp sych
Ġh aus
Ġentsprechen de
Â ´
ĠEr inner
ber eit
u le
Ġzahl reichen
ĠG elegen
ĠGe fahr
Ġd iver
anz eigen
ĠAma zon
ourn al
ĠK reuz
lin ien
ĠP il
n etz
ĠV arian
ot o
Ġl and
tre ter
ĠL aut
Ġs auber
hol en
ele v
ĠMark e
fahr er
i os
Ġwahr scheinlich
ĠZ eichen
p unkte
gr ess
ic a
olog ischen
ĠS ter
Ġk ennt
f angen
ĠB lu
ĠCh em
Ġmittel s
b us
d lich
ĠTran s
ĠHand y
emen te
ach ung
ĠO ffen
au ert
Ġsp richt
fil m
4 6
ĠMit twoch
Ġlie ben
I CH
Ġd i
ĠG eg
ed es
Ġ arbeitet
in kel
Ġein gesch
ob by
ar zt
ĠVol k
L e
ĠLie bl
Ġst ud
Ġsch rift
ĠFÃ¼hr ung
z um
ru g
ĠE he
ĠGesundheit s
ĠUm gang
Ġ200 0
ĠDon nerstag
ic s
ff ekt
men s
ri ck
stell te
gef Ã¤hr
ĠH ilf
fÃ¤l le
on es
Ġschnell er
ab le
vol ution
ge legt
p asst
Ġelekt ron
ĠZu gang
5 5
sp f
I C
v in
ĠPart ei
Ġkommen den
lich keiten
ĠOrganis ation
em pf
ĠGrÃ¼n den
ĠH ans
ide o
G es
Ġer gÃ¤n
ĠD orf
ĠWer bung
Ã¼nf tig
fÃ¤h igkeit
Ġent weder
a at
P S
Ġb lau
ĠSpr ach
ĠC ont
sprÃ¼ che
un n
M S
Ġ ag
ĠBab y
ger Ã¤te
Ġentst anden
ur g
ĠT radition
Ġkosten lose
Ġer o
ĠGew icht
echs eln
ĠUr s
serv ice
auft rag
it ieren
Ġb as
ĠSt ar
Ġan s
ĠerhÃ¤lt lich
ĠKo oper
Ġs Ã¤m
Ġab w
ĠPap ier
ĠLu x
M od
os oph
s inn
ei ge
ĠBeit rÃ¤ge
ĠT rotz
hin dern
gÃ¤n ge
ĠPro jekte
E G
ass ungs
Ġk Ã¼r
wer den
ĠW eiÃŁ
ĠHo f
Ġ19 6
Ã¶ ÃŁ
ĠViel leicht
ott o
Ġn ieder
ĠerklÃ¤r en
ler nen
Ġnie mand
ĠgrÃ¶ÃŁ te
ĠW echsel
Ġmen sch
ĠZ er
m u
schein t
or s
ĠVort eil
ĠLin ie
m essen
Ġk re
ĠBus iness
ig ital
ol e
atz e
s ser
eu ten
V ers
Ġgest ern
ĠD eine
ĠWar um
N eu
ĠInf os
ĠRom an
Ġun gl
bl att
ĠF Ã¤h
A C
T he
u pp
ma il
i ft
ĠEin kauf
1 00
g al
Un ser
c ess
ĠBed arf
ĠG lau
Ġer inner
3 9
ĠW h
olog ische
ĠIn tegr
Ġt ut
ĠKombin ation
s uche
masch ine
ei tern
ks hop
ĠprÃ¤sen tiert
Ġd auer
ĠLes er
Ġb i
le fon
ers eits
ĠM icro
m on
Ã¤r m
en ze
ah nen
ĠS eine
Ġp r
alis iert
b ilder
ĠP DF
ch em
ĠF ein
ĠFeuer wehr
ack e
ĠT rink
t eile
ĠKar te
Ġgrund sÃ¤tzlich
Ġs org
ĠTrain er
ĠD el
Ã¤n gst
ĠZ it
Ġrie s
G en
stÃ¤nd ige
stÃ¤nd igen
hal le
ĠPr esse
A D
ber atung
rech te
Ġglau be
ĠUnter richt
Ġbeg innen
Ġt rÃ¤gt
recht s
ĠwÃ¼n schen
ĠFahr rad
re en
ĠAl ters
W eiter
r ing
ĠBest e
ĠB io
Ã¼ck sichtig
om in
Ġheu tigen
ĠT au
mo sphÃ¤re
ĠK al
ĠSt Ã¤r
ĠWider ruf
ĠV en
ĠBerlin er
kr et
schlÃ¤ ge
Ġp orno
ĠP rÃ¼f
ĠBe w
ĠFr anz
ĠLiter atur
ĠP ay
Ġbe zeichnet
ĠGesch ichten
Ġges etzt
ĠP lay
ver trag
ĠGesch enk
le cht
bild ungs
ĠG as
Ġverbesser n
ĠRis iko
ĠSP D
Ġp f
Ġverk aufen
ĠâĢ ļ
au st
in os
ĠGr enzen
ĠKaffe e
zahl t
SG VO
Ġzun ehmen
sch m
Ġver hindern
b ad
Ġges ucht
l d
nit ten
ĠN o
Ġvoll stÃ¤ndig
Ġunterschied liche
Ġver n
ĠO per
Ġ Q
k or
ip s
ĠMÃ¶ bel
Ġm er
Ġverpflich tet
g ro
tier ten
ĠInternet seite
ĠKamer a
ĠBe wer
i den
ĠVer besser
ition en
ĠVor der
st eh
ikan ischen
enn e
wei te
Ġpro blem
Ġd ur
as ino
Ġunterschied lich
Ġatt ra
Ġzu k
ĠS ein
Ġab geschlossen
4 4
k unde
ĠUm setzung
ĠgroÃŁ es
c tion
ĠT abl
Ã¤ ck
ber n
Ġer scheint
a schen
D es
ĠN or
s um
ie ter
ĠJahrhunder t
I G
ĠT ats
ĠAu ff
ĠEin fluss
eten z
ĠS im
se qu
ĠFahr t
ĠH Ã¼
A pp
Ġt rifft
Ġgem Ã¼t
gem eine
Ġgeb oren
ĠTran sport
Ġklein es
ĠVer gangen
entlich keit
ĠL ern
ĠÃ¼ber nehmen
Ġdrau f
ĠMaterial ien
Ġerz Ã¤hlt
ĠK ann
ond s
ĠMasch inen
b ro
ĠStra te
tig te
ĠLiefer ung
and eln
ĠH ein
ĠFr em
Ġz eich
ĠAuf bau
ĠR icht
Ã¤m pfen
3 1
Ġvoll er
ĠB rief
le ger
der t
ĠNew sletter
ĠLebens mittel
ĠKon zept
l Ã¤nd
ĠMo tiv
Ġw ith
Ã¼ ten
ĠF it
ĠH ard
Ġl etzt
h an
Ġein geb
ĠIn nov
ang s
Ġall eine
Ġget ragen
s em
201 6
ha ften
ĠFlug hafen
D en
ĠWar e
Ġd ient
Ġbew usst
Ġvor stellen
ĠT reffen
Â ¼
Ġ200 6
ant ie
T e
Ġpl Ã¶tzlich
Ġnah m
k ampf
ĠFol gen
ĠMill iar
ĠZ uf
u gend
Ġfol gt
Ġre ag
om ie
o hlen
ĠWett bewerb
dr ich
ĠT w
ĠH Ã¤lfte
ĠAn frage
z esse
u k
Ġge halten
Ġj ahr
ĠSch on
ĠH immel
Ġsch auen
walt ungs
# #
ĠInst itut
ĠStud ie
Ġhochwer tige
ĠAus stellung
ĠUn fall
ĠWohn zimmer
al og
Ġmoder nen
Ġer weiter
Ġpriv ate
ĠFrÃ¼h stÃ¼ck
J Ã¤hr
reg ierung
Ġsicher lich
ĠMa ster
ĠKl assen
ĠGeb rauch
b as
ĠGeh eim
p ul
Ġber aten
f an
ist isch
m und
Ã¼s sen
ant as
Ġbesch rieben
b eit
ĠÃ¼ber tragen
ichte te
Ð ¾
Ġgel ungen
Ġver schw
zei ge
Ġver treten
ĠF ans
ĠPro fil
l y
ĠR ie
arm on
ĠA s
Ġf ot
Ġf ein
Ġerlau bt
Ġ ed
ĠInform ations
ĠVert rieb
Ġb ilden
ĠZ ahlen
a ce
Ġern st
ĠV it
Ã¼r t
ĠT Ã¤tigkeit
ĠSt ahl
ul ation
rÃ¤n kt
st ahl
ĠDa fÃ¼r
B l
hand el
ĠpersÃ¶n liche
ĠRo ck
b ett
ĠS ehr
sch reiben
Ġ3 6
i us
d igen
and id
ang t
ie bt
ĠK ol
e p
son sten
ĠStand ort
tell igen
Ġh eim
ĠT rau
oll ar
ĠÃ¤hn lich
ic es
L AN
Ġmed izin
eil ung
pf l
ĠL eider
Ġf ragen
be g
Ġdar unter
Ġ as
ĠN orm
Die ses
wer be
hol t
Ġzie ht
iti ative
Ġinteress ant
Ã¤dag og
ĠProdu kten
Ġd at
Z ur
Ġur sprÃ¼n
ĠDar Ã¼ber
ĠKosten los
zeich nis
Ġd einer
ĠChrist ian
Ġw Ã¤ren
ĠDok ument
ab t
sei tig
ĠÃ¼brigen s
st eigen
wert ungen
Ġmit einander
Ġ15 0
forder ung
Ġgr atis
Ġbede uten
ag s
Ġsozial en
3 7
Ġgesetz lichen
J a
Ġfr anzÃ¶s
i bel
ĠAn alyse
Ġbelieb te
Ã¶r ter
ĠBon us
ei ern
Ġhab t
D eut
Ġst ra
he ber
ĠSmartph one
ĠZ eu
ĠBesch Ã¤f
la fen
ĠM or
iv al
et a
Ġmus sten
gr amme
S er
d f
achel or
Ġspez iell
Ġz ahlen
ĠBevÃ¶lker ung
Ġs amm
ĠM iet
Ġin kl
ĠJ es
ĠBeh Ã¶r
Ã¼ st
or te
Ã¤ st
Ġf lex
E M
Ġs an
Ġerst mals
rei g
d ate
s ucht
I P
bo den
Ã¤n e
Ġgel esen
Ġre ch
ĠW il
ĠPro t
ĠJ apan
Ġwir ken
ĠM ikro
Ġnoch mal
rei f
ĠLehr er
it es
K W
Ã¼ se
ĠBo x
Â ²
ĠR oll
---- ----
ick s
inder t
ĠVergangen heit
S h
G esch
Ġan schlieÃŁend
Ġbe weg
ĠK och
S P
ĠauÃŁer halb
Ġp ol
Ġverantwort lich
de u
ĠF alle
ĠJe der
ĠK rÃ¤
s g
ĠGeg ner
ahr ung
amm t
ar if
il la
k re
ĠÃ¼ber prÃ¼
Ġperfe kte
t r
ĠMu ster
ĠM y
ĠF leisch
A ut
at oren
Ã¼ ÃŁen
ĠZ Ã¼r
Ġge fÃ¼hrt
Ġ201 9
gesch rieben
ĠF la
pl atte
Ã¼ m
ĠKÃ¼ chen
4 7
ra h
Ġber ichtet
Ġbetroffen en
ĠZ w
ĠB aden
Ġerhe b
ĠI l
ĠDienst ag
Ġauf genommen
ĠM ir
Ġn utz
Ġmodern e
ĠKateg orie
gel assen
ĠKrit ik
Ġw achsen
ĠStra f
ĠPlan ung
en ter
ĠL ED
ĠTechn ologie
ĠKomment ar
ĠLeip zig
ĠBild ungs
zen z
Ġ200 5
sch irm
ĠR unde
ĠD rit
Ġbek annte
ĠB ier
ĠB ook
Ġd ritten
3 2
s an
ĠP or
ern er
k omp
Ġf indest
Ġwel chen
ĠNeu e
st u
O r
Ġw ichtigen
Ã¶rder t
ĠH um
ĠEind ruck
201 5
Ġge be
m esser
Ġge zeigt
Ġn eg
ĠÃ¼ber zeugt
r ol
z y
Ġw or
Ġk r
Ġs en
ĠEurop Ã¤ischen
ti ment
ĠSchu len
Ġes sen
I I
ĠT anz
Ġgew onnen
ĠE ss
Ġzu erst
ĠEin fach
T echn
Ġk Ã¶rper
Ġzu verlÃ¤ss
Ġd ienen
er gie
ĠVerantwort ung
ĠV i
st eiger
ĠBr em
acht ung
ĠWeihnacht s
Ġam er
h Ã¤user
ĠSchlaf zimmer
ĠT al
ko hol
Ġkur ze
c on
ĠLand kreis
ĠBe zir
kt or
ĠF rieden
Ġeinfach e
ĠStud ium
ograf ie
utz ung
ĠVort eile
eich ern
Ġdar aus
k Ã¼ndig
Ġe ffe
c y
ĠD ro
amp ag
ĠBesonder s
isch ung
ĠP rÃ¼fung
ĠBet eil
ym n
Ġer stellt
Ġw ann
ĠSchl Ã¼ssel
ĠHerr n
ĠKolle gen
Ġverw ende
Ġ3 2
ĠW al
ĠM und
Ġber u
ĠP e
ĠMin ister
Ġsp aren
Ġ ti
fer tigt
it or
ĠF o
Ã¤n n
ge ht
ĠCh ina
ĠÃĸff entlichkeit
Ã¤ ische
- /
ĠE reig
Ġb auen
pf lege
ĠFor schungs
d re
ĠKÃ¼ hl
h och
x x
ro ck
Ġdisk u
ĠIn str
ich ert
ĠIm mer
Ġtot al
A B
bed arf
Ġt Ã¤tig
Ã¶ m
ĠDienst leistungen
ĠR ab
Ġaus fÃ¼hr
ĠL Ã¤nge
ĠMilliar den
ĠP ersÃ¶n
hl ight
ĠBe ziehung
ber icht
Ġwichtig er
.: .:
ĠVor sitzen
ĠBer icht
Ġsch m
f re
Ġreg ion
ĠzusÃ¤tz liche
ĠArbeit geber
p ap
ĠL ab
Ġst eigen
k rieg
lie fer
Ġspr ach
us ste
ĠM ig
ĠÃ¼ber w
ĠFil me
Ġeurop Ã¤ischen
vers orgung
ger ufen
Ġst arten
Ġf rem
Ġso fern
c lub
ĠInst all
Ġs ing
Ġs uche
Ġbegeister t
Ġsch Ã¼tzen
ĠL Ã¼
ĠHann over
ĠZwe cke
Ġh ilf
Pro du
ĠL eiter
ĠÃľber blick
Ġpassen de
wer ben
Ġpolit ischen
ĠWel che
Ġsch reibt
Ġeng ag
alis mus
Ã¤hl te
nah m
ĠZeit ung
ĠEis en
ipp en
Ð µ
d io
ation alen
ĠMod elle
Ġf il
Ġgr Ã¼n
ĠEin fÃ¼hrung
3 4
k an
Ġpriv aten
Ġin klusive
j ekten
ik ations
gest altung
A u
ĠD SGVO
ĠArbeit spl
ĠW asch
ĠN ummer
Ã¶r dern
Ġged acht
ĠS ucht
Ġtro cken
ĠBru st
Ġerw Ã¤hn
ent wicklung
ĠT herapie
ĠK art
ĠP op
spruch s
ĠOr ts
ide os
ĠSch war
Ġstell te
ĠS ign
l aufen
fol gen
sch i
ol den
Ã¼ h
b eu
ĠZu griff
ĠKomment are
ĠfÃ¼ hlen
ehr t
ĠP u
ĠGelegen heit
Ġeinzel ne
pl Ã¤tze
w ay
frei e
ĠEin en
frist ig
Ġl ok
ĠM iss
Ġfal sch
ĠSch reib
rÃ¤ umen
Ġgen Ã¼
Ġj ung
ie fe
ĠB ot
Â §
achst um
ĠInter view
er weise
ĠFern seh
Ġm od
ĠZ entr
nis sen
c l
Ġvor ne
p on
ĠC or
ĠAb satz
ĠPl us
ak ten
ĠF a
ier end
ĠSp itzen
Ġher gestellt
Ġl eisten
ĠK op
ĠL eiden
Ġauf s
auf nahme
ĠGer icht
Ġbr eit
ĠdÃ¼r fte
ĠD adurch
ĠPart y
ro id
c el
ĠAus gabe
ĠRech nung
amp e
y le
ĠB lau
Ġgek auft
ĠHig h
ĠF isch
p ert
I M
Ġindividu elle
etz ten
it ar
o sen
v o
Ġ3 8
ĠRel ig
Ġges ellschaft
scha ffen
Ġs Ã¼d
in st
ĠD Ã¼sseld
T V
ĠWeiter lesen
f igur
Ġentst eht
fol gt
ond on
Ġh offe
ĠFrei heit
Ġf ehlt
sk i
ĠTex te
ĠEigen schaften
ar n
Ġl ust
Ġver urs
ĠUr teil
fer nen
ĠbeschÃ¤f tigt
Ġber Ã¼hm
ĠSing le
ar tige
ĠZ ul
ĠRuss land
der ung
201 4
eh me
T S
b ack
ĠGest altung
Ġ Ġ
m l
den burg
so ft
V D
ĠH om
Ġl eist
lo ud
rit z
Ã ¡
gew icht
Ã¼l tig
Ð °
ĠW eil
6 6
ĠBenutz er
dig t
stell ungs
k urs
ren z
ĠDeutschland s
f rau
rÃ¤n ke
sp artner
ĠMed ik
iv il
Ġ0 8
ĠfÃ¼hr te
ĠG al
ĠA dresse
Ġin nen
Ġent decken
r and
ĠDr es
Ġlie b
Ġposit iv
ĠP la
Ġgef Ã¤llt
ĠO ff
ĠWÃ¤r me
ĠM esse
will igung
sen den
ĠBe wertung
li ste
Ġent spricht
rain ing
ĠK ant
ĠHin weis
ĠCh ancen
le hr
ĠausdrÃ¼ck lich
Ġk ultur
zen s
ĠFreund in
Ġgew Ã¤hlt
sp iegel
Ġgaran tiert
ĠR os
ĠKonz ert
B ay
ĠStim me
Ġm ei
z a
ĠEr lebnis
ĠW under
ag es
ĠÂ °
ĠZ iele
ĠF akt
isch t
O P
Ġkur zen
Ġz Ã¤hlt
ĠO pfer
Ġk ommun
m ine
Ġdein em
d s
Ġbetroffen e
Ġr Ã¼ck
ĠBet roffen
Ġb lieb
ĠA f
Ġprakti sch
Ġerst mal
Ġun ge
ĠS et
ĠKunst stoff
ĠRad io
o ben
ĠDatenschutz erklÃ¤rung
ĠEro tik
van gel
Ġtechn ischen
sen de
ĠAt mosphÃ¤re
Ġex tra
kti en
Ġer hoben
or ben
Ġopti m
Ġreg istr
Ġr en
Ġinform iert
ĠSil ber
l ament
ĠverfÃ¼ gen
ĠTa schen
) )
u al
Ġle bt
hal ter
alt ungs
Ġg eil
Ġverst Ã¤r
Ġausreichen d
ĠM ulti
te xt
ren nen
Ġt ollen
ĠB M
Ã¶r ung
wÃ¤r ts
ommun ity
Ġw ollten
Ġer geben
ĠFahr er
k ultur
ig a
Ġgleich e
R A
aler ie
Ġ achten
me ter
zeich nen
ĠD eb
ĠK abel
ĠPublik um
ĠGeb iet
forder t
ĠMil ch
ĠPau l
spl an
e w
Ġf icken
L E
ver k
Ġhin ein
amil ien
ĠUnter schied
Ġl ohnt
N eben
Ġumf asst
m achen
ra ktion
Ġe vent
ma ÃŁen
k ul
ĠMus eum
fÃ¼l lung
Ġn o
Ġwen den
gen tur
I V
C D
ĠKont rolle
Ġbem er
Ġ ei
ĠTeam s
ĠTeil nahme
ĠMin ute
n ummer
ĠAr m
a dern
Ġm obil
ĠS how
ĠH D
er ei
em m
Ġ orden
ber ech
Ġnie dr
Ġglau ben
ĠKar l
amp en
ĠerfÃ¼l lt
ges p
rÃ¼ck en
eg t
M ehr
ĠR ob
it a
en a
ĠDiskuss ion
isten z
ĠViel zahl
ĠErn Ã¤hrung
ĠSta aten
ĠAn teil
Ġersch einen
ĠGer ade
Ã¼ nen
Ġ19 5
Ġg u
ĠBl umen
Ġ4 00
at isch
ind ungen
ital ien
jen igen
ĠZu behÃ¶r
Ġex ist
ĠE p
ĠZus atz
gesch Ã¤ft
ĠFrie drich
ĠN och
ĠB lack
ĠM erk
qu e
ĠAktiv itÃ¤ten
Ġs ehe
Ġaus geb
ĠDe ck
Ġein iges
Ġp rÃ¼
for schung
ur n
ĠT her
ĠAn lagen
schu len
ĠB ud
ĠUm satz
ab er
Ġvor ber
ĠAr ten
ut lich
ĠMo dern
ĠS V
ess el
Ġide al
l Ã¤nder
b is
o ge
Ġerfol gen
ra el
ĠFre e
ĠS au
Ġzu gleich
ĠAm ts
Ġgesp ielt
angeb ote
iel ten
k rank
est e
ĠUn ion
mod ell
duz ieren
M ein
rei tet
Ġb y
ĠFÃ¶rder ung
ĠWor te
Ġte lefon
Ġange zeigt
Ġinteress iert
st es
ĠerfÃ¼l len
Ġhin ten
Ġi den
ĠHome page
Ġweiter er
ige m
z we
ra gend
h et
t eilen
B es
wer tet
Ġt r
zieh ungs
k Ã¼n
ag d
g ten
zÃ¼ ge
ĠD anach
ĠstÃ¤r ker
Ġungl aub
Ġt eilen
v al
Ġin vest
ĠF inger
Ã¤us e
ĠEngl isch
ord in
Ġein deu
Ġbes itzt
s itz
ĠB unde
w ander
ĠS n
ĠG rie
erv ice
Ġbeh andelt
ĠHei z
d essen
Ġinteress ante
hÃ¤n ger
as zin
wei ÃŁ
ĠErk rank
ver anst
ĠVerk Ã¤ufer
ĠKooper ation
ĠSo und
ĠSchn ell
scheid et
w enden
eucht ung
Ġviel es
ed ia
6 8
ĠF ran
k at
Ġzeig te
ĠP S
it iv
ra struktur
n icht
sp ekt
ĠSe kunden
E U
ĠT ick
ĠKar r
Ġsogen annten
Ġk at
ĠDre h
9 8
Ġhin gegen
spann ung
ĠTrink wasser
umm ern
ĠAnt worten
ĠS achsen
ĠB or
ĠZu cker
Ġk g
Ġein iger
Ã¶r ungen
ĠPol y
ie fen
ĠUm fang
ĠH u
sch ten
ĠApp le
ĠA ch
Ġz Ã¤hlen
olog ien
Ġpassen den
Ġkon zentr
ra fen
Ġher zlich
hÃ¶ he
ĠAn zeige
Ġwunder schÃ¶n
i oren
ess our
Ġstark e
S hop
ĠW ell
ig ungs
ze pti
t lichen
Ġvor lie
Ġein st
Ġschn elle
Ġp orn
ĠVer z
ĠPl attform
Sp iel
Ġgemeinsam en
ĠSch loss
4 2
ad a
Ġver Ã¤ndert
ĠP rakti
Ġk ostet
Ġ0 9
M ar
Ã¤ umen
ĠAbl auf
ĠD igit
ĠVersicher ungs
Ġbek annten
ĠWor kshop
ĠSp iegel
k ap
Ġm u
ĠB ra
Al so
ĠSt amm
Ġger ing
eu ert
ĠIn ner
r is
ĠMin i
ĠBur g
alis ieren
Ġk o
ĠnÃ¶ tig
ĠZeit raum
Ġe ure
ĠAn aly
Ã¼r n
Ġbesser e
Ã¼ mer
u ellen
ti m
ech an
Ġr uss
ru he
ĠDank e
Ġleich ter
ĠGrÃ¼n de
Ġindividu ellen
Ġg rau
ĠAn griff
sl am
Ġver lie
ĠAuf nahme
ĠZu sch
Ġle cker
ĠFor men
g Ã¤nger
tem berg
ver sammlung
en ke
v id
Ġ7 5
m acht
is st
! âĢľ
z ellen
R O
ĠB lock
ind ust
Ġsinn voll
ĠI N
ĠÃ¶ sterreich
ĠNew s
Ġselbst verstÃ¤ndlich
Ġstar ken
ez if
ann en
ĠUS B
Ġz erst
Ġverk auft
ĠEin richtung
ĠH Ã¤nd
eu ern
ĠMo de
der s
h ler
ĠG ute
Ġaus ger
Ġn ennen
weis ung
st anden
t o
ack te
ĠG i
rÃ¼ st
Ġan bieten
... ]
Ġwes entlich
ĠEng agement
ĠS yn
l ager
am b
az in
Ã¼r e
Ġl Ã¶
ok us
Ġget r
il ien
ĠP et
B eim
stÃ¤nd nis
ĠSt iefel
Ġtechn ische
Ġ200 4
Ġgegr Ã¼ndet
at es
Ġkomp lex
iert es
ĠSym bol
we ge
ĠA tt
Ã¶r te
ĠVer waltungs
Ġst abil
ĠVer f
ĠP ul
gemein schaft
Ġben utzt
ĠF le
ĠOrd nung
Ġlie fern
ĠWer te
ĠWeb seiten
ffizien z
Ġent lang
re ff
Ġeigen es
ĠNach dem
ĠGrund stÃ¼ck
bli othek
F or
usst sein
ĠK eine
alif iz
le hn
riter ien
r eit
Ġb ill
wohn ung
Ġbeh aup
ĠGegen satz
umen ten
L and
Ġgesch Ã¼tzt
ĠK enn
ĠJahr zehn
ĠÃĦnder ungen
Ġkomp eten
Ġkont roll
s w
Ã¤ch er
ell es
ĠVoraus setzungen
ĠGer man
tel n
Ġf rag
zieh ungen
ĠM otto
ĠFre unden
Ġh art
ĠJ ur
lad ung
Ã¼ ter
ĠMed ia
ampf adern
ĠH art
g f
ĠÃ¶ff entlich
reu en
Ġf e
Ġangen ehm
ĠM indest
in i
ĠH Ã¤nde
ĠU ser
ĠBed ien
Ġ1 000
ĠVer hÃ¤ltnis
201 3
Ġw eich
Ġf alls
l uss
ĠGlau ben
Ġver g
ĠÃľber sicht
z ern
ĠL ondon
ort s
opp en
Ġn atur
itu ationen
ri c
on ym
ĠAn f
ĠM att
R eg
be weg
ĠChe f
! )
il ler
ĠS ehen
ĠD ritte
ĠKap ital
ĠSch Ã¤den
far ben
Ġweiter es
ĠS icher
Ġ5 5
ĠS T
wei st
ĠprÃ¤sen tieren
ĠK ein
um in
ĠS E
Ġm ache
ak er
Ġ4 8
Ġel eg
ĠAu ge
ĠZÃ¼r ich
sprechen d
Ġwir st
ĠMetho den
ĠL au
an o
ĠAut os
ation ale
Â ¤
ĠWÃ¼n sche
ĠEin richtungen
Ġbis lang
Ġ rot
ĠPrin zip
ĠJ ournal
Ġsch ul
ĠAus druck
Ġf rau
ĠAltern ative
os k
Ġl a
ĠMit tag
ĠÃĦr zte
onen ten
ver l
un a
Ġklass ischen
ig ner
Ġwas ser
ĠVer mÃ¶gen
zip lin
Ã¶ d
Ġfrei en
med izin
Ã¤t ter
Ġg eist
Ġmus st
Ġst aat
4 1
ĠKont o
ĠMa c
ien te
Ã¶ tt
ĠKl aus
Ġwieder um
g ig
Ġall gemeinen
Ġehemal igen
P al
or ten
Ġvor gestellt
Ġpolit ische
ĠAndre as
Ġfr isch
ol a
ĠPrÃ¤ sident
A d
ĠV om
Ġgef ragt
ron en
ĠKom fort
Ġd achte
Ġs er
ĠGut schein
ĠStu denten
Ġm aÃŁ
Ã¤hl ten
ĠL ad
iff eren
ĠB rot
ĠHand els
Ġsogen annte
N un
ĠD enk
ĠPer spe
k rÃ¤fte
ĠStre cke
ĠEin ige
p olitik
Ġm ark
B et
tre ffen
Ġgepl ant
Ġverm eiden
ĠH at
ĠRe zept
t op
Ġz weit
Ġau ÃŁen
ĠÃ¶ff entliche
) ;
ĠKon kur
ĠVer waltung
he bung
ge fÃ¼hl
k ommt
ĠL aden
ĠAust ausch
Ġ arbeite
ĠFit ness
Ġ0 7
Ġver schl
o tion
Ġbeein fl
Ġi Ph
maÃŁ nahmen
ĠK e
sicht s
Ġl aden
Ġwel chem
Ġs itzen
rech nung
et isch
Ġt reten
ĠA g
ĠJugend liche
ĠÃ¶ff nen
ã ģ
Ġmein es
Ġelekt r
ĠK la
leist et
ĠDir ekt
ĠerhÃ¶ ht
ĠAnd roid
b indung
Ġf ahr
wie gend
ĠKrank heit
under t
ĠSti ftung
ard s
Ġwei ss
gel s
ĠLand schaft
par atur
ĠG olf
ĠFall s
ĠHin weise
f unk
ĠBet reiber
ĠTÃ¼r k
for dern
ĠW es
ĠW ol
j ob
Ġwar m
ĠRegel n
hel m
hl ung
Ġange messen
am ing
zie ht
geb racht
gr Ã¶ÃŁe
t l
ĠRe fer
Ġver arbeitet
zuf Ã¼hren
v a
form ular
fil me
ik ationen
ĠmÃ¼s ste
F r
Ã¤te stens
H eute
ff el
ĠAl ten
ĠSt ock
Ġc asino
Ġgl ob
ĠDÃ¼sseld orf
ĠC an
ĠPf licht
Ġprof itieren
Ġget roffen
indust rie
7 7
ti s
ĠN et
n o
Ġl Ã¤ngst
a ster
B ild
sp recher
ĠJ ohn
Ġle gt
ĠO pen
Ã¤h ler
wir ken
ĠInter ess
ĠgrÃ¶ÃŁer e
ĠHoch zeit
Ġk rank
ĠunabhÃ¤ng ig
ĠCD U
Ġnahe zu
Ġinternation ale
ĠkÃ¶n ne
Ã¤tz lich
kont akte
ĠTele f
ĠAlb um
ĠBahn hof
ĠRestaurant s
oll t
iz e
O T
ĠEin willigung
ĠSp itze
Ð ¸
ge wiesen
ht t
okrat ie
ĠðŁ ĺ
ĠL esen
Ġget an
ĠBal kon
h Ã¶ren
Ġent sp
s eits
sam en
mus ik
sf Ã¤h
Ġne un
at ische
ver waltung
ie dern
ĠSch we
B itte
p rÃ¼fung
I hr
Ġaus ges
Ġmus ikal
ĠBau ch
ĠRe de
ĠH an
g Ã¼nst
ĠW a
Ġaus gel
ĠBil dern
ĠM ut
ĠB atter
r hein
s uchen
Ġbr achte
Gr und
bÃ¼r ger
ĠHig hlight
ĠKont akte
ĠD ial
ĠK Ã¤ufer
ĠUn ternehmer
ĠP re
ag ten
ĠSt ad
W ar
D at
wer ks
Ġkl icken
ĠG ir
g ier
Ġ Ã¤r
Ġdah in
ĠS Ã¼
arb eitern
ĠRe al
ĠEdel stahl
ges prÃ¤
ĠKon fl
. [
lei sten
Ġent deckt
ĠKateg orien
h te
zus etzen
lieÃŁ t
ĠSte fan
ĠS at
ĠAben teuer
ĠVer Ã¶ffentlich
Ġ raum
Ġ italien
Ã¼ hle
Ġp artner
ĠVerb and
schie de
ĠBÃ¼ hne
N icht
8 5
hol ung
rin ken
ĠJ ust
Ã¶r se
Ġd unk
ĠSchw anz
Ġ eignet
ĠRo h
ĠJ ungen
ĠbestÃ¤ tigt
ath em
Ġan zeigen
k und
ar tikel
d rucken
ĠA ktien
trag ung
ĠsÃ¤m tliche
ĠÃ¼ber zeugen
ĠDres den
Ġd auert
ĠY og
ĠVers uch
ĠAufent halt
ikan ische
Ġ: )
ĠD S
Ġsch au
ĠW ichtig
Ġspez ielle
n t
ĠGrund lagen
ri b
ĠBel ast
en der
ĠBau ern
Ġl eiden
D E
Ġbe zahlen
ĠBer at
ik on
ĠS ind
Ġkor re
p al
F l
est o
Ġaus w
inn ern
ĠVert rauen
ich e
ĠHand werk
ĠL ud
Ġw echseln
ĠY ou
ĠGem Ã¼se
Ġg eile
ĠZ ut
fÃ¼l lt
ĠGener ation
b ran
b art
ĠD arm
b eln
re ck
ĠG ang
Ġhal b
lei ster
stru ktion
be st
Ġgel Ã¶
Ġe ur
Ġer leich
ig uren
ess or
k opf
Ġ200 3
Ġ3 4
St ud
n ei
ĠmÃ¶ glichen
ĠR and
le bt
F il
i men
met ho
is ieren
ĠEmpf eh
Ġb o
aut omaten
ĠAut oren
inder ung
ot os
Ġ3 3
Ġregel mÃ¤ÃŁ
merksam keit
arb eits
Ġent fernen
ad s
Ġan erk
r ang
bl ieben
ĠHa ft
Ġverl ieren
an dern
Ġge he
Ġein s
Ġein schlieÃŁlich
sam e
wend ungs
A U
ĠBedÃ¼rf nisse
ĠSo cial
ĠHoch schule
aler weise
ĠB ill
us sen
Ġho her
Ġgemeinsam e
Ġh e
M o
ĠKom pl
ĠPar is
ĠSemin ar
Ġjeden falls
sto ffen
b ook
ĠR ett
essour cen
bar ung
Ġbe wegen
stechn ik
ĠZ oll
ĠAb m
leg ten
ĠK ab
, -
Ġkom fort
Ġak zepti
ĠB ir
Ã¼l len
Ġvor ge
R W
ĠGener al
ĠStÃ¤d te
ĠJugend lichen
ĠTrain ings
Ġ12 0
Ġsch wei
b rechen
Ġre st
ĠBaum w
5 00
sp art
s n
fÃ¤l lt
ĠBunde stag
sor ge
ĠauÃŁer gewÃ¶hn
c c
ĠJahrhunder ts
ĠVer treter
do or
as i
Ã¼r k
Ġge eig
ĠAus nahme
Ġben utzen
ĠSchwer punkt
Ġw est
at ch
ĠBestimm ungen
ĠW agen
fÃ¤l len
ĠN ote
ĠB Ã¶
ĠDurch fÃ¼hrung
ĠHer stellung
Ã¼hr t
ĠStr eit
ain er
Ã¤tig ung
Ġverm utlich
Ã¼l le
P f
g as
ĠÃ¼bern ommen
sie he
D och
ool s
ĠSch reiben
o us
ĠM io
ten d
ĠNach richt
Ġ2 50
ĠSe ele
co unt
rain er
Ġl Ã¶sen
Ġsch afft
ĠC ro
ĠAll gemein
S U
ĠL ernen
mal e
lin es
ach ter
G em
ĠM and
ĠY ork
Ġgest altet
Ġh Ã¤ngt
ĠE i
ĠEin kommen
el en
rÃ¤ ch
fahr ung
ĠB und
ĠVerantwort lichen
Ġver lei
ĠAr g
Ġc ool
Ġhistor ischen
Ġintern ational
gr Ã¼n
ĠWahr heit
lich em
ĀĀĀĀ ĀĀĀĀ
rei ter
ĠA qu
ĠAut om
ĠC H
Ġsozial e
ĠCh at
t on
ic al
ĠFr ont
ĠR Ã¶
Ġfreu e
t Ã¤
Ġd Ã¼n
lÃ¤ ger
Ġs h
ĠReg istr
ĠBr emen
ĠiPh one
ĠZu hause
Ġr um
ĠJ ose
ĠL im
Ġeinfach en
;;;; ;;;;
Ġs etzte
eb el
Ġl ive
Ġgeb aut
Ġver ste
ĠBÃ¼rger meister
ĠMÃ¼l ler
st ern
rau ben
Ġb undes
St and
ĠZusch auer
Ġruh ig
ĠN utzen
ĠT im
Ġge gangen
E l
ĠVer stÃ¤ndnis
ĠGr Ã¶ÃŁen
ĠnatÃ¼r liche
9 6
ĠW affen
Ġaus einander
al it
Ã¤n ner
ĠM ad
ĠB in
ĠL eitung
ot ten
ib le
Ġge lie
p os
ei de
Ġerle bt
gl as
Ã¶rder ung
Ġgesch affen
ĠK enntnis
ĠHeraus forderungen
mel den
ĠAr me
ĠD ienste
Ġ3 7
Ġab end
Ġ <
ĠGro ÃŁe
Ġre zept
ĠStr ess
Ġmon at
Ġoffen bar
ĠLiebl ings
Ġoffen en
Ġd ro
ĠC re
Ġbes ucht
ĠKranken haus
sp or
sta at
ĠC ap
si denten
P rÃ¤
er ischen
ĠSch merzen
et h
ĠDar stellung
ann ter
8 8
Â» ,
ĠB ord
lie ben
ymn as
ĠHal le
ĠPo wer
Ġwill st
I R
Ã¤d t
ĠBet reuung
ĠBr enn
I st
Ġs enden
des ign
ach s
ĠJ ack
Ġt rain
ĠKr ampfadern
ĠMicro soft
druck t
ĠK Ã¶r
bar es
Ġ200 2
Ġver ab
ĠB re
ber ater
ĠC O
ĠR enn
C he
ĠMon ats
M eine
hal tet
wer de
wir t
ĠFahr zeuge
ĠR ichter
201 2
ĠSor timent
Ġst er
ĠTw itter
Ġi l
ĠDat ei
prÃ¤ gt
ĠF lie
Ver Ã¶ffentlicht
Ġin spir
ĠGemein schaft
ĠGeschÃ¤fts fÃ¼hrer
ĠG riff
wir kung
ul iert
er al
ĠVort rag
an ischen
Ġhol en
Ġs eiten
ei s
ĠStimm ung
Ġkurz er
lich ten
Ġun gefÃ¤hr
ĠUnter kunft
ĠF ett
Ġman che
ra c
Ġall gemein
in u
Ġunbe k
ar tig
W est
hei mer
ĠKarr iere
ĠViel falt
ĠKap itel
H and
ol er
Ġ6 5
W Ã¤hrend
ĠArchite ktur
Ġletz ter
ĠG hostwriter
all er
lo ÃŁ
Ġn utzt
D aten
tem peratur
S ti
ĠglÃ¼ck lich
un ken
ĠS um
ĠÃ¤uÃŁer st
ro chen
el che
Ġirgendw ann
Ġg gf
far be
Ġaus sehen
Ġbegl eitet
Ġerinner t
ĠP ubl
S S
ĠWir d
b ald
Ġh a
agen tur
Ġer lÃ¤
y d
. Â«
ĠDi pl
ĠDan iel
k m
Ġspez ial
ĠPart eien
ĠerhÃ¶ hen
ĠQu elle
ĠSp anien
ĠVerÃ¤nder ungen
au l
ĠÃ¼ber sch
Ġaus geschlossen
ĠNach mittag
ĠAuf merksamkeit
Ġt ritt
s icherheit
Ġmel den
ĠWeihn achten
rem e
ĠHoff nung
l Ã¶sen
Ã¤ fte
az ier
Ġan hand
ag ra
wor ben
Ġv ia
Ġz og
ĠN ie
Ġsich ern
Ġwill kommen
d ung
Ã¤us ern
Ġf u
ĠSchw ier
ĠF an
ĠRei fen
ym bol
ĠN erv
sto ÃŁ
wei ten
ĠGe fÃ¼
z ten
on a
ĠF okus
Ġte uer
ĠAus wirkungen
ĠBran chen
Ġlie fert
ĠE hren
pr et
ĠF ab
ĠGraf ik
ĠK eller
ĠStel lung
ĠTerr asse
f alen
Ġerh ielt
ĠS end
l as
p ass
Ġhei ÃŁen
ĠArbeit nehmer
ĠEr klÃ¤rung
ut sch
deck ung
ĠOber flÃ¤che
ĠS ollte
Ġf air
leist ungs
ĠEin blick
ĠÃ¼bern immt
en kt
ĠSchne e
Ġge legt
Ġal tern
ĠK os
ĠW M
ĠT eilen
ĠBru der
ge d
ĠFÃ¤h igkeiten
ze ption
N r
i i
Ġ3 9
Ġschwier ig
ĠLauf e
gesch lagen
verb rauch
Ġpl atz
fÃ¤l lig
ĠK leid
ĠIntegr ation
bÃ¼ cher
ĠS ens
ver kauf
Ġvor gesehen
J etzt
be f
Ġf Ã¶rdern
Ġfrei will
abil itÃ¤t
kl ass
Ġd ek
l Ã¶
ĠBehÃ¶r den
tern e
ick er
ĠSchw anger
id s
ĠN ah
Ġintens iv
gerech net
Ġer innern
be ck
stehen den
a ktionen
Ġeinfach er
ĠWeb s
sent ation
ĠAm t
ĠAl kohol
d am
ĠK ino
Ġge pf
osoph ie
d is
E C
ĠRo sen
ĠL ast
ig te
ĠWer ke
ĠÃĦnder ung
ĠfÃ¼r s
ĠPf arr
ul in
ĠN Ã¼rn
ĠC al
Ġpriv at
Ġ0 5
Ġbet reffen
h eil
Ġge zogen
Ġhier bei
7 6
. ).
sel ben
an c
ĠGr ill
ĠSystem e
i or
Ġk ap
Ġnorm al
D S
Ġb eit
ver schluss
ĠB onn
ĠFl or
Ġdigit alen
ĠgelÃ¶ scht
her r
ĠAn leitung
T h
adem ie
Ġteil nehmen
r Ã¶
Ġauf merksam
Ġberech tigt
Ġer Ã¶ffnet
Ġhervor ragen
etz ungen
ĠJ ungs
Ñ Ĥ
iz ieren
Ġbes itzen
Ġersch ienen
Ġre chten
ar tet
ont o
ĠGar antie
ĠAut ob
ĠR ollen
ĠR ing
Ġan ti
ĠAus gang
Ġ( âĢŀ
sie ht
ĠSchul d
Ġf lie
ĠDi abet
ĠMont age
Ġoptimal e
Ġbild et
ĠN orden
Ġmei stens
zug s
stu hl
ĠE cht
frei heit
Ã¶ff nung
on str
ĠB anken
Ġge Ã¶ffnet
Ġdurch schnitt
ĠerklÃ¤r te
Ġgew Ã¶hn
ĠfÃ¼ hlt
Ġt rau
st ation
en ken
Ġv ollen
anz e
cri ption
Ġb rit
k le
H o
Ġleich te
te ten
ĠJun ge
Ġkeiner lei
l an
pl atten
Ġausge zeichnet
lo ser
Ã¤m m
en zt
Ġgeh abt
de te
ĠK Ã¼r
fÃ¼hr ten
stÃ¼ck e
is en
wer ken
ĠP aket
G ro
ĠQu ad
" -
Ġst euer
ĠG rau
eld et
Ġspez iellen
eg a
Ġdes wegen
ĠBer eit
ĠMar ia
ĠC ol
ĠS omit
Ġsol cher
sch iff
ur laub
s Ã¤
unter richt
ĠUr heber
ĠMedik amen
ĠW achstum
ĠVer pack
licher weise
Ġbeh alten
ĠA B
ant ast
ĠKl ar
Ġf ree
ĠH on
ĠAn gel
Ġbeg onnen
rei ft
ĠK rie
Nach dem
Ġ0 6
ĠA R
d ler
Ġhier zu
ĠBade zimmer
utt on
ĠIn halts
Ġ reichen
at tet
ĠC ity
produ kte
F A
Ã¼t ter
ĠWohn ungs
ĠHÃ¶ hen
ose x
ial e
O n
rit ts
ĠFer tig
ĠSu pp
y a
Ġmo tiv
ĠHa fen
ĠM as
ser t
ĠK Ã¤
âĢľ -
D e
system e
ĠStim men
ĠjÃ¤hr lich
Ġh ell
! "
od y
ĠN av
ig i
rin zip
ĠSk i
ĠSch atten
Ġmax imal
g i
Ġzu st
ĠEben e
ĠH oll
ĠHa ftung
ĠC loud
Ġerg ibt
Ġech te
ĠR au
E m
ĠP unkten
Ġbet rieb
r ollen
ĠErwachsen e
ĠN iveau
ĠschÃ¶n sten
us h
r ats
ĠSchm uck
B o
ĠgrÃ¶ÃŁer en
Ġd ran
z iel
Ġre den
g riffen
Ġgel ang
ra st
ĠG umm
Ġgesch afft
Ġw usste
ie ur
ĠW LAN
Ġdies mal
ĠVerbesser ung
Ġbe stellt
ger t
ĠÃľber ra
ĠWolf gang
ĠK lo
ver gleich
Ġneue sten
form ance
.... ....
ri p
s recht
Ã¼l l
an ter
ĠschÃ¶n er
Ġte sten
ĠT ief
ĠKlin ik
ĠInstall ation
ĠVor bereitung
m g
au pt
ĠZahl ung
ĠDenn och
ĠMit arbeitern
Ġerst es
Ġs k
ver arbeitung
Ġr unter
ĠKosten lose
Ġhervor ragend
Ġf aszin
Ġm ar
n eu
r ichtet
ĠAn wendungen
k k
ĠSzen e
Ġaus pro
ĠEr weiter
201 1
minister ium
Ġ rad
V iele
Ġsicht bar
ĠTemperatur en
co de
Ġst ren
ĠmÃ¶glich erweise
Ġf arb
ĠDek or
Ġk rÃ¤f
Ġr elev
Ġh ielt
ĠA L
ĠP ack
spe kte
ĠJes us
ĠR um
leg te
Ġverl etzt
kir chen
av a
Ġbek am
on y
Ġst immt
ĠO bst
ĠMetho de
Ġj eg
Ġver Ã¤ndern
Ġf iel
ĠVerl auf
ĠLud wig
ĠRo bert
sch merzen
app en
Ġth is
el be
Ġn ett
ĠBes itz
ĠSch ritte
Ġvers ehen
Ġ $
Ġd esto
D ann
g a
ĠBereich e
umin ium
spro zess
ĠHaus halt
ĠM assen
ĠB em
opp elt
Â« ,
ĠEntwick lungs
Ġsollte st
and t
aup ts
Ġnie mals
te ur
âĢĿ ,
Ġpro duziert
ĠH Ã¶ch
ich en
lu ft
Ġdeut scher
Pro f
ĠK Ã¼ndig
ĠD igital
Ġwei b
Ã¤tz ung
ĠK leidung
ĠBr un
ĠOpti m
p at
ĠWir k
ĠT rum
ĠL eg
Ã¼ te
ĠI hn
Ġb au
ĠInd ividu
ĠE mail
Ġge Ã¤ndert
w s
ĠHeraus forderung
Ġ 000
Ġk inder
rei he
Ã¶l f
ĠO hr
M ark
ĠGew Ã¤hr
ge fÃ¼
ĠR em
rÃ¤ glich
ĠW art
re gel
em it
ĠTe en
ĠB ig
Ġsch lieÃŁen
W elt
an er
fe ktion
Ġh eil
Ġg ingen
ĠAus stattung
Ġstar tet
Ġsch rieb
ĠZ eich
ĠMÃ¼n ster
ĠH en
ĠF lex
Ġsch me
los igkeit
behÃ¶r de
L ie
ĠAm b
Ġviel er
ungs st
ĠTats ache
Al l
z wei
hÃ¤lt nisse
ĠL ohn
b a
ĠW all
geb nisse
rÃ¼ m
ĠAn s
ĠUm feld
In ter
euch tigkeit
ĠR essourcen
ĠKa iser
sch lagen
Ġst anden
ĠPrem ium
Ã¼nde te
Ġnach fol
p ern
Ġgen auer
ĠZu stimmung
Ã¤ ger
is ierte
Ġ200 1
Ġjen e
9 7
Ġp oten
ĠTa sche
ĠFrem d
Ġger echt
ĠPr ess
Ġunmittel bar
d el
JÃ¤hr ige
ĠGe werbe
F orm
ĠerwÃ¤hn t
e e
ĠBei de
Ġst eigt
ĠTurn ier
ei be
ĠGel Ã¤nde
ĠhÃ¶her e
ĠAn lass
ĠCo ach
Ġverz ichten
ĠnatÃ¼r lichen
ĠK alender
Ġho ffen
ĠmÃ¶ gliche
Ġdigit ale
ĠA cht
ĠH als
G E
ĠGe org
pro jekt
Ġfrei e
ĠOb jekt
ĠVert eidig
gen er
ĠGer ichts
Ġge prÃ¼
w est
Ġl es
ĠHau st
Ð ½
ind lich
Ġverl angen
ĠVarian te
ĠUntersuch ung
Ġstatt finden
stÃ¤t te
rÃ¼st ung
Ġf ur
Ġeinge laden
gem Ã¤ÃŁ
ĠprÃ¼ fen
hÃ¤ng ig
ĠF und
ĠSte u
D P
hÃ¶ rigen
war d
in ken
kehr t
Ġkompl ette
il itÃ¤t
ĠGr Ã¼nen
ĠBe arbeitung
ĠLux us
ĠO ne
rei be
em pl
ĠSamm lung
ĠD VD
ĠN ein
ĠRe paratur
ĠMus e
r Ã¤t
ul ieren
ĠW ik
ut h
fol ger
br ing
ĠH obby
ĠAn gabe
tel s
t Ã¤u
imm ern
Ġso bald
Ġverb ringen
ĠNach w
ĠArb eiter
u el
Ã¼r zt
ĠA tem
ĠD ollar
st rom
S eite
Ġw id
ĠHaar e
ĠPar lament
Ġr ichtet
Ġver Ã¶ffentlich
ger ichts
Ã¼r gen
Ġ4 2
gÃ¤n glich
ĠFil ter
ĠSp e
Ġab gesch
ĠEin stellung
Ġmehr fach
ĠEntscheid ungen
Ġbegl eiten
Ñ Ģ
Ġmax im
Ġbet rieben
ĠschÃ¶n es
ro st
ra ÃŁe
ĠR ennen
ichte ten
ĠSing les
frei en
Ġb uchen
ĠSchu h
ĠR ang
T M
r unde
ĠGr enz
Ber lin
ĠDis play
Ġmein t
h u
F unktion
az it
av e
ĠF ehl
ast rop
ĠFrÃ¼ hl
Ġre al
stÃ¤ndig keit
Ġzuk Ã¼nf
Ġverd ient
p um
ok ol
ĠF ass
an alyse
ist anz
ĠhÃ¶ch ste
ĠGr enze
ahr ungs
ĠQu ellen
z iger
Ġdar gestellt
ĠA gentur
ĠB it
eta ill
ĠP lug
Ġl og
Ġeinger ichtet
Ġex klus
Ġs ystem
K E
ĠzusÃ¤tz lichen
Ġ ..
ĠVor stellung
ĠAn al
Ġf Ã¤hrt
Ġen orm
ĠPark platz
ĠK le
Ġf reut
ĠMittel punkt
ĠBek annt
Ġ[ ...]
Ġeigen er
p ers
Ġan spruchs
lapp t
Ġk omme
O C
is ion
ĠG ru
Ġwir ksam
pro blem
ĠSchÃ¼ler innen
n Ã¼
Ġlie f
Ġverst eht
sy l
ĠMotor rad
Ġsamm eln
bo ard
w ein
ĠE ck
Ġum gesetzt
tier e
Ġw eite
Ġsp Ã¤testens
rah men
B A
ifferen z
k eln
5 8
jahr es
ent s
Ġ orien
kÃ¼n fte
Ġverb inden
Ġan sehen
k Ã¶rper
Ġj ur
ĠEr gÃ¤n
Ġhochwer tigen
ĠEing ang
ĠLie b
ĠAuf wand
wor k
Ġf eiern
Ġerz Ã¤hlen
Ġf anden
Ã¤r ten
Ġverst anden
akti eren
ĠSen ioren
ĠAuss age
ĠAlex ander
y e
ann er
ien s
ĠS ei
ĠTab ellen
Ġl it
ĠBeh and
Ġs itzt
ĠB eine
ver zeichnis
ĠB achelor
Ġst at
bereich e
ivers itÃ¤t
ĠBer eits
sp aren
U M
ĠAn n
ĠIntern ational
B ook
ĠII I
Ã¶pf e
ĠDa vid
D ar
n itz
Ñ ģ
hand lungen
ĠF rist
ichtig ung
ĠR uf
________ ________
ĠF u
St art
ĠLeiden schaft
Ġe Bay
Ġl Ã¤dt
Ġvoll kommen
ĠBesch reibung
L eist
ĠW in
ne y
ĠIns gesamt
ĠAb w
lÃ¤ss lich
lÃ¤ sst
Ġdur fte
Ġd ritte
Ġges undheit
ĠH yp
ĠKre ativ
ĠAn sprÃ¼che
wer fen
ĠGesch windigkeit
schl Ã¼sse
ĠWell ness
6 7
S ehr
J ahr
st ren
Ġnorm alen
ĠS em
ĠEin stellungen
ĠKomp etenz
ĠHÃ¤nd ler
Ġgesp annt
l og
ĠSer ien
anz ler
ĠGl ob
ĠT rÃ¤ger
ha f
Ġch ar
ĠgewÃ¤hr leisten
ĠFrÃ¼h jahr
ĠL at
Ġhand eln
ent wick
ĠSch alt
form ation
ĠT hr
k ar
gend es
ĠAuss icht
ie den
D amit
r esse
Ġvert rau
ell schaften
ĠSchwe den
send ung
ĠV ir
tik eln
ĠP ool
ĠRen ten
ĠVo gel
ehr en
ĠServ ices
Ġd unkel
ĠH istor
ĠBo ot
Te am
ra ges
t or
ĠGemein den
ĠAn sprech
Ġverh indert
Ã¤ch s
ar ben
ĠF ischer
he ben
ĠStrate gie
sch el
p osition
Ġe v
F ahr
Ġb ilder
Ġgel angen
M ed
utz er
Ġnoch mals
ĠKar ls
s c
Ġm oment
ĠD DR
in er
Ġbisher igen
ĠLand wirtschaft
az z
Ġver mitteln
p ekt
Ġwir k
Ġber ichten
Ġet abl
ĠfrÃ¼ hen
Ã¤r t
tag s
ĠArch iv
ĠVer pflicht
gemein de
Ġbest immen
Ġschl imm
ĠH ell
ĠForm at
Ġsch icken
ic o
ĠAu dio
s dorf
ĠEnt fern
ĠH abe
Ġh aupts
ĠIn itiative
Ġ6 00
Ġv irt
Ġweiter lesen
B est
ĠF utter
ĠH eid
S te
b ilden
Ã¶r sen
ĠS Ã¤
p la
Ġnie d
Ġbeh andeln
ĠP ok
Ġeinge stellt
ĠA ktionen
Ġmit ten
an bieter
k Ã¶
ĠKl ang
Ġbe geg
ĠPau se
ĠDi agn
Ġerfolg reiche
ĠEinsch rÃ¤n
ĠDort mund
ĠVer lust
I ON
Ġh Ã¶rt
Ġver br
ig ungen
S u
m at
ger echt
Ġpl anen
o ir
ĠB ein
Ġauf treten
ĠErw art
ĠEr fÃ¼llung
ĠR et
ĠM ak
ĠK uchen
ĠVer br
ab schluss
ĠErn st
f lex
ĠDat ing
ik at
stand s
ĠNutz ungs
Ġst ammen
Ġsp Ã¤t
Ġwunder bar
ĠPay Pal
201 0
sk on
in ten
Ġ4 4
ov e
V iel
as ste
Ġ 00
st em
Ġst ammt
ĠDat um
ĠSym pt
Ġgeh ol
ĠC am
Ġl ei
sch ritt
stÃ¤t ten
ĠUn i
sp ezif
+ +
Ġkosten losen
ch ester
Ã¼cksichtig t
ĠGr atis
bet rag
rÃ¤n ken
Ġabsol v
Ġbe stens
Ġj apan
ĠZus Ã¤tzlich
inform ationen
ĠZ un
ĠKind es
Ġver arbeiten
ĠSu b
ĠÃľber w
il fen
ast ian
Ġw eb
ĠV al
Ġposit ive
Ġkein es
G H
produ ktion
ver halten
ĠAus kunft
G o
ĠAus fÃ¼hrung
ĠVier tel
ĠF ried
sp unkt
ĠSol ar
b iert
ier er
Ġhin sichtlich
ĠAp othe
Ġb itten
ĠN ik
ĠWor ld
an w
Ġbel iebt
ĠSchw ester
ĠRei hen
ĠRei fe
m ag
s ung
Ġsol ange
ĠSÃ¼ den
An geb
Ġger inger
Ġ0 4
ĠIn g
ĠAus bildungs
app e
mm ern
ĠPfer de
Ġ0 2
Ġy ou
ĠErinner ung
ĠA v
ograph ie
h es
Ġerweiter t
Ġproblem los
ĠWe sten
Ġpass ieren
ĠN Ã¤ch
ĠKap it
urop a
de cke
a ft
an ische
ĠVers orgung
ĠAc cess
Ã¼ bung
Ġgeb raucht
ĠVer n
eut r
ĠInf rastruktur
Ġt op
d ige
ĠEl emente
ĠP um
s achsen
Ġempf ohlen
w enn
Ġzu g
kom pl
Ġbein haltet
le y
Ġst rate
ĠEr f
ĠJohann es
ĠMer kel
ĠWohn ungen
ĠA fr
ĠSch lei
Ġsch lÃ¤
ĠI dent
Ġhier fÃ¼r
Ã¶ hnen
ĠG lÃ¤
Ġkl ingt
Ġk Ã¼nftig
ĠK lÃ¤ger
ĠApp s
Ġbeob achten
U r
ĠH allo
ell a
ĠBundes regierung
r amm
ĠS old
âĢľ )
Ã¤ hne
ot te
ĠSchw imm
ĠEd ition
il ber
Ġbesch lossen
ĠOut door
H aus
ĠK am
ĠT arif
Ġ- -
ron ik
ĠFlÃ¼cht linge
ck te
be cken
IN G
H E
ĠZ ivil
ĠK leider
Ġerfolg reichen
" :
ĠMan ager
af Ã©
wÃ¤ sche
z nei
ĠPersÃ¶n lichkeit
fÃ¼hr ungen
ĠZentr al
ĠT om
Ġbetr achtet
k omm
beh alten
off er
h orn
au ben
ur st
ĠM r
ĠE gal
ĠAuf grund
ĠBe wertungen
Ġum ge
Ġdir e
Ã¼t te
ĠE ier
re cken
Ã¶n e
ĠVor schriften
ĠOb wohl
amil ie
Ġsp eichern
it is
ĠAd vent
Ġauf gebaut
Ġnotwend igen
a a
ar l
Ġein gel
ĠhÃ¶ch sten
Ġmein te
au ff
ĠB Ã¤
Ġm ach
W Ã¼rt
Ġschwer en
ĠJu bil
Ġk auf
hand lung
ĠMil itÃ¤r
o ter
ĠWir klich
ĠAuf lage
ĠK riterien
ĠSie ger
k ord
ĠTÃ¼rk ei
ĠK atze
sp er
ĠGrie chen
du str
ĠN RW
fel der
all el
ĠAl uminium
ĠG ab
Ġk enne
ĠRe alitÃ¤t
Ġde aktiv
ĠIs rael
eig ern
scheid ung
an isch
fÃ¤h ig
Ġver geben
ĠK ost
bild ungen
ĠKrÃ¤ uter
z eits
Ġste ckt
Ġkombin iert
5 6
Ġfunktion ieren
w Ã¼n
Ġirgend wo
or b
S el
B is
wissen schaften
sch alten
p olit
k ern
Ġdiver se
b rit
ĠHaupt stadt
vers icher
Ġver an
kl ar
Ġdrau ÃŁen
Ã ³
S ervice
Ġent spann
Ġb un
on ie
ĠBe ob
akt or
Ġn a
ĠK G
ĠH Ã¤nden
Ġg rÃ¼
ĠW esen
Â ¶
ĠW illen
ĠVerÃ¶ffentlich ung
ĠO ster
ĠGen au
ĠS Ã¤nger
B N
bau ten
Ġre duziert
WÃ¼rt temberg
V ert
ĠOl ymp
ĠAu str
Ġent f
ĠMass age
ĠS eb
ĠKir ch
Die s
ĠTe e
ĠBerat ungs
ĠSchm id
w id
Ġch rist
l ings
ĠF al
ĠP en
Ġunter scheiden
ĠNÃ¼rn berg
Ġse par
qu enz
âĢ¢ âĢ¢
ĠÃ¼berprÃ¼ fen
? âĢľ
hÃ¤n ge
Ġh ef
yp en
Ġan genommen
ĠEurop as
ĠhÃ¶her en
ver mittlung
ĠB reite
ech sl
sp olitik
ob ald
g ra
ĠFl uss
ap s
Ġges amm
ĠWerk zeug
ĠV ari
Ġh Ã¼b
k i
ĠL eicht
N ur
Ġspez if
gen t
ĠBran che
n d
and a
tic s
ĠBM W
pap ier
G eb
ĠCo de
ĠStel l
de ten
Ġsex y
ran s
o ÃŁen
C O
Ġide ale
Ġc o
sch ech
Ã¼hr ung
ien ce
Ġoffen sichtlich
Ġsie he
Ġs eid
Ġm y
p reise
zeich nete
o ÃŁ
ĠInst itu
uch er
ul a
ĠBei spiele
kir che
d ar
od es
Ã ¨
sp eicher
F rei
n ur
st unden
ĠN euer
ĠNeu es
ĠBesch werde
Ġwes halb
Ã¼r ger
ĠmÃ¶chte st
Ġverd ienen
ĠgenÃ¼ gend
ĠF ick
ĠBe ziehungen
m as
ie ht
ĠGesch lecht
ar y
ĠZeu g
Ġzunehmen d
spro gramm
ĠIn n
ĠK Ã¶
Ġver anst
ĠStud io
ĠM ischung
p aar
gl ieder
der ungen
le un
at a
Ġst ruktur
den k
ĠA spekte
u ff
Ġge arbeitet
Ġvor zu
ĠLie bes
Ġbe zahlt
ver hÃ¤ltnis
ĠVers icherung
ĠO sten
ĠO tt
ĠAb stand
Ġgegeben en
ser ie
Ġl i
Ġc on
bl eiben
Ġklass ische
st ab
Ġver mittelt
b rauch
Ã¼ck t
9 2
ĠV an
s wÃ¼rdig
Ġange passt
b te
ĠRo hr
ok oll
8 6
ĠZ auber
ac t
Ġverbesser t
Ġech ten
ĠW urz
ĠHam burger
Ġ eig
ĠgÃ¼nst igen
or fer
ĠYog a
Ġn ennt
ĠAn sicht
ĠAll gemeinen
Ġschwar ze
Ġevent uell
ĠA dr
ĠK andid
z z
in sel
ĠWien er
t he
ĠRech ner
g igen
h am
Ġdam al
mer k
Ġlin ken
beg inn
ĠKr atz
Ġges prochen
ĠR Ã¤ume
ĠAll ein
Ġbeteil igt
ĠE hr
ĠP last
Ġa pp
Ġgel ernt
ens ion
I A
isch of
ĠRab att
Ġspann ende
Ġer setzt
ĠMehr heit
r ation
ht ml
Ġausw Ã¤hlen
ĠSch merz
h or
ĠR ich
Ġanal ys
Ġehr lich
k aufen
ĠHaus halts
schl ossen
Ġorganis iert
olog isch
ĠUm stÃ¤nden
Ġfreund lich
ĠFÃ¤l le
ĠBe werb
k um
ĠH alt
Ġein setzen
Ġbeant worten
Ġwei sen
ĠH essen
P reis
ĠSo ft
Ġh off
E IN
Ġt Ã¼rk
ĠMÃ¤n nern
Ġbet rifft
ĠCas inos
5 7
ĠSong s
Ġgew isse
is ierten
Ar t
T ube
Ġhaupts Ã¤chlich
geb nis
Ġeindeu tig
ĠEr z
ĠSw inger
B ahn
Ġgeb oten
ĠGegen teil
ĠZ in
Ġprofession elle
Ã¼ hen
ĠGemein sam
D em
ĠOption en
ĠHilf s
ĠDu sche
ĠBeweg ungs
Ġn erv
Ġgel ingt
ĠL ade
ĠE cke
â Ĩ
ĠFe der
Ã¤t zt
Ġeinz igen
ĠMus kel
Ġm ann
ĠL ein
ĠEner gien
g u
Ġver kauf
ĠÃ¼ber t
Ġal ter
Ġst imm
ĠP a
ĠEin stieg
ĠStÃ¤d ten
Z us
kun st
at iver
ĠBe weis
gesetz es
D A
ĠWil helm
Ġstrate g
S C
ĠPriv ate
ĠKonkur renz
st rÃ¤ger
ĠM c
Ġsorg fÃ¤l
f red
ampag ne
ĠH Ã¤user
Ġgleich er
Ġges und
ett bewerb
Ġbe zÃ¼glich
Ġw and
Ġm achten
Ġide en
Ġst il
Ġb ar
ĠM eld
ĠAn zeigen
Ã¤ b
Ġspiel te
dig ung
ĠMusik er
Ġsel ben
Ġk alt
ĠBestand teil
z one
ĠT enn
ra ht
Ġ4 6
. ),
ĠReg ionen
Ġent stand
ĠM asse
Ġab hÃ¤ngig
reg ion
ĠAt om
g rad
st Ã¤d
ĠFlÃ¤ chen
ĠEr b
ĠEin heit
aus schuss
ant eil
Ġorden tlich
Ġauf nehmen
Ġber Ã¼cksichtigt
et o
Ġein ver
Ġp erson
R o
Ġange kommen
ã ĥ
ĠAus bau
ĠAn liegen
brit ann
ĠGeh irn
9 4
un e
ĠDem okratie
ĠD IN
s icher
sch end
ol ogen
Ġem otion
st ar
her e
Ġabge st
zen e
Ġverschieden er
wohn ungen
ĠWor ten
Ã Ń
ĠOr te
ĠA syl
Pro gramm
ĠMa ÃŁe
Ġschn ellen
ĠAnsprech partner
M us
eint rÃ¤ch
ĠSt att
ir r
Ã¤hr ungs
b ogen
zen ten
Ã¼ cher
Ġend g
ĠTod es
at ers
le hen
Ġ8 00
C hr
gr enz
ĠQualitÃ¤t s
echsl ungs
ĠH ab
ĠE N
ĠDen ken
prÃ¤ sident
ĠC a
Ġso was
Ġbrau ch
ĠÃ¶ k
Ã¤l lig
D ass
org ungs
U p
Ġv ari
ehm igung
we be
Ġ0 3
Ġden kt
I hre
U T
amer a
Ġver wir
hÃ¶ hung
gr enzen
ĠSp ar
ĠAnder e
Ġs ub
our en
ĠSp enden
ĠS ur
ĠTer mine
Ġintegr iert
ĠRes erv
Ã¤ sser
ĠF antas
gesch oss
Ġange kÃ¼ndig
Ã¤m pfer
ĠDiabet es
Ġd auern
M A
ĠBild schirm
a sche
s au
l angen
Ġge fahren
ĠP ri
Ã¶ ten
ti al
ĠMa gen
ĠVerb rauch
Ġher z
ĠAk ku
ĠSchÃ¶n heit
Ġbestehen den
fÃ¤l l
ĠGlÃ¼ck s
Ġden k
war en
ĠZu ge
haus es
Ġs erv
ĠSchul ter
cri pt
ĠRe publik
Ġk Ã¤mpfen
t u
Ġster ben
ĠFlÃ¤ che
Ġch ines
zeich nungen
ib ilitÃ¤t
an leitung
ĠgÃ¼nst iger
schl Ã¼ssel
ĠPolit iker
ĠI V
vers ion
Ġspann end
Ġimmer hin
Ġb raun
nehm ern
ĠHer kunft
ĠLi zenz
ĠlÃ¶ schen
Ġver teilt
ĠSt aub
Ġbe ziehen
ĠH ot
w inkel
omm st
Ġp ost
Ġoffen e
ĠDaten bank
Ġdie jenigen
ĠN ase
ĠGÃ¤ sten
ĠSch lieÃŁlich
Ġbesonder es
form at
Ġpersonenbezogen er
Ġoft mals
le ute
Ġm il
ĠNieder l
Ġk rie
bau er
rÃ¤ der
ĠG itar
Ġer Ã¶ff
Ġg laub
B undes
ĠPol en
u ver
Ġfest gestellt
ĠEint ritt
st ufe
ĠSe c
Ġ199 8
rÃ¤n k
ĠTrotz dem
9 3
Ġzw Ã¶lf
hn ung
Ġro man
ĠF igur
eich e
g y
itÃ¤t s
eist ern
Ġd r
or a
f rauen
Ġerz ielen
je ktiv
us en
leit ungen
ra y
ĠTÃ¼r en
Ġ ter
Ġge blieben
ĠT ank
ĠAut omat
ĠBe wohner
ĠBet rag
ĠTerr or
ĠUp date
rein igung
Ġan f
Ġdeut schland
Ġfor dert
wen der
Ġvorber eitet
ĠEngl and
ĠVor gehen
Ġdefin itiv
ver d
ka sten
Ġg hostwriter
ĠF unk
k w
Ġhilf reich
p ing
Ġst arte
ĠfÃ¼ hl
B esch
inu ier
rin ge
ite ktur
s zeit
ĠHaus es
K omm
rich ter
Ġschwar zen
mitgl ieder
ungsver fahren
scha ff
ĠF uss
Ġvergleich en
C o
Ð¾ Ð
Ã¶r m
scha fter
Ġm obile
W o
echs elt
ĠS S
pack t
Ġrech nen
Ġn ix
Ġd is
erk ennung
est ern
ĠGe gend
Ġeinzigar tige
Ġkein em
Ġgew issen
ĠBe am
n amen
plan ung
Ġm Ã¤nn
Ġbesser en
ĠMark us
Ġk Ã¼nstler
ĠDat eien
il er
ĠKlo ster
ĠL os
so zial
ĠNach hal
ĠTelef onn
pl ant
ĠGr Ã¼ndung
te am
Ġsch ein
ĠBl att
stell bar
ĠCamp ing
n immt
ĠZut aten
Ġunglaub lich
Ġehemal ige
ĠjÃ¼n g
ĠEin trag
Ġs or
iel te
ĠRe aktion
Ġverb indet
ĠGast geber
Ġdrin gend
Ġab geb
lin ik
s ichtigen
be stimm
Ġunter sch
Ġwei ÃŁen
Ġf a
Ġinstall iert
u len
Ġ4 3
ĠOrganis ationen
ahr t
ĠGen uss
ĠS C
gr Ã¶ÃŁ
ĠC y
um fang
Ġehr en
6 4
g ibt
ĠThe orie
Ġherunter laden
l im
bl au
st ed
ĠAr sch
Ġd ok
ĠBer ech
ĠSt ich
al a
ĠKon d
an spruch
ĠAn satz
Ġh olz
ĠHer stell
ĠBetroffen en
Ġpl us
Ġletzt lich
ĠProf essor
H R
f ur
f utter
st il
Ġdir ekten
Ġdire kte
hÃ¤n dler
W eb
beweg ung
Ġfest ge
vor sitzen
p Ã¤ck
ĠEr schein
Ġf eier
Ġvor genommen
ol ine
aut omat
besch ichtung
Ġprakti sche
Ġbed arf
ĠFern sehen
ĠR ud
8 7
Ġv ideo
ap e
Ġqu alit
ĠH ir
Ġge prÃ¤gt
K inder
anz eige
Ġ199 9
Ġver stÃ¤nd
ge tragen
fen ster
rank en
Ġo hn
eid et
ĠK ass
Ġsowie so
Ġ4 9
Ġerreich bar
Ġgelie fert
mÃ¶ bel
f leisch
** **
Weiter e
Ã¤uf e
ĠRis iken
H och
" )
geb iete
ĠWebs ites
Ġer worben
ĠF ur
ad ies
ĠkÃ¼ mmern
ĠErk enntnis
ĠNach frage
kon zept
ĠW en
ĠmÃ¼s se
ĠInf o
ĠjÃ¼n ger
ĠH aben
ĠWeiter bildung
Ġph ys
gleich en
Ġrei fe
ĠVor stellungen
ĠErwachsen en
ĠKomp onenten
Ġn ord
Ġt hem
ĠMo der
test et
bed Ã¼rf
Ġab gel
ĠNeu en
ĠVerfÃ¼ g
f it
wer bung
ĠPhil ipp
Ġwenig stens
n acht
ĠEr ste
ĠgewÃ¤hr leistet
ĠP reisen
et tet
ĠZwei fel
ĠCook ie
Ġun ternehmen
mens ion
m Ã¤r
geb Ã¤ude
Ġinteress ieren
g ige
Sp ort
Ġbeweg t
ĠAl pen
ĠHÃ¶ch st
R ech
ĠK ro
ĠL ap
Ġgl Ã¤n
w ahr
od urch
pp ich
ĠðŁ Ļ
ĠAn hÃ¤nger
N atÃ¼rlich
ar tigen
ĠAu di
it iert
Ġm Ã¼
ĠSpann ung
. âĢĿ
ĠQu alif
Ġentwick elte
ĠDu ft
st eil
ĠPer formance
ĠTechn ologien
af el
ist in
Ġsch lagen
organis ation
ĠFot ograf
h aut
Ġ8 5
ĠBet racht
ver ordnung
ĠG alerie
hr t
eh in
euch ten
ĠEr stellung
ĠAuss agen
it ation
ĠIn spir
ĠGe fahren
Ġv olle
Ġlo cker
ĠV ielen
Ġt iefer
Ġzentr ale
ĠL och
ĠVarian ten
zeu gung
g yp
ĠH it
Ġst olz
. Â»
ĠMer c
Ġw eist
b rÃ¼
t ritt
lu str
ĠD am
ĠAuf lÃ¶sung
ron e
ĠS orgen
ĠergÃ¤n zt
D i
ein s
Ġqu asi
ĠJubil Ã¤um
ĠS ituationen
ĠHand eln
le der
ho se
ĠBundes liga
ĠgewÃ¼n schten
M en
ĠJu den
Ġ199 0
ĠbeschÃ¤f tigen
ĠEin bau
st eine
ĠE vangel
ĠMatt h
kti ver
ĠSehen swÃ¼rdig
Ã¤m pft
Ġsp iele
besch reibung
Ġf roh
ĠStern e
Ġkl are
ĠS ab
ke a
ĠAr znei
k inder
Ġan melden
Z eit
ĠVerÃ¤nder ung
Ġle gte
ĠM aus
wo od
Ġd etaill
m un
Ġr ichten
britann ien
ĠTh Ã¼r
ĠBewer bung
ĠTour ismus
ahn sinn
Ġum s
ĠHe ad
ĠPh ys
port al
fahr ten
Ġs im
on us
or et
ĠIn gen
ĠAn ruf
Ġqu alifiz
ĠRein igung
iel ler
ĠR eh
rie ch
Ġend et
ĠursprÃ¼n glich
Ġan sonsten
Ġsich eren
Ġwo hnen
de x
ĠT Ã¤ter
ĠApp l
ĠJ agd
Ġbesch reibt
id a
ul d
In s
ĠGet rÃ¤nke
ĠT u
Ġi P
Ġun gewÃ¶hn
ĠKommun ikations
Ġverwende ten
ĠWider spruch
Ġ4 7
Ġverb oten
ĠKn ie
Ġabw echslungs
ĠTrum p
reich er
ĠPro zesse
Ġlau tet
p ot
Ġge fertigt
Ġhin weg
ĠWider stand
w ende
re publik
ĠR ichtig
ĠHein rich
arr iere
bl og
ĠTabl et
Ġf ern
ĠfrÃ¼her en
ĠZ war
Ġkon kre
ĠEin wohner
f amilien
P ort
ĠI slam
ĠB ast
ĠEben so
ĠSp recher
v ort
T eil
Ġver lin
ar ische
v gl
Ġ18 0
Ġin telligen
jÃ¤hr iger
Ġengl isch
Ġschle chte
c am
ĠFest ival
ĠAn walt
Ġun kompl
ĠA ff
d ach
Ġan schlieÃŁen
ĠC enter
Ġkont inuier
ĠFrank en
schein lichkeit
ĠGesetz es
ĠtÃ¤ glichen
Ġsonst ige
ĠF ra
Ġjem anden
f uck
ber ichte
ial en
ĠGefÃ¼ hle
os m
Ġkennen lernen
ein heit
ĠBuch st
ĠÃľb ungen
Ġb ay
ĠK ul
ĠgeprÃ¼ ft
ein satz
ar ma
ĠS auer
ag ue
ĠInnov ation
Ġeinge tragen
ĠKrieg s
L in
Ġger aten
200 9
ĠWissenschaft ler
ĠJe de
ord nen
br ig
Ġm iss
Ġdat ing
ĠKl ick
for um
ĠJ Ã¼rgen
T ER
ĠKon zentr
g ing
r ika
ĠF ast
N ew
Ġdar stellen
Ġp o
ĠEntwick lungen
Ġzeich net
Ġein stellen
Ġsicher e
Ġsch ien
arbeit ungs
Ġviel mehr
ĠPl Ã¤tze
G ut
W E
ĠVoraus setzung
ĠFinanz ierung
ĠAus einander
ĠerlÃ¤ uter
Ġau st
ĠRechts anwalt
f ried
ct or
ĠÃ¼ber wiegend
Ġw odurch
ĠverstÃ¤r kt
Ġall gemeine
ĠVorder grund
Ġo k
ĠSte ck
hal len
ĠDrit ter
or fen
te x
Ġan schauen
ĠC ommunity
ĠEx istenz
Ã¶ch er
Ġw Ã¤r
Ġd o
Ġverl angt
vis ion
sen z
ĠC ent
reu e
Ġm Ã¤ch
ĠPart ie
ĠEigent Ã¼mer
ĠGanz e
amen s
stag ram
ick te
ĠMasch ine
R ei
htt p
gesch windigkeit
s et
Ġd omin
sch wer
at ischen
ĠW ellen
Sel bst
ge laden
ent al
ret ung
ĠSp ur
d ienste
Ġd ynam
I K
ĠS ollten
ĠM ach
mitgl ied
ĠKl eine
Ġs w
ĠGro ÃŁen
Ã¤ be
nehm ung
Ġ: -)
p erson
Ġgro ss
ĠYou Tube
ĠM i
au men
f euer
h i
ot herapie
Ġkont aktieren
ist ent
ĠZ y
ĠUnter lagen
ĠFl ucht
ĠEx tra
be auftrag
ĠBaumw olle
Ġaus ser
Ġg reifen
ĠBr as
ĠMen Ã¼
ĠP od
c es
ĠLÃ¶ schung
ch ner
ĠB raun
ste te
Ġkosten frei
Ġman chen
ĠGeh alt
Ġo per
Ġt raum
ĠEn gel
/ -
S A
ĠWelt krieg
be stand
Ġer werben
f lu
ĠL ok
ĠVersand kosten
ĠJ er
Ġerk enn
ĠVer st
Ġgez ielt
m Ã¤ch
ĠD ame
ĠJ ed
Ġin halt
Ġniedr iger
Ġk lin
ĠKomm ission
Ġverein bart
ĠJust iz
9 1
ã Ĥ
pp chen
ar ischen
ĠSti ft
ĠLin ien
ĠEntfern ung
ĠMitgl iedern
ĠInstr ument
ĠAbt eilung
Ġschn eiden
ĠQu er
Ġgener ell
Ġf ile
gesprÃ¤ ch
o fen
t um
ĠStÃ¤r ke
Ġda vor
Ġkleiner e
b aus
Ġg ra
Ġersch ien
c i
sch Ã¶nen
ie hlt
H L
ĠPh ase
r or
ĠL ack
ungsk osten
B r
eh le
Ġschrift lich
ul Ã¤r
ro s
gew inn
stÃ¤r ke
Ġs ign
ĠCh amp
ĠSu bst
ĠD unkel
ĠSch icks
Ġj Ã¼d
Ġm et
aus bildung
ĠAus flug
ix el
Ġwider rufen
Ġbe ding
Ġ6 4
bet reiber
ĠP ir
ĠF iguren
Ġdek or
Ġzu gÃ¤nglich
Ġun zÃ¤hl
Ġeinver standen
ĠKon sequ
Ġf rage
ĠL iga
ĠT un
Ġsch licht
ĠS Ã¤u
ĠL euten
ĠDial og
Ã¤ss ig
at in
ĠD or
ĠWerk statt
ĠB aut
Ġn ehme
ĠEvent s
en te
ex t
Ġver folgt
kon om
art s
Ġt rinken
ĠAuftrag geber
N etz
w n
ĠJ ava
ĠL ook
ĠB R
Ġle er
Ġunter sucht
tif iziert
ĠPhil osophie
hÃ¤n gen
ĠSupp ort
ĠH itze
ĠUhr en
f inanz
m ess
Ġber lin
ĠG B
ra k
Ġtechn isch
Ġdes ign
ĠSch le
ad el
al ition
ohn e
Ġrecht zeitig
Ġh om
sta aten
ge len
S E
as ser
Ġverurs acht
ĠWe gen
ĠInvest ition
n am
k Ã¼r
ĠPort al
ĠBeg r
ĠSteu ern
ĠRe volution
m acher
ĠL ippen
Ġberech net
Ġm Ã¤dchen
zus ehen
ĠFakt oren
Ġinnov ative
ide en
z elt
Sch on
Ġro ten
ĠEr werb
ĠAuft ritt
ĠVer g
ĠSp ekt
Ġw Ã¤chst
st itu
Ġeffe ktiv
W e
ĠD E
ĠGr ab
ĠFl Ã¼ss
Ġbek omme
or ge
ĠBe sten
Ġanges ehen
t hm
Ġent scheidet
Ġh um
a sten
Ġfot ograf
Ġ( "
ĠBes itzer
ĠF eier
ĠT rage
ĠfÃ¼hr enden
z end
k Ã¤
ot oren
Ġnach voll
Ġreag ieren
Ġschwer e
Ġzu ge
recht lichen
ĠV W
Ġ4 1
m achung
Ġst immen
re ktur
klÃ¤r t
ĠbestÃ¤ tigen
ĠGr amm
Ġt at
Ġ ï
ah e
ĠSeb astian
s berg
per ten
K omp
fÃ¼hr te
I F
ĠFor scher
iz ei
T ra
Ġunter en
Ġfor dern
ĠArbeitspl atz
ĠR Ã¤
voll er
Ġu p
Ġ @
Ġhei ÃŁe
Ġum welt
ĠPro jekten
Ġunver zÃ¼glich
ĠBetrieb ssystem
Pro jekt
ĠE M
Ã¤ch eln
ĠÃ¼ber legen
Ġerf asst
ĠRelig ion
ĠGro up
ĠBezir ks
ĠLie d
Ġge testet
e get
ĠM esser
Ġbe endet
ĠLog o
!! !!
ĠS ar
D enn
S e
Ġgew ann
Ġ9 5
n es
en ten
ag o
k ra
P o
Ġ Ã¤lte
ĠTenn is
ĠHand lungs
b ein
Ġdauer haft
ĠRegistr ierung
hÃ¶r er
ĠfranzÃ¶s ischen
H H
anz lei
ĠFrei burg
ĠAl te
ber uf
sp reis
ĠGeb Ã¼hren
l Ã¶sungen
her steller
ĠQuad rat
ĠmÃ¶ gen
ĠR ost
Ġn ein
ĠT itten
och e
den s
Ġmensch lichen
l Ã¤nge
ĠSt ation
Ġsch lafen
zw ungen
M on
ĠAn schlieÃŁend
ho tel
ĠAf D
ĠG re
z ell
ĠUrlaub s
Ġg arten
ĠGleich zeitig
ĠUrs ache
ĠKla vier
ĠU lt
Ġwissenschaft lichen
P er
Ġr as
ĠB a
S a
P C
Ġch em
Ã¤ cht
ri a
Ġar ch
ĠSta ffel
al b
Ã¼ ben
ĠSp uren
ĠG ame
ĠRett ungs
Ġerk annt
Ġgetr ennt
ĠMo unt
ĠDes igner
gem Ã¤
auf gaben
Ġvor n
b ay
ĠE R
ier tem
Ġsp ont
ĠC r
T C
j et
ĠProblem en
ĠTex til
teil te
H ol
ĠBew usstsein
p ts
Ġd el
f Ã¶rm
ir ekt
Ġl anger
ĠHoch zeits
reich es
Ġtradition ellen
A c
ord s
lÃ¤ uft
ĠPro gramme
ĠM ix
Ġbetr achten
fuck fuck
Ġgr Ã¶s
ĠSchau spiel
ĠN ahrung
k us
ĠE ffekt
ĠDigit alisierung
ĠEinkauf s
ĠSl ot
Ġschle chter
ĠKonz ern
Ġge fÃ¼hl
ĠgroÃŁ zÃ¼
Ġmoment an
Ġp df
Ġhal te
lines hop
ĠM obile
ein richtungen
ĠGegen wart
ho fen
d icht
ir d
sch ungen
Ġn ackt
le ch
ĠSehenswÃ¼rdig keiten
Ġh ieÃŁ
il ian
ĠSystem s
ĠB arb
B E
## ##
Ġamer ikanischen
Ġg o
ĠEin ladung
E igen
ir men
Ġex pl
8 9
ĠKl im
Ã¶ h
it ur
ĠBesch werden
ĠKo hlen
z ert
Ġge werb
ĠFin ale
ĠBet reu
Ġb reite
ĠLog istik
Ġk u
P ar
ĠKinder garten
Ser ie
ĠE th
Ġgesch ickt
schnit tlich
et tel
ĠAd min
kÃ¶ mm
Ġperfe kten
D I
Ġohn ehin
k ommun
Ġdiver sen
Ġerst aun
is a
qu elle
ĠÃ¼berra scht
lÃ¤ss ig
Ġh Ã¤ngen
Ġâ ľ
ĠR auch
Ġeig nen
b ten
ĠSch ild
Ġkurz em
ĠEl ement
sch Ã¼t
ĠÃ¶ fter
K reis
ÃŁ t
d y
us ion
Ġbrau che
ĠNieder sachsen
ĠG erne
ĠSch okol
oir es
ĠMar c
es h
Ġt rat
. /
be gl
anzÃ¶s isch
ĠIn c
ĠO ft
or al
ĠwÃ¼n sche
ĠW ies
ĠDie sel
m t
ĠRech nungs
Ġpassen d
k ammer
ĠT ir
ĠSt au
ĠRei ÃŁ
stehen de
rÃ¼ck t
Ġab ges
t her
ĠPoten z
pro f
War um
ĠD ritt
ĠVerl etzung
5 2
ĠergÃ¤n zen
sch icht
ĠDurch messer
ĠM omen
Ġf uer
ĠAn wendungs
drÃ¼ck t
ĠMe tern
Ġmit ge
ĠGriechen land
wei tern
Ġfest stellen
ĠSp er
ĠD ampf
o ffen
ĠB utter
mus eum
ĠSam sung
Ġun n
Ġober en
Ġgaran tieren
ĠL ange
ffe kte
ĠF lu
Ġzwei mal
ĠIde al
gesch nitten
er ische
k rÃ¤f
ĠIn halten
ĠWill kommen
Ġgew innt
ICH T
ĠKonfl ikt
M in
ĠFa vor
c ore
Ġgro sse
ĠEin er
Ġn ette
bring ung
5 4
gen au
ro hr
Ġ it
b anken
Ġgesch ieht
pro zess
ĠSitz ung
flÃ¼ ge
b orn
sch reibung
rit zen
ĠIS BN
7 2
ĠSpeicher ung
ĠprÃ¤ z
ĠReg ierungs
ĠB ach
al tete
ĠGer Ã¤ten
Ġoffiz iell
Ġun verb
zuf Ã¼gen
kl ang
ĠOr ten
ĠPrÃ¤ sentation
Ġzu stÃ¤ndig
ss el
ĠG reen
Ġbet reiben
Ã¼ ge
sph ase
out ube
ĠAngeb oten
bran che
ĠKon zer
Ġdisku tiert
ĠC lass
Ġch ron
ĠAn bie
zut age
ungs f
Ġzu folge
ĠM athem
Ã¤tig keiten
ĠH altung
ĠðŁĻ Ĥ
ĠKn ow
Ġbe werten
Ġerk ennt
em a
mann schaft
ĠM ieter
iel d
Ġinstall ieren
im ent
Ġdurchschnitt liche
n utzung
ĠHo se
ĠStat us
Ġtats Ã¤ch
ĠIm press
eut zutage
etz e
fÃ¼l len
ĠSold aten
lÃ¤nd ischen
ĠVor lage
Ã¼r zen
Ġberuf lichen
ĠGr unde
Ġkon sequ
em ann
ind liche
b aut
ĠOber flÃ¤chen
ĠU V
Ġh armon
Ġerheb lich
T ag
ĠMÃ¤n gel
ĠEntwick ler
7 1
Ã¼nd igen
ĠSpr achen
ĠKart off
ĠGrÃ¼n der
schlag wortet
ĠS yr
ativ es
Ã¼cksichtig ung
Ġzu hause
âĢ¦ )
au schen
al so
ĠS m
ĠAus gleich
ĠD ritten
b ungs
ip edia
5 3
Ġbevor zu
Ġgel assen
ĠGesprÃ¤ che
ĠKu gel
ĠS ne
Ġwar tet
ĠNord rhein
ĠInnen stadt
ir l
K T
om et
ĠSt ory
ord net
ur a
wor fen
ĠSex y
Z wei
ĠTour isten
Ġst et
f la
Vers ion
S ol
s werte
ark e
gesch ichten
Ġmass iv
beh andlung
ĠA ro
b reite
Ġs ach
Ġprakti schen
ĠÃ¤lter e
ĠPfer d
Ġfrag te
ĠRie sen
ĠEreig nisse
h agen
ĠVeranst alter
reib ungen
ĠFor derungen
? "
Ġkont akte
ĠMod ul
ĠÃ¼b lichen
ĠStruktur en
Ġf uhr
ĠOr ien
ran ten
Ã¶ff entlichen
Ġ5 6
Ã¼l ern
ĠP R
bÃ¼r o
ĠVor gaben
Ġk W
gar n
ĠR E
, ...
ĠUnter schiede
ĠAl p
Ġein heit
Ġwer fen
Ġverein bar
8 2
h ten
ver lust
Ġ ap
pr ession
Ġsch aut
Ġwirtschaft lichen
B ER
ĠÃ¤hn liche
ay s
Ġausge st
ĠPat ient
ĠIm pul
Ġjeweil ige
ĠRegel ungen
ief ert
ies sen
Ġpersonenbezogen e
ir ts
sei tige
u z
Ġrel igi
g in
D r
ur o
Ġk Ã¼nst
ĠVer eine
Ġglau bt
ĠWo hnen
Ġer zeugt
on isten
ĠZ iff
sch eine
ĠLap top
uch st
l et
Ġgesetz liche
Ġgesetz lich
Ġempf iehlt
ĠAn na
ĠPro vin
ĠBas el
ĠRegel ung
ak a
Ġso g
ĠGe werk
ĠAnaly tics
r ische
Ġsch einen
ktiv itÃ¤t
ĠMedikamen te
Ġposit iven
Ġf und
Ġf liegen
âĢ¦ .
ĠM os
ĠH em
Ġf Ã¼n
ĠAb schnitt
Ġkat hol
âĢĿ .
Ġv i
k olle
ĠA N
ĠW Ã¶rter
ĠAn nahme
ĠÃ¤lter en
ĠErkrank ungen
geb lich
ĠNachw uchs
ĠBundes land
m ord
ĠhÃ¤uf iger
5 1
ĠB Ã¼nd
zu cker
Ġre duzieren
Ġbef est
ĠTro cken
ĠMit tler
ĠZ en
Ġf ragt
Ġn Ã¶r
ĠhÃ¶ch st
ĠEnt spannung
Ġangegeben en
ĠKr imin
ack er
Ġoffiz iellen
ĠCh or
Ġfe sten
ĠSchwier igkeiten
Ġgew ohnt
Ġgesch m
ĠG ames
ĠO hren
Ġdok umen
Ġhistor ische
H in
p ool
ĠB GB
ĠL ieder
Ġd ick
ĠmÃ¼s sten
Ġgest artet
u tern
ĠSon st
Ġbeh err
Ġaus sieht
Ã¶ ss
ĠstÃ¤r ken
sam keit
eten zen
Ġnorm ale
ĠVeranst altungs
ĠPl atten
Ġb reiten
al i
Ġtoll es
ier s
ĠBran denburg
ĠBer ater
Ġdurch fÃ¼hren
Gem ein
ĠzuverlÃ¤ss ig
w achsen
ĠErwart ungen
Ġangeb lich
ĠG eile
ien e
Un ternehmen
T L
ĠAlt stadt
n ame
ĠL en
Ġdank e
ĠÃĸ k
ier bar
b it
ĠgÃ¼nst ige
mÃ¶glich keit
mer t
ĠKÃ¼hl schrank
ĠEro tische
ĠSp azier
Ġf ix
Ġf ehl
Ġlie ÃŁen
ĠSpiel automaten
N och
ĠB raut
ĠFe ed
Ġ5 2
fol io
ĠForm ular
men ge
ĠSt urm
ad o
liefer ung
ĠIns besondere
ĠTre ff
ich ern
dat um
ĠP iz
ĠBer Ã¼cksichtigung
Ġbas iert
Ġgesch ehen
Ġent tÃ¤u
L eider
Ġge p
Ġan ger
ob el
ĠAuf stieg
ĠG ibt
Ġg Ã¼l
ĠBesch luss
m ungs
Ġbeit ragen
Ġvor an
ĠBenutz ung
ol i
metho den
Ġf ehler
ĠFrei en
.:.: .:.:
ĠVer sch
Ã¶ ger
io de
ĠHel fer
Ġgegebenen falls
Ġeiner seits
un s
Ġnach zu
w es
200 8
k as
ĠDrit tel
Ġbeg eistern
ĠGroÃŁ britannien
Ġabend s
ind lichen
ab y
Ġver folgen
y si
ĠOpti k
ĠB am
ĠHier bei
Ġteil s
ing u
rieden heit
5 9
c ast
Ġnachhal tig
ĠEx empl
Un iversitÃ¤t
ĠSchl es
ĠSt abilitÃ¤t
ot ter
kl assen
Ġtelefon isch
ĠMon d
H e
eh end
Ġlaufen den
f u
ĠFr ucht
ank ing
Ġlieb sten
Ġm e
Ġ6 6
ti tel
ĠA kte
sprÃ¼ chen
Ġbe ziehungs
pfl anzen
Ġh undert
hÃ¶ rige
ĠW ord
ĠL eucht
Ġvorhanden en
Ġs a
ĠBl Ã¼ten
S CH
ĠN az
bach er
b aden
ĠL assen
ĠA kt
Ġdre hen
Ã¶ ck
druck s
ĠKo ordin
gn Ã¼gen
Des ign
te d
up s
ĠFe atur
ru st
Ġ tier
ĠDruck er
s u
Ġ9 9
hn acht
ĠStre cken
ĠSchwanger schaft
sp rÃ¤
ĠVor feld
Ġn am
ĠÃ¶ff net
Ã¼n der
ĠNot wend
ĠDokument ation
ber eiten
ĠHard ware
ĠA M
ĠJ azz
O ber
z o
om a
ĠAutob ahn
ĠS aar
V om
ĠPro p
ĠM ord
ĠP as
ĠPorn os
Ġan geschlossen
ĠHoch schul
zeich neten
Ġkont akt
ĠL aufen
Ġbeein drucken
Ġn en
Ġgro ssen
Al les
ĠFÃ¼hr er
w Ã¶rter
fur ter
st immen
zu stand
fÃ¼l l
Ġsch lieÃŁt
? !
lÃ¤uf ig
schn eiden
Ġg Ã¤ng
ĠT ax
ĠF akten
Ġlok alen
Ber eich
ĠGew inner
ĠChem ie
ĠRhein land
ĠÃ¼ber mittelt
ho ff
ĠEx trem
ĠKrank heiten
Ġgenau e
zahl ungen
Ġleich ten
Ġr etten
ĠBet on
ĠIdent itÃ¤t
N a
ĠAb wehr
at o
00 3
Ġempf angen
A F
ĠUrs achen
Deut schland
ĠDro gen
West falen
fer ien
In tern
Ã¶l l
7 4
Ġehren amt
re ckt
deut schen
sch es
Ġm g
ĠV illa
Ġbe zieht
ĠDok umente
r as
ti pp
ĠEr halt
ri sten
ti en
hy thm
ĠKarls ruhe
ĠB rau
Ġwei ÃŁe
Ġd etail
wer ber
Ġt raf
b ul
gesetz ten
ge kommen
ĠJahrzehn ten
N ein
ap ter
mit tler
ĠRegion al
v ider
ser n
v i
mu ster
Ġflex ibel
ĠBatter ie
D ienst
ĠS CH
Ġun mÃ¶glich
ord nungs
land schaft
ĠEigent um
Ġbe zogen
verstÃ¤nd nis
.. ...
ĠschlÃ¤ gt
Er st
L og
B S
In st
Ġan sprechen
il a
ĠWahr scheinlichkeit
Ġ q
ĠKrank enk
ĠM P
Ġp art
Ġer setzen
w elle
m s
Ġfol gte
ĠLehr e
ĠD einen
en e
Ġero tische
ĠAll gemeine
m iss
Ġf antast
schl uÃŁ
ĠProduktion s
7 3
St adt
Ġbel egt
ĠMeer es
et ts
Ã¤ ste
ĠF euchtigkeit
Ġverl iert
ĠMen gen
Ġg riech
ĠKlass iker
ter e
ĠS G
ur er
ro man
Ġstatt f
ĠGal ax
ig h
ĠAustr alien
ĠFrÃ¼hl ing
ĠProf ession
ĠBÃ¼ ch
ĠWirklich keit
in str
Ã¤dig ung
ild et
ron omie
fin ale
ikan er
ie ber
ĠNachhal tigkeit
h Ã¤usern
Ġst elle
A V
Ã¼ ste
Ġein sch
Ġbe arbeiten
Ġlang weil
ĠStÃ¼ck e
ĠG Ã¶tt
eite te
ĠKon ferenz
Ã¶ gel
ta sche
l Ã¤ndern
ĠKre bs
ĠZeit schrift
kon ferenz
ĠSchmid t
ĠAn wesen
urt eilen
gr enze
f els
ĠAnf Ã¤nger
Ġbeeinfl ussen
Ġz iel
Ġspezial isiert
el berg
la de
ĠG ymnas
ingt on
ĠT G
ĠWill i
ĠT iefe
w al
al itÃ¤ten
Ġeinge hen
ĠF onds
ĠH P
ĠB enz
m ass
ĠlÃ¤nger e
ĠK rÃ¤fte
att formen
ĠChrist oph
Ġg olden
g s
Ã¼ ht
ĠB och
ĠPh ot
ĠangekÃ¼ndig t
ĠF assung
j o
ĠZ wie
Ġsch Ã¼tzt
Ġwunder schÃ¶nen
ĠA hnung
p ersonen
be griff
Ã¤nd ige
ĠR eb
ge zogen
ĠQu art
ĠIn stagram
D abei
ĠN ic
Ġzu gelassen
beu tel
s hop
Ġattra ktiv
Ġverb reitet
ĠBel euchtung
ĠðŁĺ ī
gl ied
am i
ĠLab or
ĠG Ã¼n
8 3
ĠO f
ĠM uss
ĠKÃ¶n nen
ĠBe zeichnung
ktion s
Ġbeziehungs weise
b io
7 9
ĠAuf sichts
hÃ¤n omen
Ġer weitern
Ġnach t
J o
ake te
ĠSend ung
ter nen
Ġeurop Ã¤ische
ĠL aun
Ġkonkre te
k rÃ¤
Ġv ideos
ĠSp eisen
zens ion
teil ungen
ĠDom ain
ĠAnt on
ĠA st
S c
ĠAuf nahmen
ac y
Ġumfassen de
ĠAutom obil
k Ã¶n
ĠSp ir
ĠRe zepte
ĠHin blick
bl ock
ist et
Ġlie fer
Ġsch lie
ĠOn lineshop
ĠC afÃ©
atur en
Ġpro du
Ġmorgen s
rei en
ĠDe fin
Ġan fangen
ein richtung
ĠN ichts
Ġf rom
ĠNav ig
ĠSympt ome
ĠMatth ias
Ġwichtig ste
Je der
Ġst ill
Ġsonst igen
r el
ĠPrÃ¼f ungs
Ġhinter lassen
ĠJ edes
ist ischer
F ach
Ġum so
ĠAus Ã¼bung
geord neten
Ġbeliebte sten
Ġbesch reiben
ĠD ingen
ĠTri cks
st art
ĠIn telligen
Ġeinzigar tigen
Ġlang fristig
ste ck
cen ter
Ġsp Ã¼ren
ĠErfahr ungs
Ġschein bar
ĠB art
ĠD einer
Ġger ech
Ġbestehen de
Ġabge geben
ĠBundes republik
ĠFl ach
ĠWorkshop s
ĠT ore
k ind
Ġvor sichtig
Ġst eigern
ĠTab elle
dat es
H z
ĠUntersuch ungen
osex uell
P ol
ĠEmpf Ã¤nger
Ã¶s ungs
tifiz ierung
ĠF Ã¼ÃŁe
sen der
Sch n
ĠSmartph ones
ĠGeschÃ¤fts bedingungen
au te
Ġber Ã¼ck
Ġauf gel
auf bau
ĠN oten
ĠV in
br and
eid ung
Ġvers orgt
ĠV Ã¶lker
ĠA achen
du le
201 9
ĠW ag
ĠJose f
ĠÃ¼ brig
ĠLiebl ing
st ant
ĠErweiter ung
ĠBer ichte
Ġ1 10
ger s
ĠIn tens
ĠMin eral
ĠM auer
Ġgef Ã¶rdert
spf licht
Ġsp iegel
ĠKon struktion
Ġwohn zimmer
ĠEurop Ã¤ische
woch e
ĠW Ã¤
am ik
ĠEnt wurf
ĠRe c
A ktu
Ġeh e
Ġ; )
ĠM em
ĠVer wand
Ġk enn
gÃ¤n gen
Ġin fo
ĠAn erkennung
ĠHam mer
Ġor igin
Ġnorm alerweise
ĠTelefonn ummer
nungs zeiten
az itÃ¤t
O K
ĠD J
fahr zeug
om an
Ġausges prochen
ĠB Ã¤ume
Ġbegr Ã¼ÃŁ
ĠInternet seiten
Ġfr ischen
met ik
ĠZ o
Ġher kÃ¶mm
Ġho hem
ĠPerspe ktive
d pa
ĠW alter
ent licher
ĠB utton
Ġev tl
Ġjen er
ant rag
... )
othe ken
ĠG T
ph ase
ur teilt
ph an
Ġp fl
So ftware
schie ben
ĠÂ ©
ĠWer den
sp rÃ¼fung
ĠBr Ã¼cke
Ġvers uchte
spl atz
ĠSt reifen
ĠS eg
ĠS Ã¼ÃŁ
ĠâĢ º
ĠSalz burg
stra te
m es
iz ont
reg ungen
Ġkon k
ĠD ynam
lie genden
Ġentsp annt
M ag
ge gangen
Ġzu stÃ¤ndigen
ĠRat haus
ĠzurÃ¼ck zu
ĠL aser
ĠNachbar n
f ot
ĠEnt steh
ĠD os
so fern
ĠMotiv ation
ist an
Ġbesonder er
ig sten
ĠAuf ruf
gem acht
ĠV orm
Ġinvest ieren
meld ungen
Ġanges ichts
Ġzentr alen
lin der
Ġtran spor
b ungen
Ġn ahmen
Ġgesamm elt
ath ie
Ġer mittelt
Ġp op
ĠHin sicht
ĠAfr ika
C ook
teil s
akter ien
h od
ĠPan or
b em
grund lage
Ã¤ len
ir ur
ĠWand el
m ein
Ġaus s
if est
ĠKo alition
st ock
w etter
ĠA D
r n
ĠSign al
Ġ; -)
Ġsing le
aus stattung
amer ika
ĠPoten zial
l isten
fl Ã¼ss
ĠSch eiben
pf e
K om
Ġgek enn
ĠErn euer
ĠgefÃ¤hr lich
ĠAc tion
ĠL eich
ĠT eig
g au
ĠD ing
ĠK as
ĠK enntnisse
ĠW erner
onder s
sch wei
Ġre chte
Ġdeutsch sprach
ĠTrend s
ĠH ung
Ġseiten s
Ġlie bt
ĠÃľber setzung
Ġgen annte
6 3
rÃ¼ck e
ĠKon text
Ġberu h
zie her
ĠNeu bau
isse ur
ĠSteuer ung
omp uter
Ġv is
lau ch
ĠRech er
ĠZit at
Ġwahr en
ffiz ient
ĠBot schaft
ĠHau pts
6 1
geb Ã¼hren
ĠHo hen
er ung
ĠF icken
u h
Ġd an
6 9
ĠKon s
per rt
8 4
Ġ are
te sten
P art
ĠNe ur
M et
ĠSchau spieler
z ungen
Ġn ationalen
Ġil leg
ĠG Ã¶t
Ġero tik
Ġren omm
b al
Ġausge fÃ¼hrt
ĠgrÃ¼ nen
Ã¤nd igen
ge stellten
ĠAn fragen
kra ine
ĠTick ets
Ġgepl anten
Ġste cken
ĠFÃ¤h igkeit
Ġr ufen
ĠM ul
gn or
ĠZ weit
ah ne
Ġk op
ĠS urf
ĠF ell
8 1
p le
C on
steuer ung
Ġausgew Ã¤hlt
ger Ã¤ten
tre ff
ĠV f
Ġerforder lichen
Ġum gehend
Ar b
Ġ14 0
Ġb loÃŁ
ĠM B
m ung
ĠAb sol
n i
ite d
ĠBe ach
Ġprofession ellen
Ã¤ hnen
aff ung
p assung
Ġerz ielt
ĠH allen
ĠSter nen
ĠB ul
ĠT rag
ĠBr on
Ġsp Ã¼r
ĠEmpf ang
stre cke
Ġall zu
ĠG R
ĠGew inne
Ġauf re
er o
st isch
Ġges unde
6 2
ĠForm ul
Ġkorre kt
Ġd oppel
Ã¼n kt
Ġweit gehend
ĠUnter haltung
Ġverl Ã¤nger
Ġgeb unden
Ġbet ont
ĠSpiel zeug
ĠSor ge
it ch
ĠOptim ierung
p Ã¤dagog
un dern
ĠGr an
-------- --------
Ġfinanz ielle
il s
id ar
ĠVit amin
Ġver Ã¶ffentlichen
et tern
ĠKn ochen
sch Ã¤den
lo cken
Ġanges prochen
ĠK offer
im me
ĠPro be
alt h
ĠProf i
ĠStu hl
k op
ur teilung
bet reuung
ĠZ Ã¤hne
laub nis
ĠMehr wert
In form
ĠF Ã¼nf
wir kt
ĠH ost
Ġerfolg te
Ġgef eiert
ĠHeil igen
Ġange legt
bahn hof
Ġm ieten
ĠKÃ¼ndig ung
b len
ĠSp err
in kt
F alls
ĠS ho
ĠS us
ĠTo il
ĠEr mitt
gr Ã¼nde
Ġbesch rÃ¤nkt
Ġ199 7
ĠRu hr
em ark
ĠMan gel
G l
Ġf Ã¶rdert
ĠM ol
Ġerforder t
bestimm ungen
ĠSt rei
ĠGebur ts
K ont
um b
ĠOff ice
kom fort
rin t
pl emen
ĠOtt o
Ġger e
W ei
b und
ĠberÃ¼ck sichtigen
ut ung
ĠDesign s
ĠVer w
Ġver wei
ĠStud ierenden
ĠM ex
ĠChe ck
Ġabgest immt
ĠF ax
ĠBes ser
D is
W ohn
arch itektur
Ġkon zip
ĠMerc edes
ĠAnt rieb
ment s
ĠAnge legen
ĠT ieren
ĠK und
Ġumfang reiche
Ã¶n t
Ġsch Ã¤tzen
ĠEurop e
ager ung
lo gen
ĠDe cken
ar be
Ġelektron ischen
Ġ5 1
ĠMann schaften
ĠC ons
mann s
B au
Ġsol ch
Ġkon stru
I ER
ĠT hre
h st
Ã¤ le
ĠNach folger
ĠErinner ungen
ĠkÃ¼r zlich
ĠEr zÃ¤hl
ad resse
ehr te
ech anis
ett o
zei tige
Ġverschieden sten
ĠVerkauf s
ĠwunderschÃ¶n e
Ġl auf
on te
ĠStre et
Ġro te
kont akt
ĠUn abhÃ¤ng
B M
schu h
Ã¶ tet
a is
voll es
ĠZur Ã¼ck
Ġst ehe
l assung
w unsch
ri x
ab teilung
Ġbed ienen
ĠWÃ¼n schen
euch te
li ver
Ġbe wertet
e ber
Ġkonk reten
Ġd rÃ¼cken
ĠK ok
emen ten
ĠB an
Ġauspro bieren
ĠBo ots
= =
g ast
ir ma
il ch
Ġbe ge
Ã¤ ud
Ġaus gesch
her m
gef unden
kt op
Ġrei sen
geb Ã¼hr
R ad
ĠKreativ itÃ¤t
ĠSch atz
ĠHand lung
ĠHei zung
ĠG E
ĠL G
Ġs au
ĠFar bt
Ġan passen
ĠStaats anwalt
w in
B en
u he
ĠAma teur
Ġeinz eln
arr y
Ġeinge fÃ¼hrt
ab len
L i
ĠC omm
ĠEr Ã¶ffnung
Ġander erseits
ĠVoll zeit
ĠAmer ika
ĠS uchen
for n
zeit ung
Ġaktiv e
G ruppe
ĠNa gel
Ġreag iert
ĠD Ã¶r
ĠM ahl
ler s
bereich en
ĠBeg leiter
Ġ5 4
Ġange fangen
Ġf in
ges ellschaften
ĠSo fern
ĠSo weit
Ġmobil en
Ġ Ã¤ndert
ĠGr and
r sg
ĠAn wender
Ġfr ische
ĠGeh Ã¤use
ĠĠ ĠĠ
Ġ org
us sten
Ġmit hilfe
ĠKÃ¶nig s
qu ellen
Ġ ende
mal en
p rechen
kret Ã¤r
sted t
ĠgewÃ¼n schte
Ã¤mpf ung
z Ã¼ndung
ĠSt ufe
Ã¤mpf e
ĠNamen s
Ġaktiv en
ĠC olle
ĠMit teilung
ĠRed aktion
ĠN ahrungs
m esse
Start seite
G anz
l ein
un sten
qu ote
T rotz
ĠH ub
Ġ( Â§
Ã¶ sterreich
ÃŁ ig
Ġorganis ieren
Ġauf ger
Ġerw achsen
emin ar
ĠÃĦ hn
ĠRe port
ar z
W or
k ette
ĠP fe
ik i
k leider
ĠAn sonsten
Ġw echsel
ĠH all
ver antwort
ĠB rit
re st
ĠC op
lehn t
rie ster
ĠBi bliothek
ĠBe kl
Ġs l
r ent
ĠSpiel s
ĠSt or
ĠspÃ¤ter en
hei zung
Ġy our
ĠK ammer
enk orb
ĠJournal isten
Ġauf einander
ĠEx pl
ĠSp ark
behÃ¶r den
k rit
ĠA pfel
un en
kle ber
g g
ĠL iv
ĠK ath
ĠJahres zeit
ĠBi bel
ĠÃľb rigen
f ehler
bet eil
ver n
Ġbegr enzt
ĠMÃ¼n chner
ĠIS O
ĠT eu
Ġe ffizien
ĠJe ans
ĠSch Ã¼lern
Ġmen schen
ĠInstitu tionen
ĠO ma
ĠBeteil igung
ĠPlast ik
Ã¤r zt
Ġdre ht
Ġ5 3
am burg
ĠHalb zeit
el emente
ĠC ur
ĠAmb iente
C E
Ġvor ab
ein heiten
Ġbe fÃ¼r
Ġgemein t
ĠVer ordnung
ĠBer ge
l ohn
Ġf Ã¼llen
Ġ1 30
Ã¼t ung
lehr er
ĠS obald
ĠK iel
fre unde
br em
ĠGesch Ã¤fte
rist all
me er
ti scher
Ġ199 6
r imin
ge legen
Ġgesch nitten
ĠIn iti
ĠIr gend
ĠSch ein
Ġlie st
ĠLein wand
ĠX X
y al
ĠSo fort
ha fter
ĠBelast ung
Ã¼ hlen
ac ebook
ĠB lei
Ġlang frist
Ġsch merz
ĠP L
et ik
Ġfinanz iellen
ĠÃ¼berra schen
ien sten
mod elle
ra tet
ĠTour en
it as
Ġv ierten
ĠgroÃŁ em
à ¸
ĠMount ain
O G
] .
kehr en
ĠMu schi
ĠsorgfÃ¤l tig
ĠPl Ã¤ne
N E
ĠGen ehmigung
âĢ Ķ
ĠKur se
ĠF A
Ein en
ĠF ritz
Ġent nehmen
gr Ã¼nden
ĠF eiert
k la
de st
and o
F e
Ġdem okrat
Ġdah inter
ĠerlÃ¤uter t
ĠAuf bew
s Ã¤u
sch eibe
Ġzerst Ã¶rt
ĠWeiter entwicklung
ĠErk enntnisse
Ġzusammen gestellt
ĠSch Ã¼tzen
ĠM inder
ĠF oren
Ġer zeugen
uÃŁ ball
j acke
ĠKÃ¤ se
Ġbe c
ĠÃľ bung
Ġver sp
ĠK f
ĠS in
F est
ĠPro je
sch eiben
Ġzust ande
B uch
ter min
ĠB d
Ġwissenschaft liche
Ġf eiert
Ġs ech
Ġ7 00
spro chen
iz ierte
f arb
lei ste
Ġwahr e
ĠArznei mittel
ĠOb jekte
in fo
ĠPartner schaft
Ar ch
lei tet
Ġpro duzieren
l eiten
c ort
Ġ Ã¶rt
Ġ( *
Ġpro gramm
prÃ¤ sent
war tet
op tim
t yp
ĠAn regungen
Ġhal be
Ġm l
ĠL ind
geg nung
der e
Ġunter liegen
Ġgeh Ã¶r
tember auben
ĠPsych ologie
ĠMathem atik
B ox
Ġsh ort
ĠDeut scher
ag ern
ĠM ission
Ġerleich tern
p rakti
gehen de
ein igung
olog y
ĠBehand lungs
g ess
Ã¤n glich
Ġth at
ed ig
Ġs c
ĠA S
deut schland
ĠBeg leitung
Ġgu tem
F F
enn er
Ġra sch
Ġvor geschrieben
ĠMain z
ĠSl ots
Ġwes entlichen
leb nisse
Ġgeb rauch
ĠTrans fer
Ġwirtschaft liche
ĠAn leger
K urz
ĠAugen blick
ĠT um
Ar tikel
ĠVor jahr
ĠDaten verarbeitung
ĠIs land
b Ã¶
ĠB E
Ġk Ã¼nf
V G
P U
Ġ rÃ¤um
ĠH Ã¶l
ĠGeheim nis
ĠÃľber setz
ĠÃ¼ber geben
ĠR eit
ak ult
ĠC lau
ymp ath
D ER
ĠMÃ¤r chen
ĠAk ademie
il i
ĠE leg
z iele
ĠB ogen
Ġ199 5
m ont
Au ÃŁerdem
b an
gl Ã¼ck
ĠE ich
Ġtran s
ĠAus gaben
ĠW C
ĠGe pÃ¤ck
ĠStandard s
arbeite ten
Ġarbeite te
Ġte st
ĠErfolg s
Ġfest gelegt
ĠDurch schnitt
Ġiden tifiz
Ġqualit ativ
ĠTest s
le hnen
Ġs age
ĠBÃ¼ hnen
ã Ģ
Ġan gesch
Ber eits
t age
ĠSch al
Ġinner en
Ã¤um t
ĠSum me
um e
Ġ arbeits
ĠWar te
ĠEigen tlich
ĠGener ationen
ĠS AP
ĠÃ¶sterreich ischen
ail le
ĠVerein barung
ach r
unn el
ĠHier zu
ĠtÃ¤ gliche
T R
ĠLauf zeit
ĠVorstand s
Ġvor behalten
Ġaut hen
fol gung
M arkt
ĠVerb indungen
schein end
ĠSuch maschinen
verband es
ĠCon tent
Ġdeaktiv iert
zent ren
ĠTre ppen
ĠChrist us
s al
on om
ĠModern e
stud ium
ĠFlie sen
ĠPrÃ¤ sidenten
Ã¤nger ung
spar enz
ĠD ol
ĠR Ã¤um
Ġab sch
amm ern
ne ter
ĠIns eln
ĠPaar e
ĠDar auf
ĠAutor in
ĠRes pekt
ĠJ ak
ĠÃ¼berprÃ¼ ft
ĠB om
ĠFÃ¼hr ungsk
Ġfal sche
Ġunn Ã¶
ĠBesuch ern
ĠÃľber nahme
ĠNatur schutz
k abel
Ġpf legen
Ġd icht
Ġl asse
Ġzeich nen
ĠB ischof
ĠDipl om
a ste
ĠS ant
ach im
ĠSp ez
w el
Ġzur echt
ĠEmpfeh lungen
ĠSt offe
B B
ĠLaut sprecher
ĠBeteil igten
L eben
v enz
ĠZ ell
z Ã¼nd
ĠK ey
ĠPass wort
p ost
Ġn amens
ĠP ots
Ġhal ben
st he
Ġper man
Im mer
Ġaktiv iert
Ġc om
ĠR as
vier tel
E ner
ĠVerm ieter
ĠMan chmal
Ġer richtet
Su per
ĠRe form
Ġletzt es
d om
k enntnisse
Ġkon kret
herap eu
her z
Ġs elt
ĠLe on
Ġun ber
ĠEr folge
schnit te
ĠD F
ĠMÃ¼ he
Ġaufge fÃ¼hrt
beit rag
Ġbe z
Ã¼t ze
ĠHal te
ĠO S
Ã¼nde ten
och t
ah me
auf nahmen
ĠBestimm ung
meld et
Ġst re
ĠWissen s
ĠFor st
weis ungen
ĠM Ã¤d
ĠAn g
bl Ã¤tter
m utter
Ġbemer ken
ĠBedien ung
Ġger ingen
u ster
ĠSchu b
Ġch at
ĠGer Ã¤u
D anke
ĠD ate
iet ung
Ã¤ng nis
ĠK assen
ĠUm zug
Ġp ubl
ĠMag azin
ĠKr ise
Ġle gend
lie be
ĠP ast
ers atz
ĠJob s
Ġwert volle
Ã¤ÃŁ t
ein igt
Ġum gehen
Ġdies jÃ¤hrigen
ĠKÃ¶r pers
Ã¼r tel
ĠH Ã¤uf
ĠSa una
ĠUm frage
ul Ã¤ren
Ġp ur
inder ten
ĠFlex ibilitÃ¤t
W ill
Ġt rag
rei bst
ĠRicht linien
P O
ĠM au
Ġdisku tieren
ĠW inkel
ĠBezir k
ĠKont roll
Ġsol ches
f ass
Ġbet reut
ĠstÃ¤r k
ĠI M
ĠPr im
Ġg reift
l ist
ĠF DP
ĠD Ã¤n
ĠSchÃ¶n e
an y
Ġor iginal
ĠSch lu
Ġinteress anten
ĠvielfÃ¤l tigen
cy c
K ann
P R
ĠSchles wig
ekt ak
P A
it sch
anz ig
K n
Che f
Ġun angen
Ġum geben
aust ausch
ĠVorsitzen de
recht lich
Ġkonzentr ieren
Ġst Ã¤d
urch t
Ġ ....
Ġbeant wortet
J ugend
Ġhervorragen de
Ġl ern
ind ungs
gefÃ¼ gt
Ġdar stellt
ĠAr tikeln
N A
st ritten
M ich
f as
Ġerst klass
r ischen
ĠM ama
Ġz auber
ĠGegen stand
Ã¶r g
ĠN ation
ĠFerien haus
ab or
ar io
Ġo ut
ĠJed och
ĠS ich
ĠE ffizienz
ĠRe chen
alte ten
wohn ern
Ġerreich te
ĠAuss ehen
aus gabe
gr ammen
Ġries igen
s ive
ĠOper ation
ĠForm el
Ġan statt
ĠF inden
Ġrecht lichen
ĠKl einen
ĠVor schlag
att ung
Ã¤cht nis
ĠVor gÃ¤nger
ĠSk y
ant es
tag es
ĠNach weis
Ġbec ause
Ġwor auf
Inst itut
v it
ĠKant on
fahr ungen
ti ven
ĠBl Ã¤tter
ĠGraf iken
ĠD IE
scha den
akt oren
Ġ199 4
ĠSchn eider
t al
ĠR eiter
Ġab ger
p unkten
Ġdes cription
Ġb aut
ĀĀĀĀĀĀĀĀ ĀĀĀĀĀĀĀĀ
Ġ ï¿½
stud ien
ĠAb st
Ġnachhal tige
Ġd ownload
Ġant worten
Ġdefin iert
ĠWol ken
k leid
ol en
wei g
ĠWahr nehmung
ol and
ĠBeg eister
Ġklein eren
wir ksam
V B
ĠÃľberra schung
ĠK ult
ĠSch rank
Ã¼t ten
zus agen
ĠB rie
Ġ6 8
ĠFreund schaft
st ufen
ĠAb wicklung
re chn
Lie be
ĠberÃ¼hm ten
ĠPosition en
Ġs Ã¼ÃŁ
gen Ã¶ss
Ġangeboten en
ĠEn ts
ĠCH F
auf wand
Ã¼ hl
H ome
ob b
ĠSex kontakte
Ġ ass
Ġbelieb ten
Ġgesch Ã¤ft
Ġsch arf
ĠBras ilien
ir ge
ĠIn se
stra hlung
ĠInform atik
ĠArchite kten
rau chen
ĠGeb Ã¼hr
ick el
Ġd aten
Ġv an
ĠFlug zeug
iter atur
ĠAuftrag s
ĠKat astrop
Ġbegr Ã¼ÃŁen
Ġgelten d
H S
Ġbes ei
Ġspann enden
Ð »
ak u
ĠM Ã¶n
u ÃŁer
Ġausge hen
ĠWÃ¼r de
Ġbeob achtet
verein s
gerech te
re al
ĠK alk
ĠT rÃ¤
ĠMax im
ver treter
schaff ung
as y
ech er
ĠHer mann
tel le
? )
ĠK oll
Ġdamal igen
k am
be kommen
san ierung
be zir
Ġber ichtete
ĠRu cks
Ġbe ster
ĠGesetz e
Ġpolit isch
Ġan fang
Ġd oppelt
re den
Ã¼t tel
ĠVerd acht
aus wahl
Was ser
ĠL oc
Ġs amt
Ġdur ften
Ã¼n chen
Ġum zu
Ġgr Ã¼nd
Ġheu tige
ĠMann heim
Ġvor Ã¼ber
ĠMensch heit
S k
Ġnachfol genden
ĠTick et
Ġh eutzutage
te ste
Ġm echan
Ġgrund legen
P D
Ġgeh eim
ĠStart seite
ĠTele kom
ĠLei b
Ġleist ungs
Ġl eise
wei ler
Ġa c
ĠUN D
Ġkl asse
ĠSchicks al
ĠErd be
ĠM S
Ġen er
On line
eto oth
Ġver spricht
b ig
K unden
sch rau
T op
Ġm a
ĠKontakt formular
Ġjahr el
ĠMittel n
ĠU kraine
ĠGer Ã¼
S icherheit
Ġab s
ĠTra ck
ĠNieder lage
Ġver p
Ġab geben
Ġein richten
um p
T est
f ab
au ten
ĠAus wertung
ĠMomen te
eh er
ĠN u
Ġauf gestellt
dis ziplin
m Ã¤nn
el and
w itz
st eht
Ġser i
Ġf it
anz t
Ġan onym
ipp e
Ġb ot
Ġet h
ent sprechend
ĠVis ion
ĠBewer ber
Ġwar men
bes itzer
ĠKr im
ĠWei s
ĠErkrank ung
f rÃ¼
z essen
ĠEreig nis
w etten
geb ieten
ĠEr hebung
Ġkor rig
ath on
Ġst ation
ĠJ ens
mel de
Ġge g
Ġange ht
Ġentscheiden d
Ġk ar
ol oge
le chter
Ġeinz us
orien tierte
ĠBil anz
Ġl Ã¤ÃŁt
ĠA U
Ã¼st et
ĠT ot
ĠV eg
ĠInd ien
ha ar
Ġk rei
ĠFrei will
Ġerkenn bar
Ġmoder ner
inde x
ĠServ ic
ĠAp art
ĠTrau er
Ġunver gess
Mail s
Ġopti sch
ĠGast ronomie
ĠTeil nehmern
ĠD R
Ġakzepti eren
Ġausgew Ã¤hlten
ĠVerpack ung
ĠLiefer anten
ĠNerv en
h Ã¶rt
ĠBuch ung
Ġabsol ute
Ġschme ckt
an al
o be
ĠRÃ¼ck kehr
ver treten
ĠVerfÃ¼g barkeit
K at
ĠK Ã¤lte
Ġschwer er
ĠBeweg ungen
Ġmil itÃ¤r
Ġerk unden
ĠRe kord
mungs aktiv
Ġw ild
Ġunter scheidet
Ġ euer
ĠKind heit
ĠBud get
ĠDiagn ose
U L
z gl
Ã¤t sel
ĠBeschÃ¤f tigung
ĠAu ÃŁer
as mus
Ġex per
ĠAnder s
ĠgemÃ¼t lich
ĠNutz ern
f reude
w eb
Ġgew al
ĠO ste
ĠDie sen
Ġgelten den
sp itze
Ġbe zeichnen
ĠkÃ¼ m
ir che
ĠO P
Ã¤h le
Ġmedizin ische
ĠSchul den
ĠGroÃŁ teil
k rie
Ġgepf legt
ĠFor derung
ĠJe den
ĠausfÃ¼hr lich
n te
Ġb innen
len burg
P lay
ĠAn im
b inden
sk osten
etail s
ĠÃ¼b lich
v arian
Ġo ff
fer tig
ĠChr isten
Ġelektron ische
r end
ĠFrank furter
Ġangeb racht
Ġgesellschaft lichen
ĠPfe ffer
verb indung
lÃ¤nd ische
Ġ6 2
Ġleben s
ĠF lo
Ġr eine
Ġerhe ben
ĠAtt ra
Ġregion alen
ĠFeed back
H K
ik te
gen ossen
ĠPlan eten
end orf
ĠW ehr
str ich
Ġoffiz ielle
ĠPro test
lei den
ĠBef rag
Ġl ernt
ĠEing abe
ĠEigent ums
Ġg alt
aus stellung
meister schaft
Ã¤ ppchen
ieÃŁ t
ĠvielfÃ¤l tige
ĠZer tif
ĠS eil
ang aben
S cript
ĠKan al
ĠStadt teil
âĢ ĭ
A ch
p ut
str asse
alis ierte
Ġbeh Ã¤lt
ĠMÃ¼l l
Ġgegen seitig
wÃ¼r fe
ber gen
ehr ung
H abe
ĠAr men
ĠWeiter en
âĨ ĳ
Ġsch ar
k et
ĠDiskuss ionen
Ã¤dig t
is ser
ĠO pp
Ð ĵ
ĠHÃ¶he punkt
Ġf ried
ĠG Ã¼nst
k g
Ġvert raut
ĠverstÃ¤nd lich
vol umen
Ġsen si
ĠBereit stellung
Ġl ux
Ġd icke
Ġmaxim ale
F C
ĠnÃ¤ch stes
Ħ ¢
ĠT oten
ĠBoch um
ĠNot fall
l ar
ur i
Ġj etz
ĠEinschrÃ¤n kung
p oten
ĠL as
ĠSch uss
Ã¶pf ung
ĠM osk
Ġ16 0
ĠRich ard
funktion en
ĠR al
ĠTe ppich
b ahnen
ĠE u
Ġsch ade
Ġschle chten
ĠJ ac
' ,
sei tigen
ĠDis ziplin
ĠSen der
ĠT schech
Ġd igital
ell os
ĠW att
Ġdurch ge
Ġoptimal en
T A
ĠB einen
ĠJ og
ĠPerspe ktiven
ĠD ER
ĠKat alog
ab wicklung
ĠAus blick
ĠSyr ien
ĠArme e
om er
E ben
Ġsch laf
f onds
ĠGer ichte
h ier
ĠBegr Ã¼ndung
ĠChar me
ĠBe cken
ĠCh a
Ġvorlie genden
Ġzeig ten
lin k
Ġger inge
Ġrein igen
Ġtradition elle
M ann
ĠTechn iken
ĠT opf
ĠMittel alter
ĠGi pfel
ĠiP ad
ĠUnter halt
ĠPartner suche
ĠLe ague
Ġs yn
fahr zeuge
Ġinner e
z ungs
Ġges ichert
ĠInvest itionen
Ġsch aff
ĠEnt sch
Ġro bu
ĠVers ionen
Ġerlau ben
ĠS oll
ĠBe fest
ial is
Ġzu kunft
Sch w
s Ã¤tzen
ri pt
200 7
Ġbehaup ten
ĠRÃ¼ck seite
ĠKontakt daten
ch ron
f iz
ĠL ine
Ġ5 8
w ider
f lie
ĠK ub
Ġe uren
ĠVor haben
Ġjung er
bro chen
^ ^
ĠM un
Ġoptim ieren
Ġj ugend
Ġein setz
ĠÃĦ gyp
Ġneg ativ
Ġries ige
Ġgibt s
ĠD I
ĠH ex
roll er
f ein
k redit
ĠZuf all
ĠElekt ronik
inst itut
Ġ3 60
Ġgegen wÃ¤r
recht liche
Ġex ternen
c ol
ĠAug sburg
ĠE v
ĠUlt ra
ĠBet r
bed ien
Ã¤t te
ss lich
j i
Ã¤t tern
a ffe
ĠKal i
wor te
ie tet
Ġ19 80
Ġvert eilen
Ġreich lich
Ġk omm
St raÃŁe
mÃ¤ÃŁ ige
ĠKl icken
ent in
ash ion
ĠF un
be arbeitung
ĠPart nern
Ġle g
ĠTem po
ĠSpiel ern
ĠArg ument
ober flÃ¤che
ĠK aufen
ĠEin haltung
Ġprofession ell
o cken
or se
Ġstra hlen
Ġherr scht
Ġt reiben
ĠT omaten
ĠT Ã¤tigkeiten
ilde te
ĠGerman y
es p
Ġf re
ĠR Ã¼
ĠSpr ung
Al ler
ir ektor
ĠTher m
ind el
veranst altung
L aut
Ã¤n gern
pf ung
Ġ9 00
ĠProvin z
an schluss
ĠS MS
ĠgewÃ¼n scht
ĠVerpflicht ung
Ġin dustr
ĠTre ffer
ĠSk la
Ġbew Ã¤hr
bel ast
ĠDach beschichtung
Techn ologie
Ġn ackte
fest e
Ġbe eintrÃ¤ch
ĠTr ennung
ĠEmpfeh lung
rot t
ge halt
af tet
ĠO fen
ag ert
ĠAr n
og rafen
Ġ> >
Ġ7 2
land es
Ġsp ektak
gesch ritten
Ġumfassen den
schnit ts
ĠEntsteh ung
ĠOl iven
Ġumfang reichen
ĠFernseh er
drÃ¼ck en
ad d
p aket
ĠSchw Ã¤
ĠGegen stÃ¤nde
t ro
Ġs onn
Ġunter halten
jen ige
ĠP in
ĠEr hÃ¶hung
ĠImpress um
ux e
ĠD M
b rief
ĠSchl acht
Ġge fÃ¼llt
Ġ( âĢ¦)
Ġkurz fristig
produ kt
ĠBe gegnung
aut y
ĠSch all
Ġge fordert
r asse
Ġver ring
ĠAut omaten
Ġw Ã¶ch
ĠA C
geord nete
ĠPrin t
ĠVerl etzungen
p end
ĠHand buch
Ġfl Ã¼ss
ĠSp ons
Ġw aschen
sch ild
T H
Mod ell
ĠZwe cken
p riv
Ġ che
med ia
Ã¶ pfen
Sh irt
Ġ- >
ĠÃ¼berra schend
hÃ¤n gt
Ġruss ischen
Ġver Ã¤nder
ĠSa al
Gesch Ã¤ft
ĠDir e
ĠEing riff
ĠBern d
gel Ã¤nde
ĠKÃ¶l ner
Ġen ger
schlieÃŁ t
ĠVerf assungs
3 00
ĠP hÃ¤nomen
Ġ20 20
Ġgeb ucht
ĠCar l
Ġtyp ischen
Ġfal schen
k uchen
ĠIm mun
freund lich
ĠKor rektur
Ġv eg
Ġge laden
st unde
Ġbed anken
spro zesse
ĠKÃ¼ ste
veranst altungen
ĠSpekt rum
Ġbe arbeitet
ĠFot ografie
irur gie
war ten
Ġmehr mals
si ver
ĠT it
mer kt
abet h
ĠN Ã¤hr
wander ung
Ġunkompl iziert
beh alt
ĠDom in
D ollar
w anne
re geln
ĠmÃ¼s st
Ġseit dem
ĠC ast
ĠGr Ã¼ÃŁe
Ġl eiten
system s
ĠStu dent
ec ial
V P
ĠAus fÃ¼hrungen
ĠWar enkorb
r ung
ut her
g or
Ġbe weisen
Ġerle digt
ĠBe ge
ĠZ elt
ĠS y
Ġqu er
ĠBo hr
s icherung
Ġbest and
ĠFle cken
Ġattra ktive
spr achen
Ġbein ahe
ĠAn kunft
sam t
Ġf eine
vert eidig
le kt
uss ion
ĠN ackt
ĠSchreib tisch
n orm
Ġw h
ĠT ob
Ġerleich tert
spro du
all y
ĠHe ft
Ġb ad
mit ten
ar ien
ĠT onnen
ah nung
an sprÃ¼che
Ġdem nach
Ġmin im
ĠZ e
Ġi gnor
Ġbek ommst
af rika
we en
ĠBest Ã¤tigung
klÃ¤r ungen
ĠOrg an
ĠFerien wohnung
Ġverlei hen
M ir
ĠEur e
Ġlang jÃ¤hrige
ĠWar m
ĠÃĦ uÃŁer
Ġverk nÃ¼
Ġvers uche
ĠDe cke
Ġm essen
ĠBet ten
ĠW Ã¤l
Ġver eint
wei len
ĠKn opf
ĠGl anz
Ã¶ ÃŁer
ĠVert rau
ĠDienst leister
ĠLeit ungs
zwe ck
ĠGesch enke
id o
upp ert
bew usstsein
B as
Ġabge legt
Ġrezept frei
P ress
n Ã¤chst
ĠVers orgungs
sol venz
Ġw ollt
Ġnotwend ige
Ã¼ bt
ĠKolle ktion
ĠK lage
Ġan nehmen
ĠHaus halte
Ġsicher zustellen
ĠDar lehen
ĠSch ach
IN E
O ut
re gung
u a
ĠSp ass
ĠÃľber tragung
F rank
bild et
ĠF air
Ġanerk annt
ĠRes ult
deut sche
sert ation
ĠMobil itÃ¤t
ĠAuseinander setzung
Ġ5 9
ĠEt was
sch ritte
Ġgew achsen
ĠLe vel
ĠC at
E d
ĠL ob
Ġa temberauben
rei de
ĠBe vor
p ause
men gen
Ġkontroll iert
ĠAltern ativen
ĠB ass
l Ã¶s
gr Ã¶ÃŁen
Ġunterschied licher
ĠS eh
Ġgehol fen
g ungen
Ġun ent
Viel leicht
Ġt rafen
ĠDek o
ĠMag net
k reuz
Ġsan ft
Ġg eilen
AN D
ĠAbend essen
Ġkombin ieren
lÃ¤ ufe
ĠV el
uss y
Ã¤r chen
ĠAuft akt
ĠVorsitzen der
ĠAn bau
Ġi OS
ĠT herap
Ġr unden
ĠGro ss
Ġech ter
ĠStat istik
er er
ĠM all
Neu e
ĠT en
k al
ĠGalax y
PrÃ¤ sident
Ġp ort
rie s
hard t
Ġ6 9
Ge w
h ers
ir ch
ĠAG B
ĠAc count
he ft
unter lagen
ĠSport ler
Ġr at
ĠT auch
ĠW Ã¤nde
Ġgekenn zeichnet
f ord
st i
ĠS U
ĠR unden
Ge gen
ĠS W
it ute
Ġpr im
ĠfÃ¼hl te
Ġk lappt
Ã¤m mer
hab e
in gend
Ġkon f
ĠJ on
ĠBe zahlung
Ġzahl t
ĠH as
son st
ut in
Ġgeh ei
ĠMon itor
ĠD A
Ġh arten
ir gend
ĠC le
gesp ielt
Ġst ieg
Ġmedizin ischen
Ġf erner
ĠÃľber gang
Ġern euer
ĠErgÃ¤n zung
ĠNe um
B ez
Ġan dern
Ġo ption
t ran
sen s
ĠSte phan
Ġstet ig
ĠRei s
mar ken
Ġhoff entlich
ĠEm o
ĠStrate gien
flÃ¼ gel
â Ħ¢
ĠPort ug
ĠBewerb ungs
kl icken
Ã¤u den
Ġsch reibe
lu ste
ĠDein em
Ġmensch liche
Ġver halten
ĠursprÃ¼n glichen
ĠNorm al
ĠKandid aten
ĠEr sch
ĠJahr gang
ver lauf
Ġunterschiedlich sten
T ipp
ĠHel den
Ġitalien ischen
ĠM ent
Ġbeeinfl usst
Ġle uchten
F oto
ĠRechts anw
Ġger ufen
k asse
ĠAngebot s
ĠReg isseur
ĠKn o
ei z
el a
ĠSal at
ĠDir ektor
R L
end el
ilde ten
Ġfrem den
ĠReiÃŁ verschluss
ĠK ie
Ġab gesehen
c ia
Ġab schlieÃŁen
Ġ9 78
il en
ĠAb stimmung
Ġun end
ic an
ĠCo uch
ĠVer stÃ¤r
y wood
Ġas iat
ul ette
Ġan stren
Ġexist iert
Mus ik
and al
ĠSpiel tag
Ġkom merz
ĠSch icht
Ã¤u schen
eid igen
T our
Ġhinter her
ĠW eile
ĠV ER
;;;;;;;; ;;;;;;;;
ĠSing leb
Ġd ram
ĠB akterien
ĠKontakt aufnahme
ĠImmobil ie
ĠG n
ĠR Ã¤umen
Ġengl ischen
ei fen
vor schlag
Ġgesch lagen
Ġkre ative
sche f
Ġdank bar
bes uch
ĠT uch
Ġauf w
pl Ã¤tzen
d lichen
abl etten
ĠkÃ¼ che
ĠSeiten sprung
Ġmer kt
Ġzu greifen
ĠR asen
Ġ19 45
ĠRu br
r ise
ĠEin mal
Ġren ov
ĠDu sch
ste ckt
Ġdarauf hin
ĠCo ver
ĠHe ck
Ġliebe voll
ĠR am
Ġel f
verb ot
ĠJ ames
Ġan fallen
ĠG elt
sent wicklung
Ġf lei
ĠMan che
ĠGef Ã¤hr
ĠMus ic
ĠM ur
lie gt
Ġverlei ht
Ġbel ast
ĠAr mb
le hre
Ġaus gesetzt
Ġ199 3
ĠÃĸff nungszeiten
und et
ĠKon sum
d ro
echs lung
ĠAufent halts
ĠK ob
s eller
ĠKl etter
ĠUm kehr
ĠM w
Ġzu zu
Ġs olle
ĠVert rÃ¤ge
B i
Ġeinzigar tig
is ation
Ġbehaup tet
is burg
sp uren
Ġerfahren en
Ġun besch
ĠSan ierung
ĠHum or
Ġfreiwill ig
ĠAccess oires
Ġteil te
wand el
ĠE C
ĠBegeister ung
Ġb lock
Ġver hei
iv es
Ġgem essen
stud io
ĠVer mittlung
ĠBlu etooth
ĠF raktion
Ġk an
ĠInvest oren
ĠZin sen
ĠGes ichts
ĠAb sch
Ġgeh Ã¶rte
ĠWor k
ĠM essen
om o
ĠKo hle
ĠSchul jahr
d ner
ĠKomp etenzen
Go ogle
ver mÃ¶gen
Ġ5 7
Ġb lu
iele feld
ĠVol umen
Ġum setzen
ĠM ale
co in
ĠSt eiger
g eist
Ġein drucks
Ġh Ã¶rte
Ġbes etzt
B el
Ġn eutr
Chr ist
Ġ199 2
ĠL ou
ĠTem pel
ĠMill ion
Ġer l
ĠDeck el
ĠH ass
Ġrie f
empf eh
Ġver trag
Ġm ore
Ġkl aren
Ġeinge gangen
Ġs ilber
Ġst euern
ĠDienst leistung
Ġ9 6
Ð º
as on
ĠL etz
ĠIntern ationalen
G VO
p raxis
z burg
ĠK etten
ĠWeiter gabe
se ud
geord net
Ġeigen tlichen
ĠwÃ¼n scht
ĠÃ¼ber lassen
ĠC all
ĠVor schlÃ¤ge
b raun
ne e
iss ionen
ĠAuf klÃ¤rung
am ts
ein gang
gl anz
ĠVor bild
pp er
ĠF inn
ĠM ilf
H rsg
Ġneu gier
ĠSo fa
ĠTran sparenz
Ġhier mit
ĠBegriff e
Ġendg Ã¼ltig
ĠM achen
Ġges onder
ur ity
ĠMeld ung
Ġ6 3
Ġzuk Ã¼nftig
ĠBr uch
ĠFrÃ¼ chte
Ġhei sst
Ġlangweil ig
Ġz we
ĠZ ir
W erk
at hl
Ã¤rt ner
Ġg Ã¼ltig
Ġph il
Ġein ander
ĠKon zepte
ber eitet
ĠDes wegen
ĠSt d
ĠDarm stadt
c ts
anz er
m ach
Ġkompl etten
ĠL ay
ĠT ast
ier st
F i
ĠKommun en
hand els
ĠE L
T o
un i
Ġb elegen
der te
ĠOl d
gesch n
ĠL Ã¤rm
ĠEin leitung
h ilfen
ĠSt ore
ĠF R
Ġbrit ischen
omm ern
am eter
ĠUn garn
Ġh ilfe
Ġan halten
re gen
ĠSil v
ĠStad ion
ate d
Ġzum al
ĠL enk
Ġchar akter
r atze
Ġs ympath
ĠJ acke
wei f
Ġverz ichtet
Ġregistr iert
zieh bar
Ġgebe ten
ĠBra unsch
ĠSch ad
ĠSch rauben
ĠSchw ein
ĠKompl ett
Qu alitÃ¤t
ĠGut es
P artner
ĠPro mo
o den
Ġn Ã¼tz
Ã¤ her
sch on
ĠH ut
Ġgew Ã¤hrt
Ġange meldet
a e
Ġf amil
Ġ01 80
br Ã¼cke
ĠFla sche
ĠH orn
ĠD ist
Ġk ochen
ĠTro ck
Ġgel angt
yl l
ĠDie ter
Ġein wand
ĠÃľb ungs
Ġzu fÃ¤llig
Ġst arb
Ã¤l tigen
ĠIm age
yl on
Ġverschw unden
ĠEisen bahn
Ġt iefen
Ġtrain ieren
Ġf Ãĥ
ĠSt ufen
p ed
ĠM isch
ĠLux em
ĠUm bau
ĠThÃ¼r ingen
Ġgel Ã¶st
Ġgest attet
O B
ĠKass el
ei f
ĠErsatz teile
Ġspont an
it at
Ġauf weisen
H err
ĠB B
Ġber Ã¼hrt
ĠBl itz
ĠBest ehen
Ġfest e
ĠIn haber
Ã¤ud es
ing ern
EL L
ĠK issen
schl oss
Ġges unden
ĠFr isch
ĠÃľber leben
Ġganz heit
wie s
ĠLie ben
ĠNacht eile
ĠMod el
n Ã¼tz
Ġgesp eicher
ĠC E
bezogen e
ak s
ĠHon ig
ĠBeam ten
m otor
spro blem
Ġex akt
ystem e
ĠT ool
ĠInter pret
gien e
ĠVerbr eitung
ĠD ay
Ġwunder bare
Ġlust ig
ĠÃ¤r zt
ĠInspir ation
4 00
Ã¼nkt lich
m i
ĠP V
ĠR itter
Ġb achelor
e ffizienz
Ġgest iegen
ĠBÃ¼ch ern
dig er
al em
ĠB eu
Ġ9 8
ĠHighlight s
Ġstehen den
ĠZ ehn
d t
ĠA sp
Ġar g
Ġ/ /
Ġgeeig nete
p ir
Ġh aut
Ġk Ã¼ndig
vor gang
ĠBuch es
on line
O W
ĠA P
ĠSpe ed
Ġinnov ativen
Ġeigen tliche
ĠN ationen
Ġinvest iert
arb on
ĠSchokol ade
den z
ĠâĢ ĺ
Ġb unt
Ġer mitteln
lo ver
Ġpar allel
tisch es
Ġk unst
ut schen
Ġkl Ã¤ren
ĠQuart al
ĠL Ã¶sungs
p hen
ĠMal er
ĠPoly ester
Ġschw ed
ĠvielfÃ¤l tig
K K
f amilie
Ġk raft
ĠMe ck
Ã¶ÃŁ t
ĠTechn ische
b Ã¶rse
olog ischer
ĠL Ã¤cheln
ĠV ic
Ġdunk len
eiger t
f aser
ĠDie t
ĠAnge hÃ¶rigen
ĠM eg
Ġen ge
ell o
ĠVerteidig ung
B us
f otos
if ik
Ġvoll stÃ¤ndige
Aut or
ĠM ei
ĠNote book
Ġc an
ĠChamp ions
ĠA spekt
ĠA x
ĠZ erst
ri an
se hr
ĠhÃ¤ufig sten
ĠQu e
Ġvor kommen
eh o
Kl asse
Ġges perrt
p il
Ġb Ã¼rger
Ġirgendw elche
metho de
ĠMuse ums
Ġk ulin
Ġp raxis
Ġi kea
og ramm
ĠKomp lex
ĠSchrift steller
ĠHeid elberg
Ġ12 5
Ġniedr ig
ĠGesch irr
âĢ¦ âĢ¦
Ġb lieben
Ġexist ieren
Ġm ulti
ĠRo ute
Ġaufge hoben
ĠZ ellen
ĠDeb atte
ĠTyp en
fle kti
c al
Ġverst ehe
om b
ĠInse kten
ĠFach bereich
ĠWik ipedia
ĠKon figur
Ġfr Ã¶h
sch all
wie gen
othe ke
Ger ade
Ġletzten dlich
Ġd ez
ĠB ody
ĠWie sen
ĠDefin ition
zei tigen
ĠUn is
au lt
ckt ail
ĠBeh inderung
ast ur
Ġges orgt
ĠBet riebe
k in
ĠTo uch
ĠB A
ĠfranzÃ¶s ische
ĠOr igin
ĠC SU
Ġ198 9
ĠAlltag s
ĠUl rich
ĠregelmÃ¤ÃŁ igen
Ġpol n
l l
im eter
Ġbest ehend
ĠBr eit
ho fer
so ftware
Ġbegeg nen
ĠF akult
ĠW ann
ĠC up
Ġw in
u i
c or
ĠFlÃ¼ gel
gel te
ĠI ran
ĠWett kampf
ĠP riester
k ab
le f
Ġsch Ã¤d
sp unkte
ĠFla schen
Ġauf gerufen
Ġsw inger
D ruck
ĠN ackte
ĠDi Ã¤t
hoch schule
Ġw olle
Ġun ivers
Hol stein
Ġaktu alisiert
ĠHein z
aun en
ĠOrd ner
ĠNotwend igkeit
as sten
ĠLaun e
ĠZ igar
Auf grund
Ġentspann en
ĠKonsequ enzen
Ã¤r zte
ĠAn passung
ĠKredit karte
Ġge zwungen
ĠSzen en
g Ã¤rten
r iss
Ġh y
Ã¤nder ungen
Ġgepl ante
ĠSp a
be ziehung
ĠWe ber
fer tigung
Ġstarte te
ĠL Ã¶cher
inter est
M I
ĠKonzentr ation
assen d
ĠDi am
k ter
ĠVerein igten
Ġauf bauen
Ġdurch schnittlich
Ġange wiesen
ĠWerk zeuge
ĠEr ziehung
Ġnach ts
T yp
kl ein
Ġbem Ã¼ht
ĠL ight
ĠSim on
ĠZeu gen
Ġbrauch st
ĠBeruf ung
c er
ien er
ĠBerech nung
Ġmer ken
ĠSie d
ĠMobil funk
B ran
Ã¤tz chen
ĠkÃ¼r z
ĠStaatsanwalt schaft
Ġschw ach
ĠregelmÃ¤ÃŁ ige
ĠB y
ik es
Ġwieder holt
Ġbesch leun
a w
ĠA kten
ĠUr lau
Ġt our
ĠZiel gruppe
ĠWies baden
Ġre alisiert
Ġpro bieren
et he
amt es
ĠSach ver
ĠBehÃ¶r de
Ġrest lichen
ĠSe en
ĠMitglied schaft
a aten
ĠDe v
ĠM A
Ġbe auft
ĠDat a
ĠTran sa
ĠGeb raucht
Ġstatt dessen
verkehr s
v ideos
ĠWir bel
ĠSe gel
Ġbemer kt
ĠDes ktop
ĠC ann
ĠAs ien
V ol
ob s
ĠDem onstr
ĠlÃ¤nger en
ĠS icherung
vor schriften
man ager
st reifen
ie ts
ĠProf is
Ġkosten gÃ¼nst
Ġregistr ieren
Pf alz
fol ie
T P
ĠL ande
Ġm erk
Ã¼l lt
ĠUnivers ity
ĠFr anzÃ¶sisch
ausch al
Ġp osition
ĠCo unt
ĠGew issen
ĠN at
Bes onders
Ġamer ikanische
Ġglob alen
Ġbetreffen den
ĠTur m
ĠU fer
ĠB ienen
ĠVert rages
ĠH alter
ĠOrien tierung
schlÃ¤ gen
ĠErn Ã¤hrungs
ĠWurz eln
Ġdro ht
b rid
Ġverbunden en
her ren
Pl atz
Ãľ R
Ġres ul
ĠAbend s
Ġaktiv ieren
ĠÃľberw achung
Ġfrei er
che f
Ġben utz
o ster
rat zen
ĠBi bli
ĠPhys ik
ĠG olden
ĠAb schied
.) :
iel les
ĠGer hard
Ġkomp at
Ġheraus ragen
Ġengag iert
Ġauf geb
ĠO liver
R ed
Ġ199 1
n iveau
Ġv ol
kont o
ĠKon gress
ĠverfÃ¼g baren
Ġuns icher
ĠCy ber
p df
r im
Ġer ober
ĠGes ang
Ġbet reibt
Ġw ind
ie h
ĠGer ech
ĠG rÃ¤
ĠJ Ã¤ger
Ġberu ht
h art
Man agement
ĠG lie
ĠSch e
co ver
ĠNational park
b ust
Ġauf wend
Ġr Ã¶m
pro be
ĠIl lustr
ĠT ar
so weit
Ġk unden
pum pe
ĠT SV
ĠMet rop
ĠO s
ian o
ĠHead h
Ġein gebaut
Ġbe zahl
ĠKan ada
ĠStÃ¤r ken
uver Ã¤n
G eh
agn ost
Ã¼ ster
ol in
ĠK Ã¼nst
ek ul
ĠSti ck
Ġgleicher maÃŁen
Z E
Ġgro b
zuf inden
Ġl eitet
ĠL ib
g reif
Ġan lÃ¤sslich
Â» .
Ġf rac
ĠAn kauf
Ġ art
Ã¼ pfen
ĠI den
Ġl at
gel eitet
Ġwir ft
ĠÃ¶ konom
int age
ĠTrinkwasser filter
Ġhin zufÃ¼gen
Ġs onder
ĠgrÃ¼n e
Ġbel euch
AR T
Ġber eitet
ĠPl atte
leg ungen
ri o
ĠStud ierende
pro fil
ĠFol genden
an kt
ĠS un
o ire
eil er
P M
reff end
ĠA si
ĠIntern ationale
ĠMein ungs
ĠH armon
Ã¤r te
ĠW Ã¤hlen
Ġl Ã¶st
Ġsch reck
ĠAbt eil
w Ã¤nde
ĠL okal
F er
ĠW Ã¤hler
ĠH Ã¤
ar ren
wer tige
ĠK ing
fr ischen
ĠK ochen
ĠCro ss
Ã¤ ften
eigen en
och ten
ĠN Ã¤h
mittel ten
ĠSchwar ze
Ã¶ff el
ĠB ol
ah m
ok ument
Ġkonzentr iert
Ġ {
ĠfÃ¼ hle
Ġbe enden
ah ler
qu id
ĠÃ¤hn lichen
ĠD istanz
ĠDaten Ã¼ber
Ġst Ã¼r
ĠE D
Ġbegr Ã¼ndet
w jet
ĠK ampagne
Ã¶r n
ĠNÃ¤ch te
S et
ĠK amin
Ġunter halb
W elche
ĠLin ux
ĠSol che
Ġh aar
Ġent deck
Ġre alisieren
le uchten
ĠIn solvenz
ĠdÃ¼r ften
Ġstand ard
Ã¶ te
ĠkrÃ¤f tig
ĠLad y
I t
ĠMon ster
Ġlok ale
ĠGrund schule
ĠMa y
St ar
kÃ¼ che
Ġorganis ator
ĠMit be
Dat ei
arch iv
ĠVer hÃ¤ltnisse
Ġerhoben en
sa al
Ġsorg te
ĠRicht linie
p eln
Ġvert rauen
unter such
Ġbun ten
g asse
ĠÃ¶ st
F ol
Ġdies be
fach en
Ġan scheinend
Ver kauf
Ġgeeig neten
ĠM ang
Ġer leb
ĠZun Ã¤chst
ĠAl bert
ĠSch lÃ¤
app y
Sti ftung
ic ation
ĠKos metik
un nen
Ġbill ig
Ġakzepti ert
Ġs hop
Ġmittel stÃ¤nd
Ġ7 7
ĠDekor ation
Ġg aben
ĠÃľber prÃ¼fung
ĠPf lichten
H D
Ġab nehmen
Ġeinz ig
Ġe ffizient
ĠL KW
ĠBab ys
ĠDenk mal
ĠArbeits markt
ĠH ack
stra hl
ĠS onn
Ġf einen
Ġ7 4
ot a
Ġnied rigen
geh Ã¶r
ĠV ul
Sch Ã¶n
Pl attform
ĠVer h
ĠTex ten
ĠAl arm
ĠB auer
sst elle
Ġbed ient
D ank
p ubl
Ġv ort
Ġ3 50
Ġauf gew
ĠLi fe
ĠZwei ten
ĠGesch w
mÃ¶ gliche
ĠEben en
Ġw itz
ĠAltern ativ
ĠBuchst aben
ĠCh in
Ġru ft
Ġ eb
un fall
ungs zeit
ti rol
be finden
ĠX xx
iz z
ĠverÃ¶ffentlich ten
ĠFunktion alitÃ¤t
ĠVerhalten s
Ġzu lÃ¤ssig
ĠJ Ã¼n
v ideo
ĠAbm agerung
ĠGlÃ¤ ub
] ,
ĠB Ã¶rsen
ĠC el
ĠW E
k ore
Ġverl or
fÃ¼ hlen
ian a
Ġausger ichtet
ĠGes ell
Ġh aftet
Ġtyp ische
ph p
Rech ts
ĠRe ferenz
Ġverschw inden
ĠF ull
ĠKÃ¼ sten
ĠLes e
s ab
ĠDÃ¤n emark
g Ã¤ste
ĠKlima anlage
Ġkultur ellen
Ġl Ã¤nd
Ġstell ten
K unst
Ser ver
K Ã¶n
Ġn ational
Ã¶ bern
Ġer teilt
ĠKer amik
< /
Ġstell vertreten
ĠDon au
ĠEinzel fall
Ġkonsequ ent
ĠBrÃ¼ der
ĠJava Script
f aden
ĠKinder zimmer
Ġbundes weit
ĠF ord
Produ kt
ĠW eine
ĠKa is
ĠM Ã¶ch
roh ung
ĠMittler weile
F re
ĠzukÃ¼nf tige
Ġjem als
akte ur
ĠAll i
Ġwichtig es
ĠHor st
ein kommen
em an
ĠBe ck
ĠInteressen ten
ĠE st
ĠÃ¤u ÃŁ
ol ta
ĠG Ã¼ter
Ġaufge fallen
ĠWohn raum
F rÃ¼
fach e
ĠKon sol
ĠReich weite
Ġe vangel
ĠGef Ã¤ngnis
Ġregion ale
ĠQualif ikation
ĠFÃ¼hr ungs
Ġher an
Ġschl immer
wer fer
ĠEp is
Ġkonzip iert
ĠBeschÃ¤f tigten
ĠFlÃ¼ss igkeit
ar isch
od ie
m orgen
Ġ19 70
orien tiert
Ġecht es
F L
Ġk alten
Ġthe oret
st age
Ã¤l le
bet riebe
ĠH irn
arb urg
Ġausge legt
Ã¤st het
Ġw eichen
V ideo
Ġd rÃ¤n
ĠGr Ã¼nd
Ġmonat lich
et was
sk ont
ĠWh ite
Ġzu ges
ĠEr fassung
sfÃ¤h igkeit
Ã¤ glich
Cook ies
lÃ¤ chen
ĠFavor iten
iz ierten
ĠR ap
ĠSc ience
Ġschw anger
ĠRen te
sch alter
d ia
ph one
kur se
Ġber eiten
ĠBel eg
zentr ale
ĠL ow
ĠEr sten
ĠO m
Ġs aÃŁ
ĠS ir
at sch
sprech ung
B eg
f Ã¶rderung
Ġs ymbol
ge fahr
ĠauÃŁer orden
Ġbe werben
spar ent
ĠRichtig keit
A k
ĠSchm utz
C ar
te ch
ĠSp eise
ĠLe ber
ĠN ebel
Ġ6 7
For um
pol ster
id es
Ġumfassen d
Ġange t
werk statt
Ġte en
ĠAktu ell
Ġausgest atte
ĠI G
Ġunter halt
Ġun tern
l och
K o
ĠMein ungen
Ġgen ehm
ateg orien
ĠBlu e
ĠMw St
ĠSch ied
Ġerf Ã¤hrt
ĠS ig
Ġw asch
Ġ tem
re ht
tau chen
ĠPok er
ĠB ist
ĠSt Ã¶rungen
Ġsah en
r und
ĠPap st
ĠGemein der
ĠL angen
ĠSchu ppen
ĠMod ellen
ĠFer tigung
ĠHung er
dat eien
ĠE tik
Ġi d
ĠFel der
ĠWiderruf s
ĠJo achim
Ġgel aufen
c is
Ġen gen
Ġver raten
ĠMann es
Ã¤l l
ĠgenÃ¼ gt
ĠRat geber
ĠInstr umente
ĠS af
Ġanfang s
Ġstud ierte
ĠjÃ¼ng sten
Ġst raf
ĠSt ate
ĠSpezial isten
I O
Ġso viel
Ã¼ch ern
ti st
ĠGr as
achst ums
rum pf
Ġzu t
Ġkap utt
produ kten
ĠÃ¼ ben
pro jekte
ĠerÃ¶ff nen
200 6
ĠE hem
Ġgere gelt
sk raft
bo ot
Ġall tÃ¤
verl etzung
w ochen
Ġm arkt
Ġgl att
anzler in
ĠSpiel othek
Ġho hes
Ġeingesch rÃ¤nkt
ĠSt rÃ¤n
s eln
Ġun gew
sa ison
ĠKlin iken
Ġeleg ant
Ġkontinuier lich
ommer ce
N e
ĠP KW
ĠEin z
ĠWar n
ĠBro sch
Ġintegr ieren
inform ation
ar ium
Ġz Ã¼
ĠUm stÃ¤nde
tur e
Ġgel d
F ans
Ġt rug
ĠP rÃ¼
ĠGesch ehen
spro jekt
sn ab
ĠenttÃ¤u scht
ĠR h
Ġsp rich
on i
minister in
ĠHoch schulen
ĠNeben wirkungen
ĠMar io
Ã¤nder ung
w ellen
Ġ arbeit
rat es
Ġge bildet
B eh
Ġein laden
D on
Ġf arben
sk y
ak i
med ien
ĠWart ung
ĠVer handlungen
op fen
Ġberuf liche
ĠP rei
b etten
Ã¤ nen
Ġt rennen
antas ie
K ur
Ø §
ĠVer schlagwortet
ĠB ag
fÃ¤h ige
le uchte
Ġent schied
Ġh el
ĠI sol
ĠUrheber recht
se y
Ġpoten z
ie hen
ĠMig ration
Ġes s
ĠHo sen
Ġentscheiden de
ĠMiss brauch
Ġzusammen gef
ĠEng ine
Arb eits
ĠT ools
Ġbachelor arbeit
ĠAus rÃ¼stung
en ster
ab elle
ĠT eller
ĠRahmen bedingungen
ĠSor ten
ĠBis her
s d
Ġgem eldet
bes itz
ĠAn stieg
Ġt ra
Ġent schlossen
Ġstren g
ĠPrÃ¤ vention
Ġruss ische
y t
ĠMat ch
ĠPro gn
ĠSo wohl
ĠStra ft
ĠCor por
d acht
Ġin ten
ĠBer gen
ĠE S
m Ã¼hle
ver se
Ã ¢
ĠG PS
vor sorge
Ġvers orgen
Ġk ind
Ġkontroll ieren
c amp
Ġdem nÃ¤chst
ĠPfarr er
ĠIngen ieur
on de
ĠF azit
Ġzentr al
h istor
och te
u hren
b rech
ĠLebens lauf
ĠAr ab
fÃ¼ gen
Ġweiter gegeben
arbeite te
ir chen
ĠfrÃ¼her e
ĠSem ester
ĠP ant
ĠL E
Ġhin auf
I B
f uhr
ĠBel gien
Ġd icken
Ġex terne
ĠerhÃ¶ hte
ĠGew ichts
b w
se kretÃ¤r
ĠY o
ĠZahl ungen
ĠBestell ungen
ĠEin nahme
Ġhin gewiesen
Ġvoll stÃ¤ndigen
last ung
Ġte urer
Ġattra ktiven
Ġpl ant
bedien ung
ĠPots dam
Ġerle digen
riv e
Ġfer tigen
ĠK urt
Ġmittler en
r unden
fahr ts
ard in
ĠLÃ¶ wen
Ġanzu bieten
ĠHin zu
Ġm eldet
ir ten
Ġe w
Ġ( =
ĠkÃ¶rper liche
ser klÃ¤rung
Ġganz es
re de
ĠN ull
ĠHand t
Ġg old
Ġzw ingend
P G
ru h
Ġinter pret
per te
Ġbei der
r yl
ah a
ĠDo ktor
D rei
ĠPh arma
c ont
ĠP ension
ĠEr holung
r er
ĠSch riften
Ġausge fallen
Ġver schaffen
gelen k
R und
zÃ¼ gen
mark e
ott es
ĠSchn Ã¼r
inder te
ĠRein igungs
Ġw ahl
ĠShop s
TM L
id as
ĠGir ls
ĠPfl anze
Ġstattf indet
ĠÃ¼ber s
Ġdurch zufÃ¼hren
M aterial
ĠAb sicht
ĠS M
frei er
G el
ĠHel mut
Ġeingeb unden
ster min
ĠR ass
la ster
Ġkrit isch
Ã¼ch tern
Ġf ind
ĠT i
ĠPri or
Ġb Ã¶se
ĠF as
iv als
ĠB ull
ak es
br ett
S ex
auf e
Ġteil t
aus weis
b ot
Ġbreit es
B and
ro ss
techn ologie
Ġgen ossen
ĠAr mut
Ġnun mehr
ĠBern hard
ro w
h ilf
Ġb it
ĠFinanz en
in stall
zus ammen
Ġen ergie
ser ver
Ġrelev anten
ĠWag ner
f al
Ġver bl
Ġwar me
ĠT rom
ĠSt eine
ber ge
sp olit
ĠVor bereit
gew al
ĠArbeits zeit
ĠSt ationen
AS S
Ġ( +
ĠE IN
ĠInvest ment
Ġaus gebaut
ĠL ampen
Ġer t
ĠSa tell
Ġwes entliche
ĠBau en
G leich
wie der
W eil
ĠK ommen
ĠVor les
lÃ¤uf er
ĠQu ar
ot ing
ĠGest alt
ok o
de burg
ĠEin nahmen
ĠC oll
ĠGut achten
ĠKonzer te
ĠGumm i
ern d
c ar
ĠGew Ã¼r
ĠV R
ĠSch aum
fÃ¼ t
Ġverst orben
ov olta
ĠI D
ĠH under
Ġm Ã¤nner
ĠD Ã¼n
Ġtau send
Ġwest lichen
ĠverlÃ¤nger t
ĠJur y
L G
Ġwo hin
Ġder art
ĠZu verlÃ¤ss
ĠMus keln
ĠJ Ã¶rg
H aben
p u
sch reiten
S pr
ampag nen
reich ung
Ġp Ã¤dagog
ĠverÃ¶ffentlich te
ĠJe an
htt ps
Ġ8 9
Ġ7 8
Mit glied
ĠC R
Produ kte
or ca
ĠÃ¼ber aus
ĠR od
ad bach
ĠK ennen
Ob wohl
Ġger Ã¤um
Ġh Ã¶r
our s
be zug
ĠFil men
ĠIntelligen z
T ags
Ġex zellen
Ġinter aktiv
vers and
Ġvorlie gt
pro gramme
Ġfil m
ĠEn sem
Ġbed ro
Ġverste ckt
cke y
S Ã¼d
Ġan zusehen
ĠWert sch
ĠMerk male
ĠApothe ke
ĠFeatur es
ĠÃ¼ber zeu
ĠSe kunde
ĠRu h
ĠAn kÃ¼ndig
Ġ8 6
ĠAn schrift
Â« .
ĠStra hlen
D o
ĠP ixel
ĠAb fall
ĠBrem s
Ġde cken
ĠKauf preis
Ġvor liegen
ĠDr achen
sb ruck
Ġkomfort abel
ĠD et
ĠT H
ĠBesch eid
Ã¶ der
on st
Ġum zusetzen
Ġ ordnungs
Ġg ast
Ġ6 1
ow ski
ĠWohl befinden
ĠG uten
En gl
Ġs ag
g old
ĠGlÃ¼cks spiel
ar akter
ĠAn dr
ĠRucks ack
)) ))
Ġvor nehmen
ĠFahr zeugen
ĠnÃ¶ tigen
C lub
kont rolle
ĠP ic
ĠK ids
Ġerf assen
ĠLand tag
Ġer zeug
K arte
ĠAb hÃ¤ng
er ing
Ġk ost
ĠWei b
ĠLat ein
Ġan geben
ĠC reme
geschn eider
Ġbie te
Ġbedeuten d
ĠFried hof
I ST
enn ungs
Ġlang leb
ut ten
Ġver urteilt
ĠBe auty
ĠRis ik
lei hen
kom bin
gent in
W ert
ĠV aters
er z
Ġlie genden
mÃ¤ÃŁ igen
Ġexper imen
gr aben
Ġvorhanden e
St re
Ġl ass
ĠR ande
in itiative
ĠÃ¼ber nahm
ĠJ ud
ĠH eiÃŁ
Ġgerech net
R echt
Ġbet onte
Ġgest orben
Ġvon einander
Ġl ack
ĠZen ti
v ater
Ġder selben
on ne
ĠTeu fel
ĠVerb rechen
an i
ĠSelbst verstÃ¤ndlich
Ã¤chs ischen
ĠWir ksam
teil ten
lin ks
or men
ĠMittag essen
it tag
ĠBu ff
oler anz
fÃ¼hr ungs
ĠMar s
ser satz
geb oren
ĠSo cken
K eine
haus halt
Ġwahr genommen
ei gung
ĠS amen
ĠAcht ung
ĠSne aker
Ġar ab
Ġdurch s
Ġgen ial
Ġruh iger
Ġf assen
ov a
el ekt
ĠpersÃ¶n licher
Ġvers and
zwe cken
Ġzwei ter
rech ten
ĠH orm
Ã¼ber w
ĠprÃ¤z ise
f eier
ĠV Ã¶gel
Ġausgew Ã¤hlte
ĠFab rik
P ark
ĠN S
ari fe
Ġveranst altet
A A
sch Ã¼ler
Ġempfehlen swert
Ġgel b
Ġberech tigten
ĠTa sten
Ġverein baren
F S
ĠBÃ¤ cker
ĠAbw eich
ĠGerech tigkeit
ĠG aming
Ġjeg liche
Be wertung
L ehr
bi bliothek
Ġblau en
o zi
sp ezial
ĠKat hol
EN T
Ġ8 8
Ġheim ischen
y k
?? ?
ĠT ut
ĠBay er
Ġangemessen e
ĠStil l
m or
Ġberech nen
ĠbegrÃ¼ÃŁ t
P at
ĠFakt or
ĠfÃ¼hr ten
Ġher stellen
Ġpl an
Z iel
in f
rÃ¼ hren
man gel
Ġverurs achen
ĠPrÃ¤ m
Ġro bust
ĠTax i
ĠM Ã¼tter
ĠUnis ex
Ġzw ingen
ĠCoach ing
H inter
Ho tel
Ġruh igen
rÃ¼ ger
ĠW i
Ġan meldung
ĠAus zeichnung
Ġtoll er
W G
Ġvor gegeben
P eter
ĠAnge la
Ġkeines wegs
II I
ĠKu pfer
ĠD B
ar tem
Ġdro hen
ĠAdr essen
stitu tion
Ġo bl
ul dig
ĠBo ard
ach ing
p sych
Form at
ĠRe flex
ĠWel ten
ma x
v as
ĠKontakt anzeigen
ĠS tem
Ã¤ ure
ss icherheit
ĠNetz werke
ĠProt okoll
ĠVor sorge
ell ung
Ġsch enken
Sch ule
organis ationen
ĠEben falls
y o
ĠAb gabe
ok er
Ġenthalten en
ĠE cken
ĠEmo tionen
Ġsch lug
ĠEin zig
bl auch
Ġeigen em
ĠP RO
ser fahrung
Ġger Ã¤t
Ġres erv
ĠGew Ã¤sser
be wertung
ad et
ĠgÃ¤ng igen
Ġgen utz
c reme
ĠS org
Ġbei des
ĠAus lÃ¤nder
ĠSo zi
ay a
ĠSon y
ĠGeist es
fr ont
ĠGel b
Ġintens ive
optim ierung
Ġet liche
w ettbewerb
ĠWei ss
ĠEin es
ĠW ach
Ġbel eg
ĠMo tive
Ġbeding t
hythm us
ste cken
fl Ã¤ch
ĠN eg
Ġeinzel ner
Â ©
ul ierung
Ġver passt
u tive
Ġi slam
ĠOr chester
Ġstark er
c le
all tag
kre bs
Aller dings
Ġdein es
P ost
ĠDem o
Ġs ur
ĠPro tag
W eiÃŁ
S ollte
ĠT ru
br ingt
âĢ¢âĢ¢ âĢ¢âĢ¢
ĠAqu a
Ġdem onstr
L C
ĠLes ben
Ġgew alt
Ġl Ã¤ng
ĠRo se
p g
ĠR ub
wa ffen
ĠK ra
C l
Ġzu geschnitten
ĠRe aktionen
ĠAbw echslung
ĠR end
kl am
ĠBraunsch weig
C ont
Ġl agen
bas is
ĠReg ie
W issen
âĢ ī
g ru
h ington
oll er
Ġ3 000
ĠB os
ĠClass ic
Ġ Î
ĠImmer hin
G O
ĠChr on
Gro ÃŁ
Ġf lieÃŁen
eigen t
Fil m
pl o
Ġrei bungs
Ġan bie
ĠFerien wohnungen
Ġf f
ĠAb itur
ho sen
ĠJul ia
bereit schaft
ĠErschein ungs
ĠF asch
ĠT iefen
Ġfl ach
aktiv itÃ¤ten
men schen
br aten
B ro
g rau
ĠBetroffen e
ti z
ĠBlog s
Ġso zusagen
Ġbeteil igen
Ġs ingen
Ġget Ã¶tet
ĠJes u
A K
S tel
lehn ung
ĠA gr
Ã¼ber sicht
ul Ã¤re
tig ungs
S ollten
ĠBrÃ¼ ssel
best Ã¤tigung
ĠGed uld
ĠBedÃ¼rf nissen
dr ing
ĠLu c
ĠgemÃ¼t lichen
ĠLang zeit
ĠK ell
ĠO R
ĠSp Ã¤t
ĠF Ã¼ÃŁen
Ġhaus arbeit
op e
Ġex klusive
L Ã¶sungen
d ose
ĠE qu
Ġweiter entwick
ĠLe cker
Pl an
ĠPen is
Ener gie
ĠAnder en
ĠB j
ĠLand schafts
Ġl ande
ap ier
ĠKultur en
low job
c ard
Ġdeutschsprach igen
Ġent s
ĠC ab
ĠRubr ik
Bet rieb
ĠK au
Ġt iefe
Ġkommen de
B L
h h
ĠAn lauf
ĠEin heiten
Ġwer det
ĠWer kt
Ġzu geordnet
Ġhef tig
z icht
Ġdi pl
ĠN ud
tig keiten
ĠEinsch Ã¤tzung
Ã¼l tigkeit
stre cken
Ġentwick elten
Ġd or
Ġwirtschaft lich
Ġf Ã¤ngt
Ã¤uf ers
Ġtrau rig
ĠSuper markt
Ġgelegen tlich
1 01
E urop
g han
% .
Ġgesch mack
unter gang
aÃŁ t
k art
ungsver hÃ¤ltnis
ĠAuff assung
zens ionen
ĠM eilen
Ġt re
Leist ungs
str and
ĠZahn arzt
ĠMuse en
Ġti pp
ĠFuss ball
it im
ĠSti rn
red ite
rei fe
pp el
Ġrecht liche
ĠKolle g
ĠSymbol e
inten do
ĠGer uch
ĠFlÃ¼cht ling
ur de
T er
ĠRegen sburg
ĠJahrzehn te
Ġl ese
ĠVermÃ¶gen s
Ġsch lu
Ġkrit isiert
ĠWiderruf srecht
tern ehm
ĠD ifferenz
ĠM id
ĠSt ars
ĠO ffiz
og ar
ĠP ick
ist a
ĠAnbie tern
Ġstaat lichen
I de
r al
ĠV eget
rÃ¤ u
ĠG ard
Ġunter einander
Techn ik
em men
ĠB ielefeld
Sp iele
bas ierte
Ġaus gie
Ã¤l de
Ġangen ehme
ap el
fol gend
ĠF Ã¤hr
ĠFr is
Ġlau ter
ĠGru ÃŁ
Ġs etzten
ĠA ward
Ġc ont
ĠArbeitspl Ã¤tze
rate gie
ĠGra z
N ieder
ĠAus stellungen
Z immer
Ġre d
ĠL abel
Ġpoten t
ord nungen
ĠUhr zeit
Ġge leistet
Ġre par
Ġfol gten
Ġq m
es heim
ĠEle ct
ĠVi br
ist iken
ĠMÃ¤d els
ĠA V
ss atz
Ã¤ch ter
og an
ĠW eit
Ġschrift liche
ed el
ic tion
ĠSch los
Ġneu em
erk rank
Ñ ĭ
em p
ĠAus richtung
ĠHel m
Ġintegr ierten
ris iko
F rau
t z
L S
M P
Ġtro ck
ĠunzÃ¤hl ige
gr unde
gesetz te
ĠEin zug
ĠPoliz isten
ĠmaÃŁ geblich
Ġc omp
val u
o e
( (
Ñ ĥ
gend a
ĠE ber
go ogle
ĠH i
zep ten
ĠE last
Em pf
n och
ĠKar ne
ĠH eu
ĠSchwei ÃŁ
Ġverlie bt
ĠSteiger ung
ĠVer gnÃ¼gen
Ġgl as
Dar Ã¼ber
ĠL it
ĠEx port
Ġag gress
H O
Ġb rÃ¼
ĠAktu elle
ĠWettbewerb s
R es
ĠE hre
ack s
Ġkre ativ
Qu elle
ta schen
kÃ¼ ste
itz ung
ĠPass ag
ie gt
Ġunter suchen
Ġb reiter
ĠBundes wehr
s id
ĠGe webe
ĠM ehl
ĠN ad
Ġb ast
Ġwie so
ĠHerz og
Ġbeteil igten
end ung
asch ine
ĠW andern
W S
Ġunter st
ĠTrÃ¤ nen
eig ten
Ġausgew ogen
Ġb uch
ĠEinblick e
st est
dre hen
z onen
zess in
ĠKraft stoff
ar ina
ĠLebens dauer
ĠCons ult
beteil igung
ir bt
m eier
ĠT ok
ĠIn zwischen
lÃ¶ ser
men sch
ĠLie ge
Ġfu hren
ĠGemein schafts
Ġge folgt
ĠVer zeichnis
ok uss
Ġein geben
ĠCharakter e
snab rÃ¼ck
zu behÃ¶r
ĠVer fassung
ĠKr isen
ĠE g
Ġporn os
ĠL y
Ġfinanz iell
y pt
ĠMex iko
ĠAus sen
hem a
ĠAusgang spunkt
ĠR Ã¤tsel
Ġ1 01
Ġt a
ĠzurÃ¼ck ge
ĠKont rast
i w
qu is
Ġchines ischen
f tet
ĠhÃ¶ch stens
ĠSie ben
fer tigen
Ã¼ch tig
Ġhol te
ĠAb kommen
ĠAdr ess
eigen schaften
urn ier
Ġ: :
leben s
Ġg riff
UN D
ĠF ashion
ĠÃ¼ber setzt
ain ment
ĠMeck lenburg
Ã¶ die
Ġintegr ierte
ĠInner en
Ġer for
F Z
iden z
ĠÃĦgyp ten
Ġsp Ã¤ten
ĠFlor ian
Ġgehol t
ck el
ĠAus stellungs
ĠFl ag
Ġg Ã¤be
Ġe wig
ĠSch lauch
ĠP ed
Ġkann te
bst ahl
ĠV irt
Ġdunk le
ĠGottes dienst
8 00
ĠSch a
ĠSens or
ĠGro ÃŁer
ĠFern er
Ġerh ielten
Ġw ach
her stellung
dienst leister
art h
ome tern
ĠT OP
ĠGed anke
ĠHin dern
ĠS D
ĠB lo
zu bilden
Ġexklus iven
d isk
Ã¶ cke
ĠFest platte
ĠP ier
ĠUnterricht s
ĠHand hab
u eller
a j
Ġhochwer tig
Ġflex ib
ĠR oten
ĠR ainer
ĠSpazier gang
h Ã¼tte
ist rat
er te
ĠT ube
ĠDu isburg
Ġ7 6
Ġinten siver
Ġn et
Ã¤mm ung
Ġab gew
ĠSp Ã¤ter
ff in
ĠpersÃ¶n liches
Ġak adem
ĠÃľbersetz er
M ain
Ġl iter
S ow
ĠÃ¼ber mitteln
ĠÃ¤hn liches
ichter stattung
Ġbrit ische
ĠStand orten
Zu dem
Ġaufzu bauen
d ies
so hle
is abeth
ĠCom ic
Ġk redit
bl ut
ĠSol idar
Ġd ruck
af il
ĠBege gn
ĠFl ash
ĠRei z
ĠzukÃ¼nf tigen
Sch l
Ġselbst stÃ¤ndig
Ġmit nehmen
cht ung
E lekt
el f
bÃ¼rger meister
ĠFakult Ã¤t
Ġw a
Ġverlie hen
Ã¼ sten
ĠG ur
land s
ĠVerfahren s
âĢľ :
de d
Da zu
ĠMill imeter
ĠMeister schaft
ĠD raht
ĠThre ad
ĠAktiv itÃ¤t
Ġvoraus sichtlich
CH T
n y
ĠPlan ungs
N ord
ĠR ent
ĠLe er
Ver lag
Ã¤ fer
ĠAmts gericht
sl eiter
Ġmusikal ische
Ġange wendet
ĠNov oline
Ã¼ gel
Sch utz
rans fer
Ġb inden
ĠDar um
op en
Ġre flekti
Ã¤ch ern
Ġanalys ieren
Ġpartner suche
st iefel
Ġverw Ã¶hnen
ĠWeiter hin
ĠMaÃŁ nahme
ĠKlass ische
Ġtradition ell
V ER
Ġbe urteilen
ĠBrem er
ur ce
auf lÃ¶sung
Stud ien
geb unden
rei z
k amp
ab lauf
ĠAn ordnung
JÃ¤hr igen
ĠW ende
Ġt reu
t ung
leid et
ateg orie
ĠG ig
auf ent
Ġbeein druck
atur e
ĠDa von
Ġgerade zu
Ã¤ tigen
ĠHo use
tur m
Ġautomat ische
ĠPf ad
Ġbest Ã¤tig
ĠK anzlei
ĠBeitrag s
Ġw em
ak eten
utt o
ĠBay erischen
Ġentscheiden den
ĠErmitt lungen
ĠBal ance
ĠmuÃŁ te
ĠRÃ¤um lichkeiten
or es
ĠT Ã¤n
anst alt
p rÃ¼f
Ã¤ ler
Ġdeut liche
200 5
Ġdan eben
s ieg
spekt rum
Ġerz ielte
Zus ammen
ĠT rÃ¤ume
ele ase
ĠChem nitz
ĠT reiber
um pf
eil t
C C
In f
k ost
f aktor
Ġf ing
Ġg raf
En d
bar ungen
ĠZuf riedenheit
m asse
kon struktion
ipp er
Ġ198 8
ĠSchied s
Ġelektr ische
ĠHand lungen
ĠLebens jahr
schaft lich
achte te
it o
ĠKlass ik
A ben
s ack
el ing
Ġex tern
st ad
ĠGeb ieten
Ã¶t chen
ĠRost ock
fer enzen
ĠJose ph
Eigen tlich
end em
Ġbes uchte
Ġgr and
schul d
Ġherr lich
ra glich
ide e
ĠHerr schaft
ĠAndre a
ĠIn dex
O der
Ã¤ uren
ĠB ang
ĠInnov ationen
Ġb ett
ĠPrÃ¤ z
fab rik
r ab
ĠBr Ã¼cken
Ġ ×
Ġm ater
F T
ĠKer zen
ĠRecher che
ĠBarb ara
be stimmung
Ġkultur elle
er isch
ĠGest alten
m ak
s burger
ĠgroÃŁ artige
ĠBenz in
ĠN ight
stÃ¼ck en
Ġnach gewiesen
bl ing
Ġinter nen
ĠK ick
w Ã¤l
Â ĵ
ĠWander ung
ĠSp rÃ¼
Ġauf zunehmen
1 50
ĠFel ix
ĠRos a
ĠVerpflicht ungen
ĠPrem iere
Ġeinge st
ĠL eid
ĠNacht eil
Ġw eh
ĠGlob al
ĠD ur
d ichte
Ġeur er
eben e
ĠIl l
ĠHoll ywood
Ġw omit
ĠO p
Ġsicher er
ĠKno blauch
E X
ĠVersicher ungen
kr atz
Ġg rad
ĠgefÃ¼hl t
pl us
ĠRech ten
Ġm oral
Ġmin imal
K ap
sau ger
ĠDu b
Ġein her
Ġsen ken
cel ona
id akti
ĠVorsitzen den
sk ammer
el den
ĠK ette
tig ungen
ĠCha os
ution s
gehen den
E t
Ġh arte
Ġerstaun lich
ĠMe yer
ĠFein d
Ġst unden
Ã¼tz ten
Ġk auft
L a
r elev
Å ¸
Ġneben bei
ĠGed Ã¤chtnis
, "
u alitÃ¤t
Ġvorber eiten
yr ight
Ġidentifiz ieren
E vent
Ġhol t
v ille
Ver hÃ¤ltnis
ĠLiefer umfang
ĠFlÃ¼cht lings
reg ister
ĠVi agra
ĠBatter ien
Ġwider sprechen
t rÃ¤ger
Ar beit
osm ose
ĠGlauben s
B I
ĠSauer stoff
Ġk irch
and in
Ġn ationale
ĠL am
ĠVer schw
K V
Ġschwei z
G G
Gen er
ĠT U
mod us
L ink
rei ÃŁen
f ters
Ã¤ ht
ĠL ex
Ġeingesch altet
un ion
Ġle hr
ĠKlima schutz
ch o
Ã¤u ÃŁer
ĠExper imen
n ot
gesch enk
ĠNicht raucher
ĠBesonder heiten
Ġz it
ĠMitglieder versammlung
ĠZul assung
ĠKunden service
Ġneu este
ĠEin zahlung
ĠRe ad
s heim
ĠRud olf
ver m
zen te
ĠNeu igkeiten
ilder t
ĠZusammen fassung
Ġschwier igen
stand ards
ok raten
ĠUnivers itÃ¤ten
ĠTal ent
ĠPress emit
Angeb ot
ĠL ungen
grenz ung
ĠBel iebt
ĠMass iv
f eln
ĠZ ins
Ġan n
ĠB Ã¤r
T B
ĠK ohl
system en
ĠM ake
ĠPort folio
s iv
ĠKranken versicherung
ĠW ahlen
Mod us
len z
Ġumge kehrt
ĠFilm s
ĠZ eilen
Ġzwei er
ĠMarkt platz
Ġexklus iv
Ġtyp isch
ĠK ron
ĠEr lebnisse
ul ator
Sp ezial
ĠmÃ¼ de
O pti
ungs los
Ġbew ahren
K ultur
ein halb
he b
AN N
Ġlange m
Ġl achen
ĠBest seller
ĠNor wegen
Ġgesellschaft liche
schaft liche
ĠGegen Ã¼ber
S eiten
or ger
ĠZ DF
ĠEl f
Ġunverb indlich
ĠKf z
S ind
or ial
Ġbef reit
Ġerfahren e
ĠkÃ¼r zer
ĠMo z
ĠHa ken
ĠKon zeption
ĠVort rÃ¤ge
ĠSn ow
ar ing
ĠSt rau
us el
od a
z eile
ĠLand haus
Ġmitge teilt
ĠK alt
Ġausge glichen
6 00
ir gt
v es
ĠSe elen
Ġbegr enz
ĠHeil ung
Ġschw anz
ĠNavig ation
ĠSemin are
D ach
ver hÃ¤ltnisse
Ġum sonst
Mark eting
Ġfol gend
komp etenz
ĠHandhab ung
ĠS ession
ĠH eb
bel euchtung
Ġbekannte sten
ĠÃ¼ber legt
Ġsp er
ĠMr d
ĠÂ ĸ
Ġp our
Ã¼l ler
ĠWh ats
ĠT ragen
ĠMar ien
krÃ¤ ften
freund liche
H at
de hn
as k
K ar
g ste
ĠSamm el
ĠZeit schriften
ĠLebens qualitÃ¤t
ĠDel uxe
Ġfolgen der
ĠClub s
ĠWes entlichen
ĠPanor ama
ĠFot ografen
Ġkomplex e
ĠA cker
ing st
ĠV ar
Ñ Į
Ġdort hin
ĠS oph
ĠK asse
la sten
ĠT enden
Ġw eiten
Ġauspro biert
y an
d in
Ġm aster
Ġvers ichert
Ġbeant ragen
ĠFo od
Ġgef angen
ĠEx press
Ġb itter
Ġlin ke
ĠMosk au
ĠM otoren
Ġgesch enkt
minister iums
ĠnÃ¶ tige
ĠVir en
ĠBÃ¼nd nis
Ġsp art
ĠZuverlÃ¤ss igkeit
Ġmon tiert
Ġfamil i
ĠK orn
ĠFort schritt
ĠVertrags schluss
st anz
ĠEinschrÃ¤n kungen
wÃ¼r dige
Ġb acken
ĠT ap
ĠCo cktail
Ġkonf ron
ĠInn sbruck
l ampe
ĠSh irt
ĠU RL
ĠRo yal
ĠPrivat sphÃ¤re
on ist
enn y
ĠEr ziehungs
Ġbisher ige
Ġsport lichen
ĠdÃ¼n n
2 12
ĠPat rick
Ġp re
at ien
ĠSch alter
onen te
Ġfinanz iert
ĠGut scheine
ĠTir ol
ES S
ck ten
ver teilung
Ġwelt weiten
ir a
ĠL ar
S til
Ã §
ĠVoll stÃ¤ndigkeit
t licher
Ġr einen
r us
ĠVer schieden
w eich
Ġm ut
ĠL ong
F H
Ins gesamt
Ġum stritten
Ġmusikal ischen
ĠS R
h elfen
ĠGeb Ã¤uden
W ieder
Ġstud ieren
alis ierten
ĠK reu
O hne
ĠBef ehl
ĠSch ool
Ġent h
Ġp lay
ĠBe at
ĠGen ossen
Ġl anden
ĠWer ken
2 000
ar is
ĠGe orge
af eln
ĠPiz za
uppert al
Ġfrem de
Rei he
an ie
Ġver passen
ĠR ichtige
sp ur
ekt ar
Ġ9 4
X X
ĠgÃ¼l tigen
Ġge gessen
d ann
ĠS i
Ġh amburg
ĠWirksam keit
P N
Ein ige
u c
Ġneg ativen
Ġvor der
Ver fahren
Ġtran sparen
ĠC li
ĠPl attformen
di mension
ĠVerl Ã¤ngerung
verb Ã¤nde
Ġhin weisen
Ġgesch w
Ġ19 60
Ġausge wiesen
Ġan legen
et ische
K osten
Ġvereinbar ten
Ġzum eist
Ġjen en
Ġge klÃ¤rt
ĠVor sicht
ĠGebrauch s
ĠO k
ub le
F in
ĠW eich
H P
ĠO x
Ġs Ã¼ÃŁe
ĠPrÃ¤ senz
Ġschl ank
Ġsport liche
Ġver bracht
re ens
ĠC A
ĠRelig ions
Ġtrain iert
ĠEin klang
Ã¼h ungen
Ġengag ieren
Ġbef and
Ġschwier iger
ĠBe urteilung
at i
Ġsport lich
sÃ¤u le
ĠA K
ĠShop ping
d rom
Ã¶ re
Ġbef reien
Ġbein halten
Ġre volution
Sch lag
kti k
k y
Ġneg ative
Ġin cl
ĠE ffekte
Ġzu grunde
ĠD og
ti se
iv a
ĠkÃ¼m mert
ĠY outube
on ien
h s
es er
a al
ĠK it
kul atur
ĠM iete
Ġre cher
ĠKamer as
ĠInhalts verzeichnis
Ġt itten
i j
Ġst ol
Ġleist ungsst
ĠG lei
ek ter
Ġ8 4
zentrum s
ĠH eld
ĠS GB
ĠN ieren
ĠReihen folge
ĠW it
ĠHy per
ar me
ie de
ein stellungen
ren ten
Ġh or
ĠSt reich
Ġx xx
ĠL or
Ġle hn
aut or
ĠÃ¤lte sten
ĠMar co
ĠN ort
ĠOst see
W M
B ar
b reiten
Ġc le
An t
M e
ĠSch am
Ġanbie tet
ĠT eich
ĠLie gen
H A
ĠEn tert
il dern
ĠSch ritten
Ġent sch
br unnen
Ġp at
ĠT afel
Ġspiel ten
Ġtechn ischer
ĠW im
Ġsie hst
ĠAt lan
ĠTro pfen
ĠVor gang
ĠÃ¶rt lichen
Ġel ast
wirtschaft lichen
Inform ationen
Ġleben sl
Ġkre ativen
Ġwieder hol
person al
sch un
ahn t
Ġabge lehnt
m Ã¤h
ĠSp Ã¼l
Ġent worfen
Ġmass age
Ġbun te
ĠDam als
O D
n ten
Ġ7 9
sp ark
ĠZ ucht
W h
V ielen
ĠSe arch
Ġk Ã¶st
ĠH unden
ĠâĤ¬ .
Ġausgel Ã¶st
ĠPol ster
ĠVers uche
Ġbevorzu gt
Ġauf bew
ĠVer teilung
\ /
Ġdass elbe
Ġgef ickt
Ġf Ã¤llig
Ġstaat liche
O h
ĠM ov
ĠHo he
St G
haupt stadt
ĠT unnel
Sch ul
Ġtr end
p acken
Ġzer tifiz
op le
ĠMan fred
krank ungen
Ġo p
Ġsp ir
Ġbefest igt
ĠEin s
z ucht
Ġgenau en
Ġgeschlossen en
V A
Ġkompeten t
Ġverw alten
Ġb rennen
F R
Ġ9 2
y ball
ian ce
L A
te c
Ġzu kommen
wor tete
ĠSch Ã¤d
Ġbetrieb s
Ġberuh igen
M ax
Ġleben dig
ĠEing angs
bek leidung
Ġviel fach
ĠGen ieÃŁen
Ġanalys iert
Ġgemein nÃ¼tz
Ġhochwer tiger
ĠMÃ¤r kte
ĠPor sche
Ġs ens
Ġ ).
Ġzusammengef asst
st het
aus fall
= "
h ot
R Ã¼ck
stand es
d l
eim ar
ĠW itz
ĠMal erei
reut h
Ġerf reu
ĠHerstell ern
ĠPromo tion
ĠT ruppen
ĠN acken
ĠPortug al
ab ile
ĠC it
ĠAl len
ĠDienst leistungs
kl ima
wa ff
Ġt or
Ġkl im
ĠGar age
Ġverwende te
den kt
bau ung
ĠfrÃ¼h zeitig
F rauen
ĠK rei
pro bieren
, .
Ġin mitten
Ã¼b ungen
ĠauÃŁergewÃ¶hn liche
S yn
Ã¶ gern
ar ia
Komm ission
ĠR Ã¼st
ĠAus sch
ĠherkÃ¶mm lichen
Ġher bei
Ġvers etzt
ag a
ĠBe denken
re form
ĠUp dates
ĠSat tel
kor b
ang riff
Ġ7 3
ĠN intendo
ĠUnivers al
Ġunbek annt
Ġbede ckt
Ġfrem d
ĠG ol
Ġan gel
osition en
ul pt
Ġbest anden
ĠBlog ger
ĠE w
Ã¶t z
Ġange p
prÃ¤ sen
Ġneugier ig
ĠF ro
ĠnÃ¤ch st
ĠSystem en
belast ung
ĠPrin z
Ġdokumen tiert
b rot
ĠW ahnsinn
ĠH TML
Ġvoll em
ĠU we
ch tet
ĠB lech
end igung
ĠPreis vergleich
mobil ien
ĠM ater
ĠFlÃ¼ ge
k alender
wer ter
Ġverw and
ĠtatsÃ¤ch lichen
An halt
ĠFort setzung
bl es
Ġ+ ++
r iel
Ġge kl
ĠKratz baum
M ont
wissenschaft ler
Ã¼r mer
ĠCo up
ĠSorg falt
ĠH ill
Ġr isk
Ġbr ut
k och
k issen
ĠInstitut s
Ã¶l n
ĠVerein igung
ï ¼
Ġle ck
Ġerheb liche
ĠStatt dessen
bio tik
ĠVer schl
ĠFol ie
ig an
Z wischen
ĠTh ail
Ġun ein
ĠFrieden s
Ġzweit es
Ġt reibt
qu ar
il y
Ġl im
ĠGÃ¶tt ingen
ĠSt rick
bl icken
ĠSt yle
Ġlang jÃ¤hrigen
Ġgr at
Ġm achst
Ger man
c ing
n ummern
Ġvor geschlagen
ĠW achstums
ri ppe
mÃ¤r kte
Ġver legt
ĠPlay er
A dr
ĠBar s
ĠO ver
ĠAn lÃ¤
ĠAd d
viel fÃ¤l
ĠB ug
ĠUnter kÃ¼nfte
lei h
Ġbr and
Ġleist et
ĠD orn
ĠE va
Ġinspir ieren
ĠSp itz
ĠRen ov
Ġzeit genÃ¶ss
sex trem
k ann
un z
S mart
rÃ¤ te
Ġzwischen durch
bro wser
ĠOpp osition
ess eln
Ġn etten
ĠSp rech
fÃ¼hr ende
rau l
Ġviel seitig
Ġv o
ĠD aumen
wÃ¼n sche
k enn
Ġer bringen
ĠTast atur
ĠWasser filter
p rech
om Ã¶glich
ĠÃľber mittlung
br onn
Ġw ich
ĠjÃ¼d ischen
ĠSchn Ã¤ppchen
ungs bereich
os h
S how
pl Ã¤ne
Ġ Ã¤sthet
euer ung
ĠFel sen
Ð ´
ĠH ang
Ġer arbeitet
ĠBr ett
Ġan kommt
Ġerf reut
T ran
Ġso for
ĠSp ecial
F ern
ĠD icke
Ġbr achten
ĠSw iss
f assungs
m Ã¤ssig
ĠF aust
Ġzeit lich
ĠB ond
ĠSchaden sersatz
ĠV iew
ĠN ICHT
Ġl eid
ho use
ĠGes p
ĠGel enk
ĠNik ol
Ġz eige
ĠFahr en
Ġeurop Ã¤
ĠStaat es
Gr Ã¼n
ĠPlug ins
Ġro sa
fÃ¤h igen
Ġl as
ĠMar ie
ĠK Ã¼n
ĠP i
G u
st Ã¶rungen
splan ung
ĠKond itionen
E gal
ĠS ven
Ġaus gerechnet
ĠF Ã¼lle
ĠW ut
ĠGest altungs
D isk
ket ball
Ġt ag
problem e
C ode
op tion
Ġle cken
ĠGrund satz
Ġbek amen
Ġfol gendes
Ġle bte
ĠJak ob
ĠDes cription
sch reiber
O ff
ĠLeistungs fÃ¤higkeit
ĠV I
ĠRal f
ĠSch af
Ġbet ragen
el tern
geb uch
att oo
Ġverl aufen
tre tern
Ġge leitet
ĠEx ec
pr esse
Ġschme cken
Ġvor ange
lo ok
H aupt
Ã¤hr en
ĠF els
ul s
Ġverw andelt
angeb oten
ĠBack ofen
Ġst reichen
qu enzen
ĠPal ette
ĠB L
ĠBeg leit
Ġd anken
ĠRund funk
st ift
an aly
ĠZ wer
ĠB eute
ed a
op tionen
ĠEinzel nen
OR T
ĠHÃ¼ hn
Ġsch eiter
ĠMed ium
ĠOut fit
W ind
ĠPhot ovolta
Ġkon serv
ĠVertrieb s
Ġoptim iert
ĠGymnas ium
on omie
b Ã¤ume
Ġre duz
j ugend
ild o
ĠHon or
Ġmit teilen
Ġange wand
spiel t
ĠBrun nen
Ã³ n
ĠSper ma
ĠEin steiger
ĠPublik ationen
Ġsing les
ĠA z
schied et
ĠBundes ver
Ġzu stÃ¤ndige
Ġbesser es
Ġged reht
Ġnutz e
w achs
ĠW oll
Ġst Ã¶rt
un es
ĠDF B
Ġbek annter
ĠKr ypt
Ġ8 2
chn ik
Or g
ĠQu al
Ġinternation aler
ge webe
Ġ4 50
ĠfrÃ¼ he
fuckfuck fuckfuck
ch ancen
ĠKap u
ĠB auf
wend bar
Ã¶ pft
ander s
Ġ Ã¤
ĠVit am
k leidung
ĠF ix
ĠPro ben
ĠAd apter
mo tiv
ĠFrÃ¼ her
ĠSec urity
ann y
ĠBar celona
B in
be am
Ġw ohnt
Ġvor erst
ĠPir aten
ĠSch ie
ha ven
ĠweiÃŁ t
ĠDon ald
Ġ ~
ĠH agen
Ġher ab
pro ben
Ġaltern ative
Ġein kaufen
ĠN ehmen
ru p
ĠÂ Ħ
ĠRo ad
ĠMall orca
Ġvern Ã¼nf
ĠB Ã¶rse
ĠZum indest
ĠPrÃ¼f ungen
K auf
stell ern
zul ernen
nach lÃ¤ss
ĠBit coin
ĠStÃ¤r kung
Ġgew Ã¤hlten
dig keit
u den
Ġkommun izieren
ĠR utsch
ges ichts
ĠRo ulette
Ġver sprechen
ĠMag deburg
Ġ2 20
ĠErn te
K S
Ġ enden
ĠW id
ĠM ust
ĠTrans formation
ĠB uchen
op s
tra ges
ĠBachelor arbeit
T ele
ĠB W
ĠVen en
Ġeurop a
Ġitalien ische
s fÃ¼hrer
ĠHandwerk er
material ien
Ġg Ã¤n
Ġan wenden
ĠIn fektion
Ġab gerufen
ĠMerk ur
ĠGesch ichts
ch at
ĠS ehn
ĠF ische
ha in
ator in
ĠErgebnis sen
Ġzur zeit
ĠSchw immen
ĠHei de
System e
Ġin folge
ĠZ unge
Ġmodern es
kap ital
Ġgespeicher ten
i ÃŁ
m ern
Ġbeein druckt
h armon
kt oren
ĠGeb Ã¤udes
A t
f ast
ĠKlÃ¤ger in
ĠVern etzung
n Ã¤
Ġm Ã¼nd
ĠG au
Ġvirt uellen
k amera
v ar
ĠSie gen
Ġherr schen
Ġres pe
o on
ir ls
Ġjapan ischen
I r
ĠH arry
h Ã¤
ĠD OC
Ã¶ pfer
Ġmit unter
ĠNachbar schaft
Ġ15 00
Ġbew Ã¤ltigen
ĠAns ichten
ĠAbhÃ¤ng igkeit
esch Ã¶n
Ġpro duz
ĠLeitungs wasser
ĠProjekt s
Ġrecher ch
K A
aus s
ens eits
Ġengl ische
________________ ________________
ĠM ega
steiger ung
Ġhervorragen den
Ġbestimm ter
b ische
ĠFrei e
Ġzug unsten
ĠMig r
Ġchrist lichen
ĠglÃ¤n zen
ĠPh asen
ĠSen at
ĠUnabhÃ¤ng igkeit
K arten
Ä ģ
ĠKal orien
ĠRum Ã¤n
Ġw andern
Ġl eidet
Ġuns icht
hel fer
ĠG eht
wahr scheinlich
kommun ikation
Ġi sol
Ġver sprochen
ĠUn s
Ġweib liche
K lass
affen heit
Ġgeh andelt
auber n
ĠG Ã¼rtel
ri z
ĠMedik ament
ĠAn sÃ¤tze
ĠX box
ĠgrÃ¼nd lich
Ġd ritt
ĠGeb iete
ĠLuxem burg
c ed
Ġlo hnen
Ġver grÃ¶ÃŁ
ĠFuÃŁ gÃ¤nger
ĠGef angen
ĠK en
et it
Ġa fr
eist ungen
ĠS Ã¤tze
Pro zess
ĠberÃ¼hm te
ĠP y
Ġerw Ã¤hnen
IS CH
ĠGitar re
ĠK iefer
Ġein ges
auf lage
amer ikanischen
met all
ĠP Ã¤dagog
ĠBill ig
cyc ling
Ġb rechen
or etisch
ĠF ingern
je ktive
ĠGrÃ¼n e
ĠÂ§ Â§
Ġf ick
den klich
ari at
ĠR ies
Ġ2 30
t temberg
Ġunter s
ĠMich el
schu b
ĠUr sprung
wei ger
c u
Ġc ir
la w
Ġschrift lichen
spezif ische
ungs recht
we sten
Ã¶ hne
res erv
um me
Ġerz Ã¤hlte
ĠPoten tial
ĠKrankenk assen
ĠInterview s
Ġp fle
Daten schutz
Ġf amilien
ach bar
Ġintern et
Ġernst haft
ĠÃĸff nen
l or
ĠBe frei
Ã¼t zlich
ĠFran cis
ĠT R
ĠAb geordneten
neh mlich
ĠBÃ¼r gern
ĠX L
ĠWel pen
Ġher zustellen
kon zert
ĠDir k
M otor
Ġentsprechen der
ill on
Ġe p
Ã¼ len
, ,
n s
Ġb lo
gra de
ĠÃ¼ber leben
om s
un fÃ¤higkeit
ĠR oland
ĠDer zeit
ĠArmb and
au x
Ġunter gebracht
Ġp reise
ĠOr gel
Ġver bleiben
P ass
Ġverab schiedet
ĠG ift
w ann
onn a
bo y
Ġflex ible
ĠsÃ¼d lich
ri ce
auft ritt
ph y
ĠEl isabeth
Ġkon vention
Ã¶hn t
ĠG rupp
Ġ7 1
Bl og
Ð ²
ĠPf anne
ĠBeit rÃ¤gen
B eit
ĠBÃ¼r os
ĠN est
h end
sÃ¤ ure
Ġweib lichen
200 4
ĠSil ikon
B ad
ĠH ast
ĠR on
Ġbe achtet
ĠkÃ¼ hl
ĠS auber
ĠP kw
ĠWider spruchs
ĠunabhÃ¤ng ige
ĠL etzt
ĠD C
ĠAn stren
ĠSport s
Ġb ra
Ġder artige
Ġsch mal
Ġnach weisen
ĠTo de
ĠÃ ł
richt ungs
sam er
Ġkomplex en
ĠSE O
Hin weis
H i
sch atz
T F
schutz es
gr Ã¼ndung
ĠMittel meer
Ġerfolgreich er
pr es
ĠBes ondere
ate ur
ik as
ĠEt wa
I X
T itel
eb urg
abhÃ¤ng ig
unk eln
asch inen
ĠHallo ween
schaft lichen
k Ã¶r
t our
ĠP ho
wirtschaft s
Ġb al
op pt
Ġange hen
ĠA genda
ĠKart on
ĠWÃ¤ sche
sor ten
ĠSie he
ant rieb
Ġst irbt
St ra
Ġkostenlos es
n achtung
ĠO pel
Ġabsol uten
Ġw ien
ĠAn k
au bt
ĠEind rÃ¼cke
iz er
b or
ĠV Ã¶l
kon stru
ĠImpul se
Ġbereit gestellt
ĠfÃ¼hr ende
gr Ã¶ÃŁer
ĠNe ck
Ġalt es
Ġm inder
Ġg Ã¶n
ĠEnt spann
Ġangen ehmen
F inanz
N acht
p ommern
ite kt
Ġintens iven
ti ck
Ġvertrau ens
Ġw Ã¤hlt
aut o
ĠAR D
Ġb ook
Ã¼ber greifen
amer as
Ġverbunden e
A ktiv
Ġpro m
ĠLand gericht
ĠZeit ungen
ĠÃĦ l
H ey
ĠGo ethe
ĠC ard
ĠH Ã¼tte
ĠProt ein
A uft
S en
ĠSch lieÃŁ
ĠPl at
Ġ[ *
d own
zu halten
ĠRecht sprechung
ĠPil ot
ĠQuadrat meter
ĠAkte ure
an sicht
ur ren
rid ge
. ;
ĠK Ã¤r
f uÃŁ
Ġ ort
Ġbe denken
vel op
Ġorien tiert
ĠÃ¼berw inden
Ġgewerb lichen
ĠIn stand
ied lung
ĠZw ang
ĠWasch maschine
Stand ard
eb st
vor aus
Ġver lÃ¤uft
Ã¶ ser
Ġnachhal tigen
Ġgu cken
ĠA str
ĠSt oÃŁ
ĠUmkehr osmose
fl Ã¼sse
Ġorien tieren
emit tel
Ġfor derte
ĠNet work
Ġan schau
ag ung
N atur
ĠKÃ¶nig reich
Ġmittel alter
ĠEcht zeit
ĠMedikamen ten
andin av
ter ung
ĠG Ã¤n
ĠPau sen
ĠFinanz ierungs
it us
Ġ9 7
ĠEm p
wÃ¤ sser
ĠH IV
Ġwunder baren
ĠausfÃ¼hr liche
c ons
pol izei
ĠO snabrÃ¼ck
ĠNetz werken
ĠPh ysi
ĠV ize
ĠAd am
ĠKlein anzeigen
Ġk olle
Ġc l
ox id
ĠAus zahlung
ĠTabl etten
W ichtig
rit ing
ĠGewinn spiel
st uf
Ġh eilen
ĠG lu
ĠSp l
ĠÃĸsterreich s
ĠZ oo
ĠmaÃŁ geschneider
wick elt
orien tierten
ĠSab ine
! Â«
L auf
ach se
ĠSpann ungs
ĠClau dia
de kor
ĠLi quid
ĠD Ã¼
ĠEs cort
ĠTerr assen
ĠIm pf
C ommerce
p rinzip
Ã¤r kt
Ġger ichtet
Ġschw immen
M al
ĠB ald
at ing
alen te
sto ÃŁen
ĠH R
Ġger icht
ĠSÃ¼d tirol
s ache
ĠWas hington
Ġdem entsprechend
B ilder
p osit
ur y
Ġver schen
ĠAnfang s
ĠH il
uch tet
ĠK ommt
ĠBek annten
ĠP osit
ĠhÃ¶ re
Ġs ommer
Ġse el
Ġd istanz
ĠKap azitÃ¤t
p Ã¤
h inter
il ie
ĠgrÃ¶ÃŁ ter
ĠFÃ¼hrungsk rÃ¤fte
u sch
ĠH av
Ã¤m tliche
ĠFranz isk
ĠVertrau ens
Ġer b
Ġzer tifiziert
ĠAus zubilden
ĠerhÃ¶ hten
Ġer frischen
Ġgleich nam
ĠRob oter
Pro blem
ĠKÃ¶n igin
Ġz ivil
ent scheidung
Ã¼t tern
Ġanges agt
Ġam bul
vis or
d orfer
ĠEhe frau
Ġins zen
Ġbesch Ã¤digt
Ġreich hal
ĠEnt decken
Ġ17 0
ĠEnergie effizienz
ĠKredit karten
ar ot
Ġb ade
Ġange f
ĠDar in
Ġerst reckt
stÃ¼t zung
ĠH amm
Ġ8 7
viel falt
Ġexpl iz
Ġs eht
ĠEurop Ã¤
ĠM E
ĠG Ã¤rten
jahr e
ĠW alk
ĠSch rau
ĠAr ena
mon at
ke pti
ĠVic tor
ĠAb stieg
ĠStoff wechsel
ner s
Ġabsol uter
T O
ĠKom pro
ĠWÃ¼r zburg
ĠFantas y
in ent
An bieter
ĠZiff er
c s
Ġaust auschen
un ternehmer
ĠStra fe
ĠBand s
sh ip
spf lich
) -
geb urt
ĠTeil zeit
ĠN AT
CD U
los es
Ãľ V
Ġelektr ischen
C ard
Ġintern e
Ver b
Z er
ĠKn ei
ĠT C
P erson
geb irge
ĠStr ich
ĠInteress ierte
ĠBereit schaft
ĠfÃ¼n ften
Ġbeleuch tet
ĠArtikel s
ĠAus ser
on ach
ĠÃ ĺ
ĠMan uel
ĠR A
stra fe
sch altung
send et
arn ing
all t
ĠAnaly sen
Ġkathol ischen
G ar
ĠMig ranten
ĠBes etzung
Ġsex kontakte
ap h
Ġfehlen de
ĠRÃ¤ der
ri um
gew orfen
ĠS ack
Ġh under
Ġlecker e
ifest yle
Ġsch ick
Her z
ĠD rag
Ġf ett
ĠEnergie wende
ar tiger
ĠCas h
entr al
Ġeinzus etzen
Ġheraus fordern
teil er
ug h
Ġirgend was
Ġpfl anz
h ungen
Ġinteress ierte
str eit
ĠMa j
ĠMÃ¤n n
Ġkonfron tiert
schun gel
ĠTats Ã¤chlich
Ġgeb rochen
ĠSchiff e
ĠD ick
orien tierung
ĠOst ern
ĠLo unge
ĠLÃ¶ sch
B O
ĠMar x
H N
re che
ĠNutz ers
w all
Ġsch loss
os a
ĠFinanz amt
ĠBeliebt heit
g Ã¤u
K G
Ġan treten
Ġs inken
ur es
Ġ19 50
bei spiel
ĠMet al
ĠMitarbeiter innen
ĠF liegen
Ġgen ieÃŁt
Ġv ierte
ak ers
ĠkÃ¶rper lichen
Ġwid men
ĠSpr ing
inter ess
bew usst
Ġgef reut
ĠElekt rom
ĠKapit Ã¤n
wa sch
ĠMitglied staaten
Ġko oper
O st
ĠAro ma
ĠWelt meister
K ein
Ġgew iss
ĠEigen schaft
Ġein ig
se g
ĠFre undes
m Ã¼
ĠB ell
ĠLin ke
Ġbedro ht
N orm
ĠAn st
gar antie
Ġh Ã¤r
bezir k
Ġanzu wenden
regel ung
Ġd rucken
Ñ ı
Ã¶s se
So fern
ĠIm plemen
zw ald
Ġm athem
pf legung
c omm
ĠW obei
ĠN ick
Ġ12 00
ĠPap a
ĠGewÃ¤hr leistung
ĠVer wir
stra hlen
Ġ- --
mit te
ĠUl m
Ġein schlÃ¤
ĠC orn
nach mittag
ĠgemÃ¼t liche
hin weise
ĠSwinger club
Ġun klar
ĠGesetz geber
gemÃ¤ ÃŁe
N et
ĠK im
ĠReg al
ĠPubl ic
Ġbegeg net
Ġkompat ibel
one y
ĠSp eich
Ã¼r fen
Ġnach weis
ĠAus flÃ¼ge
ĠHÃ¼ gel
ĠB ob
ed y
ĠSchwar zen
y en
ant s
o is
io se
Ġkompeten te
Ġvi agra
ĠSch rÃ¶
Ġgesch ichten
Ġland es
ĠÃ¼ber sichtlich
itz el
L P
ĠB len
ab sichtig
ĠSen ior
ĠÃĦr ger
fle chte
ie ger
ĠGe geben
ĠKommun al
ĠhÃ¶ch ster
ĠL isten
Ġben achbar
Ġinteress anter
s werten
Ġaus fallen
ĠzurÃ¼ck zufÃ¼hren
Ġso oo
Ġent z
ĠH ahn
Ġer hol
ĠPrÃ¤ sent
strate gie
ab schnitt
ĠAus schuss
Ġein f
ĠI hm
rÃ¤ gern
S terne
ĠFl ur
d oc
un er
Ġleck eren
ĠS O
ĠHeraus geber
ĠAmer ican
ĠO ze
ĠW etten
zul ande
part ei
ĠFre quenz
ĠDe fen
ĠzuverlÃ¤ss ige
berech tigten
ĠZ Ã¼ge
ĠFest stellung
Ġunver zicht
pr ise
Ġirgend ein
part y
Ġver glichen
Ġp Ã¼nktlich
ĠC C
ĠAl fred
min uten
ĠmÃ¤ch tig
i ation
ond a
st eig
ĠSchul z
ĠE if
ĠSol o
Ġmet all
er es
ĠPfl anz
Ġendg Ã¼l
gar ter
ĠTest ament
Ġau gen
Ġabsolv iert
ĠHum an
Z ahl
ĠLandes regierung
ĠLa sten
ĠÃ¼ber ein
Ġman uell
ĠW Ã¤re
Ġwenig sten
low ak
P riv
bl umen
Ġed el
ĠHerstell ers
ie ure
ĠH ip
ĠV olle
ĠVerb ot
ĠTri ck
ĠBr ille
Ġpr ima
d h
wie se
vor lagen
stra ÃŁen
ĠEn ter
Besch reibung
Ġunmittel barer
ĠRot h
ĠNational sozial
H ein
spf lichten
ĠSch ade
beh Ã¤lter
ĠWett be
Ġanzu passen
Ãĥ Å¸
Ã¼ me
ĠPo ster
Ġjeg licher
ĠN ike
Ġgesch ul
ĠAc ryl
ĠSchalt flÃ¤che
Ġaus k
ĠAn reise
Ġvor wiegend
ĠBe endigung
Â ·
ĠHand ball
st ationen
ym ph
ĠR C
ĠGe ben
ĠAus nahmen
ĠExec utive
F raktion
m anden
Ġverb reiten
200 3
ĠBade wanne
iat rie
sta ats
ĠGleich gewicht
ĠZenti meter
N ov
ĠP aten
Ġeinfach es
ĠMar i
ĠKa sten
Ã ł
ĠÃĦ sthet
Ġweich e
Ġman geln
ĠDok umenten
Ġd ifferenz
ĠZu erst
ti le
ro cken
Ġgew orfen
ĠAuto fahrer
Ġhinzu gefÃ¼gt
pat ronen
ges undheit
ĠTob ias
ĠRe zension
frei es
ĠN E
ĠOn lin
Ġrund um
ĠZeich nungen
ĠF aden
âĢľ ).
ĠSa ft
t Ã¼r
St ation
ĠDan eben
ied elt
rad io
M edia
or ch
ĠZeit alter
Ġho tel
S uche
ĠAb bildung
Ã© e
Ġmittler e
ĠBetracht ung
Ġ licht
Ġn irgend
wÃ¼r digen
pum pen
S I
Ġeinz uf
ĠFrem den
g uss
Ġf rank
if iz
ĠH Ã¤usern
oc us
ĠHom osexuell
ĠKÃ¼nst lern
ĠMin er
ĠnÃ¶r dlich
Ġr an
ĠRet ro
as ing
Ġkon stant
Ġwieder holen
ti mer
ĠL eh
Ġn Ã¼tzlich
ĠAn ne
Ġâ ĸ
Ġteil zunehmen
Ġserv iert
ĠBundes k
l aut
ar ger
Ã¶ bel
ĠL ag
Ġ( ...)
ĠKartoff eln
C om
Ġver senden
Ġeinz iges
ĠAn hang
ĠUn ternehm
ĠPrakti kum
ĠAnkÃ¼ndig ung
Ġverantwort ungs
ĠStiefel etten
z immern
uss ia
ĠZw angs
ĠL inden
ĠIn dustr
Ġst Ã¶r
gel ung
Ġmehr erer
ĠEr ster
em and
Ġf ung
An schluss
Ġfreund lichen
ĠZahl reiche
l itz
ĠD AS
ĠS L
ĠBes atz
Ġbrau chte
Ġr aten
ĠSt ro
ĠF etisch
Ġverlin kten
Ġbeschrieben en
Ġab seits
ĠTeen ager
SP D
ĠStand orte
ĠStellung nahme
ĠWurz el
ĠAlli anz
Ġb richt
ĠWie se
Ġber ufen
Ġbet reffend
ĠNie mand
al in
s ich
Ġge lingen
Ġkon figur
Ġwachsen den
Ġeinz ur
ĠRo te
ĠbenÃ¶ tigten
stell ers
Ġausge geben
yp e
be wertungen
ar ter
ĠHan se
ĠBaumw oll
Ġdr Ã¼ber
k ass
an forderungen
Ġsp anischen
ĠPod cast
ost a
ĠHier fÃ¼r
ement s
ĠkÃ¼ chen
Ġkeines falls
ĠHeiz ungs
ĠÃľber zeugung
Ver anst
j u
ot herap
w il
ĠTag ung
ĠStr assen
ĠBl asen
Be vor
Ġeinge geben
jÃ¤hr ig
Ġer r
ĠN asen
ist isches
Ġvorher igen
m ilch
Ġun i
ĠRe zeption
in tern
sem ester
ĠAn sprÃ¼chen
eite ten
Ġbef asst
Ġis rael
ĠSchaden s
le pp
ĠCamp us
Ġende te
ĠMin im
ĠC ru
S l
Ġh ellen
an ch
Ġzu geben
Ġdurch setzen
ĠIntens iv
iff eisen
Ġbo den
sch ale
ĠI C
schm uck
ĠEr laubnis
deut sch
ĠDrei er
ĠHerzen s
steh end
L iefer
Ð ¼
ĠG ust
Ġgemeinsam es
L Ã¶sung
ĠH Ã¼r
ĠKok os
p ad
ĠVen til
rei hen
Ġerw ischt
Ġinform ation
ĠK M
ĠSpiel zeit
ĠM alt
zahl ungs
G A
me tern
#### ####
Ġgener ika
ĠBo sch
H ab
Ġw inter
ĠThail and
ĠEin sÃ¤tze
Ġgeht s
ĠBox en
ĠK anten
tif unktion
ĠVerband s
ik ate
Ġfeier te
ĠIr land
ĠT E
ĠG eister
Ġveran lassen
ĠSt Ã¶r
ĠPar adies
ĠWahl kampf
K olle
Ġg n
ate x
ĠLa w
V oll
be ziehungen
ĠNeu gier
op tik
dr Ã¤ngt
ĠKro atien
Ġauss age
B ank
ĠM eist
ĠL achen
ĠLand tags
Ġschlaf zimmer
........ ........
h und
ĠAnge hÃ¶rige
Ġj enseits
mo de
Ġschul d
Ġbl og
Ġn annte
ĠV intage
ĠBÃ¼rger innen
Ġkennen zulernen
ĠPass form
air e
ĠHy brid
R icht
er kennen
ĠSt all
ĠSp ende
Ġspezif ischen
ĠRechtsanw Ã¤lte
ĠGem Ã¼t
Ġzw anzig
ir st
ĠA T
ĠKopf hÃ¶rer
ol o
Ġs uchte
Ġfair en
sp itzen
Ġver packt
ï ¸
Med ien
in tens
Ġman cher
Ġverhei ratet
B R
Ġfreund liche
à ¤
ĠDynam ik
lei hung
ĠAust ria
Ġgew isser
la ppen
be eren
ĠO N
Ġfest er
ĠTier schutz
ĠUmsatz steuer
ĠLay out
ĠgroÃŁ artig
t chen
Ġblau e
K aufen
ĠBo ck
ĠWa ffe
ĠFass aden
ĠMinister prÃ¤sident
ĠD Ã¤m
ĠM etz
emm t
wirtschaft liche
ĠHer bert
ĠKat al
ĠBrÃ¼ ste
fre quenz
ĠUnter grund
stand ort
% ,
in haber
ol stadt
ĠL euchten
Ġre gen
ak ademie
tau scht
ĠBe achtung
Ġtran sparent
Ġjahr e
m ond
Ġgest altete
all i
vert rÃ¤ge
Ġbill iger
ĠK aum
ĠFl irt
beit rÃ¤ge
ĠFantas ie
ĠF ut
ĠAus schluss
fe ktionen
ĠOr ange
Ġer arbeiten
Ġver ank
In d
Ġbr ach
ĠTex tur
ĠHaupt bahnhof
gerichts hof
Ã¼berw achung
ĠZu gangs
ĠHilfs mittel
Ġvert eidigen
ĠHard core
Ġver arbeiteten
K onto
ĠDel eg
ten nis
Ġausge wertet
Ġben annt
Ġvier zehn
ĠAuft rÃ¤ge
Ġpassen des
Ã ¸
ĠD ess
Ġbeant ragt
schie ÃŁen
ĠAusland s
ĠTabl ets
hol ungs
ĠF alten
rÃ¤ g
for scher
ĠSÃ¼d afrika
Ġruh ige
stat us
ĠTre ppe
Ġk alte
por ter
Ġgriech ischen
j agd
ĠB un
Ġetabl iert
G R
Ġstud iert
Ġmit bringen
Reg ion
ĠArg umente
ĠNahrungs mittel
Ġr ass
ĠB reiten
Ġk Ã¤
Ġeinmal ige
l ach
Ã¼ le
ĠKonfl ikte
ess ungen
ĠGel tend
Ġge lebt
mel der
du ktion
F arb
ĠMo dule
stre ben
Ġgesch Ã¤tzt
Ġbe geben
ĠUn bek
d irektor
bet rieben
beauftrag ten
auf gabe
ĠCh ip
Ġmotiv iert
Ġw ahnsinn
or er
rie digung
ĠH ild
ĠKer l
vorsitzen de
G erne
Ġgr Ã¼ndete
antwort ung
sem it
ĠL Ã¤ufer
Ġsp ar
Ġmit zu
ĠNeu stadt
Ġander wei
Ġher ange
swert es
k es
ĠL ichter
ĠZu schau
ast ik
S teuer
ĠGet riebe
W ider
rit zt
ĠBeh aupt
ĠZerst Ã¶rung
T rainer
st amm
Ġverm ieden
ĠProjekt es
ĠAngriff e
ĠS essel
ĠEr leben
Ġst ress
Ġ ]
ĠÃľber legungen
Ġverm ehrt
ĠTh or
ĠÃĦr zt
Ã¤uf en
ĠInner halb
Ġlux uri
Ġb rem
An lage
is ierungs
Ġer kl
Ġform uliert
ĠjÃ¼nger en
Ġwissenschaft lich
d liche
ĠPer len
S M
ĠSch Ã¤fer
vor schlÃ¤ge
ĠLebens mitteln
ĠGir l
ĠJ h
J ul
ĠschÃ¶n ste
ĠVerbesser ungen
ĠKÃ¼r ze
z ettel
ĠTag s
Ġerreich ten
f isch
ĠSatz ung
ĠM es
ĠW eimar
ĠKapit alismus
B ed
sp w
gel ernt
ĠC ott
ha i
ĠSan itÃ¤r
ge stellte
ĠK lapp
ĠPat ent
Ġ8 1
au sen
Ġsex uelle
ĠP rag
ĠFÃ¼r sten
Ġ one
ĠArbeits losen
um er
ster dam
ĠSchul tern
gl os
K O
Ġs uchst
Ġstrateg ische
ob jekt
ĠVertrag sver
ĠHy giene
ĠB od
Ã¼t zte
ĠM ist
Ġf ac
Ġpro pos
ĠDi mension
Ġgek lappt
ĠSchuppen flechte
ĠA ar
ann a
ĠNor men
Ġanspruchs volle
ĠP for
ag on
Mit glieder
ip ment
ĠBeg rÃ¼
ĠTreff punkt
ĠgÃ¤n zlich
ĠJ ena
sf est
Ġherr lichen
ĠW Ã¤nden
ĠVer stand
ĠAuft reten
ĠW ester
ĠAus dauer
M Ã¼nchen
aus gaben
ĠÃ¤lte ste
ber at
ĠPro vider
ĠDe al
ĠAktu alitÃ¤t
ĠF uchs
ĠSel ten
familien haus
bay ern
gÃ¤n gig
ar at
ĠFr ise
Ġober halb
Ã ±
Ġnie manden
r isch
ĠGet reide
kon zern
ĠGeltend machung
ĠSch immel
ation aler
ĠÃ¶sterreich ische
ĠChar l
Ġsing leb
ĠAus gangs
Ġverb aut
aun a
tau cht
Ġbelast et
Ġs af
stÃ¤ndig er
Ġmu schi
Ġnachvoll ziehen
ut scht
lie s
ĠNiederl ande
S D
ĠEr furt
Ġn ich
So zial
et ischen
Ġbeh er
S erv
ĠG ehen
ĠAu d
ĠViel mehr
M eister
ĠDis ney
Ġ7 50
ĠPr ime
ĠHaft ungs
w itter
Ġwie s
rech ner
sch laf
u hl
Ġp unkt
Ġsol ide
ĠBesonder es
ÃŁ end
ĠJahr est
Ġr unde
verk usen
» ¿
ĠBedÃ¼rf nis
Ġbeauft ragt
Ġin f
ĠK ater
ĠSonnen untergang
grÃ¼n der
ĠAuf satz
Ġunter m
Ġgesch eiter
atis iert
istr ation
Intern et
Ã¼ sch
la v
Ġre alen
Ġ8 3
ĠW uppertal
Ġu eber
ĠBet rug
Ġunber Ã¼hrt
Ġhin unter
ĠCon ne
pack ung
Ġjur istische
ĠAkt ie
Ġbes uchten
Ġ !!!
ĠÃ¼ber flÃ¼ss
box en
pul ver
ĠLin z
mag azin
Ġ198 6
Ġausge zeichnete
ĠDis pon
anz ug
klÃ¤r en
ĠS we
Ġsp ringen
ĠGet rÃ¤nk
P P
Ġbl icken
Ġspir itu
g itter
ĠSie mens
Ġuner wÃ¼n
Ġplatz iert
ĠTrage komfort
g it
ĠSch auen
ĠReg ister
verb indungen
ss icherung
ĠStr asse
ĠB ike
ĠL id
ĠL ampe
Ġo st
oren z
alif iziert
ĠP el
wert ungs
ĠLeip ziger
ĠMittel feld
ĠHor izont
E E
ĠO pern
ĠUm stand
ĠHaus arbeit
Ges etz
ĠW elle
ĠAb gaben
ĠP reu
sl eitung
de fin
ĠIn tel
zus p
gerech ten
ĠP okal
Ġid yll
ĠBes ichtigung
ĠgefÃ¤hr det
ble ch
Ġst Ã¶ren
ĠKon f
ĠBÃ¼ gel
Ġprakti z
ĠExempl ar
ĠLin ken
ĠSonnen schein
Pl us
w ell
Ġge teilt
co ut
Ġschaff te
h ans
et sch
ail len
Ġdrei mal
ĠVerg Ã¼tung
Ġ(* )
Ġg ames
ess ung
Ġer fordern
ĠHei ÃŁe
ĠGlau be
ĠGesell schafter
ĠSch eibe
rÃ¼ck te
ĠTau sende
p an
ĠAntrag s
Ġbege hr
Ġin soweit
Ġeigen s
ĠG aumen
ĠG Ã¼ltigkeit
Ġbes prechen
ĠZusammen spiel
Ġdefin ieren
ĠS ele
Mit arbeiter
Ġsozial er
ĠC ra
fe kte
ĠChr is
reg al
ĠÃĦr mel
ungsk raft
ĠErd geschoss
Ġd os
Ġauf geben
ĠB eil
ĠReh abil
Ġein tragen
Ġselbst Ã¤ndig
ven ten
ĠCont ainer
Ġw omÃ¶glich
Ġdauer te
ĠKons umenten
Ġc lub
It alien
ĠO h
Ġver hand
schlÃ¼ssel ung
ĠFÃ¼hrer schein
ob i
Ġst ri
ĠHaus frauen
dienst es
Ġeinsetz bar
ĠÃľber nacht
Wir tschaft
ĠP seud
ĠBand breite
ĠZusammen hÃ¤nge
Ġgelegen en
ĠPubl ikation
ĠWÃ¼r fel
m assen
ch or
Ã¶ op
Ġgew ohn
Ġglob ale
ĠEr be
Ġwar f
Ġvergleich bar
Ġfahr e
hunder t
f irma
ĠSor te
ĠIn dust
Ġunter liegt
Sie g
r ichtig
sp oten
Ġversch oben
Adr essen
S L
Ġ9 3
a o
ne ws
ĠP ink
ĠRe view
ĠL av
Ã¤r er
k rain
war ds
f ans
ĠP ad
Ġumfang reiches
P DF
Ġge stellten
Ã¼t t
f un
Ġd pa
ĠSchwier igkeit
z ins
Ġent werfen
Ġam b
ĠT Ã¼b
B Ã¼rger
b ier
ungs anleitung
ĠRechts grundlage
versicher ungen
ĠHand ys
ĠÃľber ein
P aket
R eise
Z B
Ġw onach
ĠPeter s
Ġeleg ante
on anz
ĠVor sprung
Ġwid met
Ġsp eichert
at iker
Ġvergleich sweise
ĠDeb Ã¼t
c ent
ĠK ita
ĠP utz
ĠN adel
ent wurf
Ġinspir iert
Ġge hoben
ĠR av
Ġsch ief
ĠTot al
a unt
ĠFin al
ĠDunkel heit
Ġin t
ĠAn ten
ĠSpezial itÃ¤ten
ĠK um
Ġgeb acken
osk op
Ġs m
ĠG anzen
Ġjapan ische
klus iv
ĠgrÃ¶ÃŁten teils
D ownload
ĠÃĸff nung
Ġst oppen
ĠMit einander
In g
Ġeinmal ig
Ġrenomm ierten
âĢ ¹
Ġauf recht
Ġbel asten
ei tigung
ĠZ immern
ant wortet
Ġverschl ossen
Ġs eite
Ġm Ã¼h
Ġp en
ĠMess ung
ĠAngelegen heiten
edig lich
N ational
b undes
ech te
kr ise
Je de
T EN
ader born
ĠP osten
Ġwie viel
Ġbekannt lich
ĠAb onn
Ġ198 7
Ġenorm e
sp aÃŁ
ha ken
empf ehlen
Ġ arm
ĠFot ze
ĠkÃ¼ hlen
ĠB Ã¤umen
man tel
ĠFarbt on
ĠBeob acht
ĠT hal
Ġ198 4
ĠverknÃ¼ pft
s ommer
ĠBur gen
P lug
Ġbes orgt
ĠRes e
o wer
imm els
Ġverl ang
Ġrecht lich
ĠW end
ĠV iet
Ġver wiesen
Ã¶r tlich
f acht
Ġf ich
ĠChr om
N C
ch i
vor haben
Ġd umm
vers uch
Ġer gab
ĠKop ie
ĠW ater
ĠMenschen rechte
geh Ã¤use
I s
S B
Ġh euer
w ahlen
ĠOl denburg
Ġge lieb
ĠR aub
ĠGitar ren
un ts
Ġd rÃ¼ckt
Ġver nachlÃ¤ss
kon omie
ĠBundes lÃ¤ndern
o ckt
ĠPan ik
Will kommen
l Ã¼
ab is
ĠToil etten
ĠEss ay
' '
s hafen
ĠO K
s achen
hop Ã¤d
ĠUntersuch ungs
Q L
ĠRe pl
forn ien
ĠMad rid
geb ungen
ĠSchw estern
kan al
ĠEhem ann
Ġk ass
ĠtÃ¤ tigen
ĠRÃ¶ mer
Ġt ags
ĠLieb haber
g alerie
os se
ĠPor tion
New s
Ġver lÃ¤sst
ad or
Ġall mÃ¤h
ĠPr es
ĠRed uz
ĠBelast ungen
ĠInner e
ĠCorpor ate
park s
ĠLand schaften
Ġempf ehle
sch warz
ĠSilv ester
ar o
r ession
ĠKont ra
ĠAufbew ahrung
ro gen
men te
ĠIns zen
ĠKant ons
f Ã¤nger
Ġ5 000
Ġhier zulande
heim ischen
ĠReich s
Ġwir kte
Des halb
g ard
Ġauf kommen
ĠIm plant
Â ¦
Ã¼ss eln
Ġk ol
ĠSe kund
ĠgewÃ¤hr en
Ġberu hen
ĠD own
ĠSp in
lo h
ĠRo uten
ĠStil le
ĠGab riel
Ġun heim
Ġein nehmen
ĠAf ghan
k andid
hÃ¶ fe
ĠjÃ¤hr lichen
ĠHir sch
Ġbest icht
Ġm ilf
ĠPl Ã¤tzen
ĠApart ment
ĠInnen raum
ĠPrin zessin
ĠZusammen setzung
Ġdenk bar
ĠSar ah
ĠYo ung
Ġin tu
ĠAn blick
Ġgew id
mÃ¤ÃŁ igkeit
ĠExper tise
ĠunabhÃ¤ng igen
Ġan im
Ġfinanz ieren
A ug
ĠF ÃľR
Ġperman ent
r w
spezif ischen
Ġwo fÃ¼r
ĠRa iffeisen
ĠGelt ung
r un
ĠÃ¶ fters
ĠVolks wagen
Ġun Ã¼ber
Ġbl asen
ab satz
v iele
sp ringen
ĠÃ ĥ
ĠHo sp
ste ten
h Ã¼lle
ĠGrund sÃ¤tzlich
H a
stand ard
Ġgeist igen
gel b
Ġbeg angen
Ġer lang
sp err
ĠPar ameter
ĠSpr uch
Angeb ote
Ġkrit ische
k raut
ĠFir st
nah e
Ġko ordin
Ġvorher ige
en ce
et ch
ĠVer luste
ĠSt ark
Ġr et
Ġ24 0
ĠgewÃ¶hn lich
ĠProdu zenten
ĠVer schluss
ĠEnt deckung
ĠBar geld
ĠExper te
ĠHalt barkeit
k etten
Ġda zwischen
ĠN ass
Pro fil
schul den
ĠTel ech
Ġhochwertige m
ĠBl as
Ġsicher gestellt
beweg ungen
prÃ¤ sidenten
ĠAk adem
ĠAb sprache
ĠLu kas
ĠSa int
ĠGeh Ã¶r
ĠP rax
tur n
ĠTr ier
Ġer lernen
st ige
Ġunein gesch
Ġder er
ĠP ussy
Ġstra p
ĠAngel es
Ġfich ier
un ft
ben e
ĠTelech arger
h at
hal s
ĠOrd nungs
Ġaufge fordert
jÃ¤hr iges
ĠDispon ible
A lt
ĠH ess
A ss
c up
S icher
ank ungen
ĠD icht
ĠD iv
hand werk
ateg or
ĠFrÃ¼hl ings
: :
Ġab onn
Ġverd ammt
utt gart
ĠCamping platz
Ġbeherr schen
op fer
Ġkl ang
ĠMod us
ĠAn mer
ĠOliven Ã¶l
ĠStutt garter
gesch Ã¤fte
mar sch
Ġur heber
spart ei
ell i
ĠRes ort
ĠÃ¤uÃŁer en
j Ã¤ger
en g
ĠL ove
Ġbet reuen
ĠEl ite
ĠS qu
ĠAb bildungen
ĠMy th
us alem
Ġbes prochen
us se
st ig
Ġberuf s
in chen
zu geben
rÃ¤n kte
Kl ein
ĠBem Ã¼hungen
Ġfestge halten
Ġh elle
ĠSter e
ru d
ĠGr em
Ġvers icher
Ġverm uten
ĠCh ic
ingu cker
ĠP ie
AT ION
Ġkrie gen
d ringen
ĠÃ¼bersch ritten
ti me
Ã¤hr ungen
A ud
he ater
ichtig t
schnit ten
ign al
ĠMag ie
Ġerhe bt
Ġver kehr
ĠEr fahren
ĠSeit dem
C enter
w olle
Ġf eucht
ĠAus maÃŁ
ĠV amp
ian er
ĠTra iler
ommun ikation
Ġzw angs
Aut o
f assen
Ġent gehen
Ġpolit ischer
Ġ198 5
ĠSchwer punkte
ĠFahr ten
ĠAn schlag
ĠVorm ittag
Ġbe wiesen
ĠK un
pl attform
unt ing
Ġs Ã¼ÃŁen
Ġgew e
ĠGlÃ¤ ser
ĠEr haltung
Netz werk
Ġer langen
Ġange griffen
ĠWeb cam
Ġh eben
ĠVer einen
Ġjetz igen
ĠF I
Ġst abile
f i
ĠInterpret ation
in kl
Ġn omin
ĠFlÃ¼cht lingen
Ġungl Ã¼ck
Ġphil osoph
ĠSch um
ĠFort bildung
Ġz ogen
iff er
ĠGesprÃ¤ chen
use um
Ġunend lich
ĠBast el
ĠT ritt
ĠEr g
Ex perten
ĠVerz Ã¶ger
ĠKon serv
priv acy
ĠResult at
empfeh lung
aus gleich
Ġent schul
Ġdre hte
ĠFreiwill igen
ĠSch irm
umm eln
n ote
Ġ ÂŃ
ĠT asse
Ġw ochen
Ã¤ ge
ĠF reu
Ġausgeb ildet
Ġnacht rÃ¤glich
Ġt Ã¶ten
ĠRe zensionen
Ġausge stellt
Ġlegend Ã¤ren
ĠRÃ¼ck tritt
Ġgeheim nis
ĠRe alisierung
ĠBr ig
ausch ale
Ġver rÃ¤t
rau s
ĠUm stellung
rech nen
ĠOrg asmus
Ġverste cken
ĠR ac
Ġerzeug ten
Ġwei hnacht
ĠD G
fr arot
Ġw echselt
fÃ¼hr enden
ĠPark plÃ¤tze
struktur en
ĠKost Ã¼m
ĠEnsem ble
k os
ĠtÃ¼rk ischen
M Ã¶ch
dern e
Ġverw andeln
ĠBesch affenheit
av ig
Ġsch ickt
Ġar sch
ĠC ommun
Ð ¹
j unkt
Ein fach
ĠPrÃ¤ par
Ġeinwand frei
S ommer
schrau ber
ĠF rost
ver fÃ¼
rigen s
ikan ischer
ĠRÃ¼ck sicht
Ġne w
Che ck
ĠGrÃ¼nd ungs
if iziert
Ġerf reuen
stre ck
Ġer we
sel bst
Ges ellschaft
ĠRett ung
Ġein t
Ġst adt
Gen au
Ġp ein
ma ster
ron ic
r essen
s ituation
ĠR ast
etzt eil
ah ner
Ġvor gelegt
Ġbet reten
ĠO t
tel ier
eist ung
Ġal kohol
ator s
Ġsor tiert
Ġener ge
Ġsch reib
ĠHand werks
as p
ĠH ektar
tipp s
ad y
ĠB GH
ĠT oll
Ã¤u ÃŁ
ĠIniti ativen
ĠK y
ĠT ÃľV
L o
Ġbel ohnt
Ġhilf s
zept anz
durch schnitt
bil dern
ĠVor lagen
ĠSp ezif
ĠKennen lernen
schein ungen
St at
at zen
ĠMÃ¼n zen
ĠGesundheits wesen
ĠE X
Ġtau chen
ĠWirk ungs
Ac count
B enz
Ġaufge geben
sfÃ¤h ig
ĠAb bau
w elten
Ġrei fen
Ġb onus
hor st
ĠWord Press
ĠSp an
St r
Ġlauf end
ĠH ert
ĠKrie ges
ĠWei ÃŁen
ĠSan kt
Ġeur em
R est
Ġf angen
zen en
mark eting
Ġries ig
S am
W el
Ġk Ã¼ndigen
S ymbol
k ant
ischer weise
d rÃ¼
amen te
ĠKn oten
z em
ĠSchnitt stelle
Ġkom isch
R aum
Deut sche
ge ts
Ġheil igen
z ahn
te lefon
ĠOr ch
ĠFr on
lie d
Men schen
U l
is ierter
ĠAgr ar
ĠVer handlung
Ġweiter geleitet
ĠD ichter
Ġ1 12
ĠBe quem
ĠCh ines
l em
ĠH ER
ĠR elease
ĠGes ellschaften
ĠSoft war
Ġb aden
Ġh ind
ir urg
ĠGerÃ¤u sch
ĠE G
ĠÃľber gabe
ĠSolidar itÃ¤t
Ã¼n ster
mb h
ĠG M
de uten
eu en
Ġex o
ĠN EU
Ġschon mal
ĠRoh stoff
az ieren
gef allen
ĠauÃŁergewÃ¶hn lichen
ĠErschein ung
W C
Ġbr ill
ĠDies mal
ĠL obby
and ra
rÃ¤n kungen
ĠBas ketball
spl attform
J edes
ĠSch ichten
ĠEth ik
ĠToil ette
Ġ ult
uf akt
ĠEin em
ĠBundes amt
griff e
ĠKil ometern
ĠKrankenk asse
ĠStem pel
ĠS ogar
Ġn ass
Ġpro biert
Ġfehl te
ĠR olf
gro ÃŁe
le uten
ĠAb wasser
pfl anz
Ġ tisch
Ġw endet
Ġber Ã¤t
ĠFla ir
ĠNutzungs bedingungen
Ġaktu eller
Ġsex uellen
beh and
j ung
w achstum
Ġt rop
spiel zeug
Ġdazu ge
Ġrechts wid
el ine
ĠT inten
fil es
ĠWÃ¼r mer
Ġrelev ant
isch te
Ġwirk ungs
ĠPartner vermittlung
ĠunzÃ¤hl igen
ĠAngelegen heit
ĠAl u
ĠVerb und
ĠAt mungsaktiv
Ġeingel og
t agen
Ġw ander
Ġschl ag
ĠH Ã¤n
ĠSie b
ĠAk kus
n uss
ion e
ĠPro m
ĠGeb ot
Ġv s
Ã¤m me
ĠLog ik
Ġdigit aler
sp rit
vert retung
Ã¤t ten
stÃ¤d ter
ĠV il
org an
samm lungen
b Ã¤
ĠB ann
ĠKinder tages
ĠGeb et
rÃ¤um t
ĠHell igkeit
ĠK rone
ier bare
ĠSk ulpt
Ġleicht es
ĠSaar land
ĠBron ze
h ub
Ġp e
Z entrum
ĠB ucht
ĠSchw Ã¤b
Ġaut or
ĠAmer ikaner
ĠBekl agten
I Z
ter en
ĠC ust
Ġfort geschritten
chen gl
ĠEnd lich
Ġverb orgen
ie ge
ĠFl yer
J un
Ġaus lÃ¤ndischen
Ġde v
ĠSchw ung
Ġausge tauscht
m ir
ĠB H
Ġt rage
ĠVer gessen
Ġverbesser te
Ġdaten schutz
Ġaus zut
ett a
vor stand
Ġk Ã¤mpft
ĠDr ess
Aus gabe
ĠRech nungen
ĠFund ament
Ã¼l lung
ĠFol ien
ĠspÃ¼r bar
lo wen
Ġflie gt
Ġk a
ĠSt olz
Ġinteress ierten
ĠSyn th
ĠungewÃ¶hn lich
ĠU s
ĠAb fahrt
echanis mus
ĠHÃ¤uf ig
Ġge druck
Wir d
Ġchines ische
ĠE ffe
lie der
Ġrei z
Ġwahr nehmen
Ġdetaill ierte
ĠSus anne
geben d
M er
ĠAus schnitt
ĠIm per
Ġbast eln
ĠE volution
Ġt anzen
verl etzungen
ĠSpezial ist
ĠMÃ¼ hl
Ġs att
ĠauÃŁergewÃ¶hn lich
ĠHit ler
ier endes
Ġkr atz
schen kel
Ġlust ige
Ġz zgl
Ġwo zu
ĠT am
Ġm otor
sk alender
m Ã¤dchen
h ammer
au gen
ĠVerantwort liche
Ġherunter geladen
Ġtranspor tieren
rei fer
ĠJournal ist
instr umente
ĠF Ã¤cher
utt ons
brÃ¼ che
k eine
ĠG Ã¼
ĠSp am
ĠR inge
ĠGes ichter
Ġaut o
ĠMeld ungen
Ġsign ifik
Ġan kommen
gel der
ĠSte cker
ĠDi kt
L ang
Ġz eu
ĠSt ab
Ġh ave
mel zen
ĠUmwelt schutz
Ġfil me
' .
Ġk Ã¤mpf
ĠH E
f ro
ĠBe cker
bÃ¶ den
aus bau
Ber uf
ĠTages ordnung
ĠDS L
be er
ĠPar allel
ĠBehand lungen
gem achte
ĠKartoff el
P rot
ven til
Ã¤ss igen
g ische
ĠGemeinder at
ĠAnge stellten
ĠB la
ĠbeeintrÃ¤ch tigt
V ier
ieren der
Ġges amt
s arbeit
ĠD est
ym met
sch rauben
k ino
ĠK reise
lÃ¤ uter
sie ger
st einen
ĠBesonder heit
Ġinhalt lich
ĠRÃ¼ck zahlung
Ġland et
Ġlangfrist ige
2 50
ĠH enn
ĠPil z
ĠmÃ¤nn lichen
ĠL ekt
Ġnah t
kÃ¼ hl
Ġselt sam
V arian
ĠVer sammlung
eidig t
ĠC la
ill s
ft ungs
ĠÃľber nachtung
J an
M E
ĠE len
Ġweit aus
Ġab stra
hol d
h ahn
ĠS IE
Ġver rÃ¼ckt
Ġgr Ã¼nden
Ġinter disziplin
ĠHe alth
Ġn em
Ġfaszin iert
vorsitzen der
ĠGÃ¼nst ige
k enntnis
ĠBes uchen
Ġer schaffen
ĠKl Ã¤r
Ġkurz frist
hy d
U hr
rÃ¼m pel
r il
s wahl
Ġk lingen
ĠH ingucker
jahr en
b Ã¤nder
Ġeinge halten
ĠM ot
ĠFr ische
T ext
Ġumfang reich
ĠM aul
mess ung
h auer
k lichen
p orn
ĠRe vision
Ġwert voll
er lebnis
Ġd amen
Ġaus fÃ¼hren
Ġange z
ĠBegegn ungen
ĠLand rat
ak el
ĠSchw ach
Ġunangen ehm
ĠBevÃ¶lker ungs
ĠC L
schl ies
ĠFrei heiten
Ġregel n
sti ftung
Er n
C K
ĠB indung
t raining
ĠR ay
ĠSa arb
D EN
M a
ger ichte
Ġentf alten
Ġher ein
ĠAm sterdam
gro ÃŁ
ĠKrimin al
Ġget rock
Ġver deut
Ġneu sten
ĠDiagn ost
c us
Ġver weisen
Ġabsolv ieren
ĠGen re
S or
A ktion
ĠW urst
Ġsch aden
eigen e
ĠKatastrop he
Ġcir ca
f iguren
Ġte x
Ġheraus zufinden
Ġkorrig ieren
ĠEr stellen
ĠPer fekt
Ġreich te
Verkauf e
Ġl ock
L icht
hr op
Ġdies elbe
ĠK rist
ang o
Ġhum an
N o
ĠZuschau ern
Ġger man
Ġindividuell es
rein iger
oc ommunity
Ġsich ert
ĠVol ker
ĠWaren test
Ġf urcht
Ġl ine
scheid ungen
Ġleben den
Ġtau cht
ĠH ug
si sten
ĠprÃ¤sen tierte
Ġpro min
ĠBek annte
h Ã¶ch
gesch mack
ard o
ĠMat ratze
ĠSch ock
O l
ar ken
press ionen
l asse
ĠSp rechen
ĠNewsletter s
od or
Ġangen ehmer
Ġdeaktiv ieren
ĠL ass
ĠHar z
Ġv eget
ĠKais ers
Ġf okuss
ĠT ime
ĠInst itute
pro t
zwe cke
ĠZu bereitung
ĠWal zen
ĠK eil
ĠFach wissen
Ġdurchschnitt lichen
ĠP oppen
ute te
Ã© s
N ummer
Ġw agen
ĠG am
ĠR elev
Ġbew undern
ĠL IN
Ġiden tifiziert
ĠZertif ikat
R ock
Ġkommen tiert
aler ien
res pon
ĠDar unter
ĠSuch er
sum me
ĠZentr ale
Ġein genommen
Her steller
S al
ĠK lagen
ĠEr zieher
ĠRo ut
ĠSp anisch
sf rist
Ġwert vollen
ĠVerd au
Ġzukunft s
ĠbestÃ¤tig te
ĠI rak
ĠWolf sburg
k ochen
ĠWer de
Ġmark iert
ĠW Ã¼ste
Ġbe kl
Deut sch
ĠMinister ium
k Ã¤ufer
IS S
Ġunbek annte
ĠBrie fe
ĠS ul
b rau
op ro
ĠFl at
ĠKa der
it Ã¤ren
Ġaus lÃ¶sen
Ġeinger eicht
ĠT an
w ater
ĠDatenschutz bestimmungen
ag in
Z itat
im o
Ġmit gel
ĠSp ren
ĠPressemit teilung
ĠSch wert
ĠWer b
Ġbew Ã¤hrt
echan ik
um mel
Ġerf unden
ĠRicht ungen
j pg
ei fe
ĠFach krÃ¤fte
Land es
el ie
ĠL aub
Ġt herapeu
ĠEnt weder
ĠStellen wert
Inter ess
Ġd Ã¼ster
Ġverm eint
ĠF L
ik ale
atter ie
ro b
hr er
ĠL eu
ohn heiten
ĠBer ichterstattung
Ver ein
j amin
p i
Ġm ont
and et
ĠAnbie ters
ĠWohn sitz
V I
or i
ĠZ one
ĠSchm etter
verein igung
f rem
ĠS H
echanis men
Ġb arriere
schl us
ĠVerb indungs
Ġdauer hafte
ĠEcht geld
al ia
Ġf ickt
Ġman ip
pf leger
haft ung
ĠInnov ations
AL L
pf alz
Ġre prÃ¤sen
ĠKon stru
vort eil
ĠHem d
st el
ĠA ur
ĠEntscheid ungs
ĠG ay
St unden
Ġant wortete
Ġs ervice
Ġg rauen
ĠEt agen
Ġ196 8
ĠÃ¼ber sehen
ĠEx cel
ĠSex treffen
ĠNaz is
am eister
ĠFest ivals
ĠM ore
sen sor
M ER
Ã¤ss ige
Ġfehlen den
ĠH Ã¤rte
Ġhe bt
Ġd ienst
ĠTab ak
schn ell
.:.:.:.: .:.:.:.:
ĠVeg as
Ġs il
wer f
ĠAb b
isten ten
ĠRese arch
S K
h ut
i ffen
ĠPar ad
alb um
ĠD ark
S onnen
br ille
ĠWohl fÃ¼hl
ĠWirk stoff
ĠF ehlen
Ġgew echselt
ĠZ ier
wÃ¤r me
Ġger ettet
Ġheraus gegeben
ĠKrit iker
ĠW Ã¤hrung
ĠH atte
ber s
Ġun vor
Ġweiter empfehlen
ĠBor ussia
Er folg
ĠKlima wandel
Ġst Ã¤ndige
est and
op ol
Ġ11 5
ĠSpons oren
Ġschwar zer
Ġiden tisch
Ġm ischen
ber lin
ĠspÃ¤ter e
Ġstark es
sm aterial
Ġun gen
ĠL uther
ĠGu ide
esch uhe
Ġad min
ĠNor bert
ind lichkeit
ĠTra vel
t d
ungsver mÃ¶gen
ĠlÃ¤nd lichen
g Ã¼ter
iss ar
ĠKom bi
rakti ver
ie ÃŁe
g Ã¼ltig
ĠAb rechnung
sf eier
Ġs am
dem okrat
ĠP ur
ĠR hythmus
Ġgrundlegen de
Ġan grenzen
ĠSchul ung
ĠSchwÃ¤ chen
tige m
iter ran
ĠAutor s
ĠG ei
Ġverf asst
Ġfot ocommunity
ar tiges
ĠJ os
A ir
ĠEr mittlung
ĠEin bruch
ĠBÃ¶ den
ho ckey
Be weg
D ort
ur ger
rÃ¼m pfe
ĠJuni or
Ġsoll tet
zug reifen
ĠZwie bel
u gen
Ġle be
ĠSatell iten
H eim
ĠSt ol
Ġbay erischen
Ġs al
ĠAd obe
Ġlaufen de
Ġgewid met
ĠK rem
Ġbeeindruck end
ĠNe use
v ia
enk ung
chengl adbach
r ieren
ĠB ik
Ġkennen gelernt
ĠAro men
ĠM IT
ĠGe denk
tier ter
D N
Ġun auf
il o
ĠGewerk schaft
hol m
ĠWÃ¤r m
ant ra
Ġgest oÃŁen
zut reten
si der
Ġgeb Ã¼r
Ġso uverÃ¤n
ĠtatsÃ¤ch liche
Ġtranspor tiert
B lu
ĠSu ite
verk auft
M G
ĠVor satz
ĠSchieds richter
a ats
ĠChrist i
Ġoffen er
x id
ĠZ aun
ĠUn glÃ¼ck
Ġd on
Ġerforder liche
Ġabgel aufen
Org anis
ĠÃ¼ber mittelten
Ġsch ritt
Ġp la
ĠNiederl anden
ĠLe verkusen
ĠBlut druck
ĠM ah
ĠGÃ¶t ter
Ġau str
ĠC ir
varian ten
st au
ĠI d
od af
ĠFass ade
sch Ã¼tzen
ĠF lei
ĠAn melde
ĠOber bÃ¼rgermeister
o zial
ĠÃľ bel
ĠMar cel
P L
ĠK ast
fÃ¤ll igen
T ech
Ġpro jekt
fa ce
ĠRass ismus
G et
Ġge form
prÃ¤ senz
finanz ierung
p zig
ymnas ium
Ġh ielten
ang abe
Ġ19 20
ĠKl ett
kÃ¶n ig
Ġlat ein
Ġunbek annten
ste am
telle ktu
! .
ĠB Ã¤ren
ĠAnti biotik
Ġge zahlt
ĠHÃ¶ hle
Ġelektron isch
beu gen
ĠP end
Ġbe wirkt
do sen
Ã¤dig ungen
ï¸ ı
Ġk ommst
Ãľ N
ĠSal es
ĠProgramm s
Ġbegann en
ĠHar n
on ial
00 1
Sch wei
j ub
ĠVer folgung
ĠÃ¼ pp
ĠHinter grÃ¼nde
Ġaltern ativen
Ġab lehnen
ĠEint rÃ¤ge
gesch ehen
Ã¶nt gen
Ġb rÃ¤
ĠGem Ã¤lde
Ġmel de
Ġphys ikal
ge k
wer en
ĠLou is
F E
zei len
ĠBeschwerde fÃ¼hrer
HH HH
mass age
Ġco uch
ĠEntert ainment
Ġb ran
ĠN an
ov ic
gesprÃ¤ che
Mich ael
m auer
ĠQu ick
L ED
ĠallmÃ¤h lich
ĠSch affen
ĠEl ementen
ĠKrie ger
c reen
ab kommen
ĠRumÃ¤n ien
1 10
p utz
Ġun ab
ĠW eite
wes end
K Ã¼
P olit
Ġ ten
Ġ ^^
Ġer bracht
ymn astik
Ġm att
ĠEn kel
sk op
ers dorf
ĠBul gar
m ischung
or derung
Ġauf rufen
ĠBau stelle
ĠBenutz ern
b our
Ġf Ã¼ndig
ourn alismus
b Ã¼chern
ĠMehrwert steuer
ĠwÃ¶ch entlich
prakti ker
Play er
Ġbesch eiden
Ġschau e
ĠProf ess
ĠkÃ¼nstler ischen
Ġm at
lie gende
Ġverm utet
ĠI kea
Ġst eh
Ġbem Ã¼hen
ĠPal Ã¤st
ĠP insel
versicher ungs
Fer ien
W inter
Ġbe an
kore a
de cker
ĠN etto
schl Ã¼ssen
ĠBr ut
ĠMus ical
Ġgelungen e
Ġ- ,
zu legen
ĠSand alen
ĠsÃ¼d lichen
ĠE k
Ġbe deut
ĠBer echn
ĠHer d
Ġaktu alisieren
ĠTrau ben
ĠL ediglich
Ġver sendet
ĠÃľber weisung
ĠDank eschÃ¶n
f inder
ĠP est
de ko
en gl
ro om
il ometer
ru der
Ġr Ã¼ber
ĠGeschw ister
Ġzu bereitet
Ã¶s ser
Ġberuf lich
i que
Ġge treten
Ġre prÃ¤sent
kÃ¼ hlen
ĠKob lenz
ĠD L
ĠC our
ĠEr richtung
Ġverpflich ten
Ġun voll
ĠBer ichtigung
Ġt ab
E ffekt
ĠDis co
T ex
rÃ¤n kung
ĠT aten
ĠR eichen
ĠSch ilder
ez eichen
ĠW olle
ĠFo ot
Ġaussage krÃ¤f
Ġbevor zug
kir ch
schÃ¶n e
ĠKin os
Ġabw eich
ĠEi weiÃŁ
ĠU K
Ġeinz ul
ĠMag az
rich en
Ġklass isch
ĠOb jektiv
ĠSteuer berater
ann over
zeit lich
steigen d
ĠLoc ation
rat h
ĠLe op
ĠSozial es
Ġintelligen te
Ġre gener
ic en
io us
ĠThem atik
Ġeffe ktive
ĠSti pend
Ġstehen de
k ol
br Ã¼ck
ĠHau ch
ver g
Ã¼ss elt
ĠWahr ung
Ġver hÃ¤lt
zeit raum
Ent wicklung
L ook
ĠL eb
ĠStudien gang
angebot es
ĠAn halt
ĠHar ald
ĠSchauspiel erin
f aktoren
Ġkosten pflich
B Ã¼r
Ġbesei tigen
A gentur
g ischen
ĠAb stÃ¤nden
ĠStat istiken
Up date
Ġausgel iefert
kÃ¼n ften
ĠS ekt
S ein
a iss
ĠSt ri
IL D
k linik
el ement
Dat eien
ĠCop yright
Ġm ill
zum achen
C amp
an ti
ĠMel de
ĠW urf
ĠPrem ier
Ġklein ste
Ġerheb lichen
Ġerweiter te
ĠPersÃ¶n lichkeiten
ur teil
ĠBe et
ĠPet ra
ĠB at
br unn
s zene
Ġsch ieben
Ġfest legen
ĠVerl angen
Ġkompl iziert
Ġqualifiz ierte
F O
ĠBrand schutz
Ġsch lau
ĠAn zeichen
Ġabge stimm
ĠÃĦr zten
gewinn ung
ĠBo u
ĠBel ohn
ĀĀĀĀĀĀĀĀĀĀĀĀĀĀĀĀ ĀĀĀĀĀĀĀĀĀĀĀĀĀĀĀĀ
st ange
Ġbek Ã¤mpfen
h urt
ĠB inde
ĠF erne
Ġan zunehmen
b ang
ehr ten
ĠNÃ¤ gel
ĠkÃ¼rz ester
ĠR TL
ĠL isa
ĠDie bstahl
vÃ¶lker ung
az itÃ¤ten
ĠNa ja
or ia
ĠJul ian
ĠGed ichte
ĠkW h
Vor pommern
ĠAnge kl
Ġver schieben
ĠM oll
ĠG reg
ĠR itu
ĠMess ing
ĠC are
ĠM ike
ĠR i
ĠNr w
o or
ĠFrei spiele
odaf one
H ilfe
O ffen
Ġa ktiver
ĠSpiel platz
ĠPul ver
im t
ĠQu ell
rang ig
Ġmit machen
Ġwo her
schl auch
ic y
ĠUnivers um
t rÃ¤ge
Ġ Å
ĠnÃ¼tz liche
ĠA re
amb ots
G arten
n nen
ĠSchw eine
ĠAuf kleber
kl ick
ĠRad i
k ennung
ĠEr klÃ¤rungen
ĠDu o
ĠAr gentin
ĠMan tel
Ġvert ritt
de utet
Ġange st
es a
ĠAut hen
ĠWar s
ĠSubst anzen
ĠMountain b
sp ace
ĠKauf mann
Ġverschw indet
Ġir re
Ġtau schen
ĠI ron
vers uche
ĠMon te
gesch enke
hof ft
chte te
âĢ İ
Ġsepar at
l ampen
Ġh ome
ĠL Ã¼n
ĠKÃ¼nstler in
Ġger einigt
Ġzerst Ã¶ren
ĠBeob achtung
men Ã¼
ĠC er
tieren den
Ġangesch aut
in dern
Ġ ol
riter ium
in halte
Ġbelieb ig
Ġengag ierte
Ġschwei zer
ĠVf L
K B
ĠR aten
ĠC hl
junkt ur
Ġst Ã¶ÃŁt
ĠSch Ã¼ssel
ĠFÃ¼r st
Ġrie sen
ĠL ifestyle
Ġpartner vermittlung
y on
Ġaufge fÃ¼hrten
and te
Ġsteigen den
N ot
Ġgest Ã¶rt
Ġh igh
ok umente
ĠDach sanierung
ov o
ĠEint ritts
Ġmaster arbeit
v ir
ruf s
ĠFil iale
ĠDisk rimin
Ġkr imin
Ġ ulti
Ġjemand em
ĠSÃ¤nger in
ĠÃ¤uÃŁ ern
Ġs ek
ĠBegrÃ¼ ÃŁ
ĠStra hl
ĠReisen de
ĠPil oten
ĠL ip
ag anda
ĠB Ã¶se
ried igen
Ġvari ieren
ĠStra ÃŁ
hin ein
t herapie
ĠKil ogramm
ĠEr trag
ĠAuf stellung
ĠAfghan istan
Ġdi agnost
ĠFern bedienung
fla sche
ĠP av
ĠlÃ¤ ss
Ġmass iven
Ġï Ĥ
ĠVer sprechen
geb ogen
ĠRoh stoffe
ad ing
acht eil
ĠRe v
ĠPV C
Ã¤ qu
Ġvor zeitig
qu ot
besch eid
ĠSens oren
Ġnachvoll ziehbar
it ies
ĠSch ale
ard i
ĠFahr bahn
ĠKur ven
f ett
st ark
f ix
us er
ul ationen
p reisen
Ġs yr
ĠL ot
ĠMor itz
Ġgesch ah
Ã¤l len
iss ions
Ġde ckt
Ġst yl
per iode
ĠGed icht
vert rÃ¤glich
ĠGÃ¼n ter
i od
Ã ¥
Ã¼ pf
st Ã¤be
Ġr Ã¼cken
sf Ã¶rderung
sport ler
ĠKu pp
vert rauen
Ġ19 33
ym pt
ĠKreis lauf
Gesch ichte
t y
" ).
o und
ill t
spf lege
Ã ´
ĠCol or
ĠNeuer ungen
7 00
last et
sch ichten
Ġmass ive
an bie
Ġver tik
ĠSt urz
Ġangegeben e
Ġbeh ei
Ġflei ÃŁig
Ġk ehrt
Ġent lassen
Ġgef asst
Ġemotion al
ĠS ech
ungs mÃ¶glichkeiten
Ġgrund sÃ¤tz
Ãľ b
Ġkrit ischen
ĠW ille
ĠSp ambots
ĠTri p
ĠBam berg
st etten
Ġs uch
Ġerw Ã¼n
ĠHaust Ã¼r
ĠInstitu tion
ĠGlÃ¼ck wunsch
ge stell
ĠT rinken
ĠL em
Ġhom osexuell
ce pt
h emen
ĠbenÃ¶ tigte
ĠHeim spiel
Ġanerk annten
ĠA y
ĠEx p
Ġsauber e
ĠWilli am
ĠK B
f low
w Ã¤hlen
ĠAus fall
ĠBen ed
eth od
sch aut
ĠRo uter
Ġ Ã¤us
Ġand auern
ĠG m
En de
Ġide alen
ĠLÃ¼ beck
M art
ĠhÃ¼b sche
ĠkÃ¼nf tigen
ĠBek leidung
k lin
or p
ĠDurch schnitts
ĠM aps
vers icht
ĠAktiv ierung
ĠBestand teile
ĠerlÃ¤ utern
ĠS ahne
Ġgest Ã¤rkt
at ischer
Ġf all
ah le
scha fft
ak on
ĠBlick e
Ã¤tz ungen
ĠursprÃ¼n gliche
ĠMar ine
Ġhum or
p ension
st euern
Ġh ob
ĠT sch
D C
Ġd iente
ĠK ot
Ġeb ay
ĠSt Ã¶rung
v ok
ĠSp ed
T I
ĠS he
Ġm ochte
um a
ĠBlu es
s bach
Ġm isst
Ġ( !)
meister schaften
F ast
Ġauf hÃ¶ren
Ġeinz iger
ĠKonfigur ation
ĠVan ille
ĠWer ten
aff el
ein stellung
ter rasse
ff ic
zu gang
ph il
ĠHart z
ĠI b
ĠVerk nÃ¼
ĠKoordin ation
ĠM ath
ĠT oleranz
ĠVor her
n ommen
Ġin iti
Ġan ony
ungs system
fe sten
ĠKomp akt
Grund verordnung
Ġtipp s
F ot
Ġd Ã¤n
Ġim por
Ġm b
Ġpro test
ĠKleider schrank
A mer
ĠApp artem
kat alog
mal t
ss eite
Ġfor um
it ive
ĠKomp onisten
ĠPort rÃ¤t
ĠÃľberra schungen
Ġn ull
Mit tel
Ġverring ert
ar men
lÃ¤ss igkeit
ĠBu sch
pal ette
k reise
Ġmiss b
Ġhochwer tiges
ĠIns ulin
ĠN ummern
Ġbl ickt
al tern
ent um
ĠBet a
ĠKil o
ĠH asen
ĠNe on
mÃ¤r kten
ĠHÃ¶l le
Ġver weist
ende te
eigent Ã¼mer
ĠD N
ke y
ĠBett wÃ¤sche
lieb haber
ĠSach verstÃ¤nd
tent wicklung
ĠProt ot
S eine
it hm
ĠBrowser s
ĠPsych otherapie
bÃ¼ hne
Ġaus geben
ĠWei zen
ĠChar les
ĠzurÃ¼ck greifen
stre am
k Ã¶pf
h Ã¼ter
al p
sch eln
el ess
ĠP eg
ĠL ichten
ĠBer Ã¼hrung
Ġange ordnet
ĠEl l
zeug nisse
ĠVert retung
Ġge gl
ĠDis sertation
ĠAx el
zuf riedenheit
ĠKali fornien
st eigt
ĠN ylon
ĠZy linder
ĠEin wohnern
Ġspezif ische
Ġverkauf e
ĠTats achen
Ġak ust
ĠEngine ering
b om
ĠPrinzip ien
ĠC ater
ik alen
spr ungs
ĠB att
ĠAb lehnung
haft es
mittel te
ĠMiet wagen
Ġreligi Ã¶sen
Ġw etter
Ġge achtet
bar em
ĠLi ber
Ġo ffer
Ġcool e
Ġne ur
Ġspiegel t
Ġh arm
Ġâľ ĵ
upp ort
bl ei
Ġexpliz it
w atch
Ġb lin
stell bare
Ġ198 3
ĠFo und
setz te
untersuch ung
ĠS A
lig ht
ĠAnder erseits
ĠKleid ungs
sf el
ĠLetz ter
ĠR un
Ġges endet
ĠGesch Ã¤ften
T ick
t wicklung
ĠAb zug
ĠBlut zucker
kor de
ĠSubst anz
ĠBet rieben
par adies
ĠHaust ier
Ġm ail
Ġgel istet
ĠS itze
ss on
ĠnÃ¤ch ster
ĠAbs icherung
ĠZ ielen
ĠThe ologie
ĠLager ung
ĠMand anten
Ġbei ge
ĠSo uth
Ã¤ch te
ĠEinzel heiten
Ġf lÃ¤chen
ĠVerlag s
Ġeffizien te
H el
Ġsch alten
ĠGes etzen
ĠEx tr
Ġ16 00
ĠFort schritte
Aktu ell
ĠDu al
ate way
ĠPorno filme
sch alt
B utton
D an
ĠBundes ministerium
c odes
Ġeigen stÃ¤ndig
ĠKath arina
an hÃ¤nger
K L
ĠP anzer
ĠSch ienen
bau te
ipp s
ĠStich wort
x e
K abel
it enk
lich ter
200 2
sch war
fÃ¤ll ige
Ġw uchs
ĠB lin
ĠT oren
beauftrag te
F an
k leben
arch ie
ĠWest ern
ren te
ĠhÃ¼b sch
ĠWer ks
ĠEhren amt
ab les
techn iken
Ġstat istischen
Ġgen iessen
Al tern
Ġdah eim
ho ven
Ġ10 5
Ġverf assungs
ĠKarne val
Ġb ro
ĠSt abil
Sh irts
Stud ie
Ġrech net
âĢ ħ
rech ter
ĠprÃ¤ ch
ĠEinzel handel
ĠTo y
Ġbit tet
er l
hallen ge
Ġtem por
ĠAn schaffung
ĠTier arzt
Ġge wartet
Ġweite m
j ack
ĠSel ber
Ġzu gest
Ġj ust
gr enzt
sk ultur
ĠNeu kunden
krank en
Ġrad io
Ġin sofern
gegen stÃ¤nde
ĠSant a
lich te
Ġ% )
ssystem e
ĠZeug nis
ĠProtag onisten
rag ten
ĠCont rol
Ġteil genommen
ĠAd ler
Ġgolden en
ĠKopf schmerzen
Ġzeit weise
ĠBekl agte
Stel len
P e
ĠRab atte
ĠB w
ĠG allen
ĠR S
Ã¶s es
ĠJer usalem
Ġ1 11
Ġgez ielte
feuer wehr
et ti
verb und
Ġschm utz
Ġp acken
ĠSo wjet
an fang
ĠSozial e
ĠÃ¤r ger
ĠIden tif
ik alien
ĠGl eit
W ien
in vest
ĠF Ã¼ll
ĠK Ã¶pfe
ĠG raph
ru ption
Ġbed roh
Arch iv
b re
Ġgel andet
bÃ¼r os
Ġzust immen
vor lage
Ġeingelog gt
hau ser
markt ung
al m
Ġbei getragen
ĠWhats App
ss ituation
Ġqu alifiziert
Ġl u
fÃ¼ gt
ĠAuf l
Ġc ialis
Ġschau te
ĠKlar heit
Ġn imm
Ġsinn volle
Gemein sam
al ischen
S w
Ġs ehn
ruf bar
m ix
ĠBem erk
W under
ĠMail s
ĠK lub
ĠBr illen
schu hen
sa ft
gemein schaften
roll ing
k appe
w ich
Ġha ften
ĠEurope an
Ġbe weist
Ġle eren
ĠBundes rat
ĠFinn land
Ġho fft
k orn
ĠK ore
Ġverwir klichen
L assen
r ett
ĠVerpack ungs
erkrank ungen
i dent
ĠAk zeptanz
Ġkomp akt
ĠH undes
ĠAuf lagen
ĠAnt rÃ¤ge
ĠB anner
ĠL einen
Ġgest alteten
Ġlau ten
ĠFrancis co
Ġok ay
Ġjahrel ang
ĠVer arbeitungs
bl r
geg ner
ĠPlug in
zell an
iz ed
ĠPul lover
e v
rit ter
200 1
ĠCre w
ĠW ich
fer tigte
skont rolle
Ġgenutz ten
ĠMak ler
ĠHeadh unting
A p
om y
Ġdir ekter
sprÃ¤ sident
Ġwe cken
ĠTechn iker
Ġwieder her
ĠEnt gelt
ight s
ĠverstÃ¤r ken
ĠP aderborn
ĠBus se
Ġzwe ck
ĠVorbereit ungen
ĠMan ip
ĠBur ger
ĠCan on
ĠBrosch Ã¼re
ĠPhotovolta ik
Ġder zeitigen
ĠKÃ¼ndig ungs
Ġs inkt
Ġk lapp
Ġbe auftrag
ĠTages licht
ĠH Ã¼tten
Ġwohn ung
ĠAus zug
ĠkÃ¼nstler ische
ĠGesch ick
Ġs itz
) ?
ĠP interest
ĠTenden z
b eile
Ġge lin
will ig
eho fer
ar ier
ven tionen
ĠWahr scheinlich
** *
l iteratur
Ġf Ã¤h
ĠStr Ã¶m
L iste
hr o
ĠBer t
ĠQu alifiz
Ġ9 1
Ġbestimmt es
ĠP ell
ĠS echs
ar g
og a
pf ern
mod ul
Ġunmittel baren
ĠS ak
Sch m
ĠEner gy
Ġaus Ã¼ben
ĠBauern hof
Ġp rinzip
eier mark
ĠDreh buch
ĠH eiden
az on
ĠBuff et
ĠD U
Ġber Ã¼hren
ĠausfÃ¼hr lichen
Ġschlimm sten
ĠSchwimm bad
ĠB lowjob
Ġversch ickt
Ġkorre kte
? Â«
Z un
ĠW Ã¶l
ro se
por te
ĠCann abis
ĠÃľber trag
ĠRu der
ĠVertrag spartner
G i
ges ucht
Ġalles amt
sprÃ¼n glich
ĠEleg anz
und ung
Ġfr uch
ĠFunktion s
Ġunter richtet
Ġerinner e
Jahr e
ĠCa fe
st aub
ĠSch r
haf tigkeit
ĠB innen
Ġgek onn
I EN
u u
schie bung
an gel
Ġh aupt
schw ing
Man ager
M ass
ĠB arr
ruf e
ĠTechn ology
ĠVolk es
Ġb spw
ĠSch Ã¤r
ĠBe auftrag
z es
el y
ĠVor wurf
ĠInter aktion
ĠZer tifizierung
Ġw ussten
ĠA er
ĠO d
ingen ieur
ĠRein hard
ĠmÃ¤nn liche
ĠR eu
ĠSp ace
Ġle ute
ĠWander ungen
ĠBeding ung
ĠAir port
ĠProgn ose
Ġbas ieren
ĠT akt
ĠVor jahres
H olz
m y
ĠDar aus
ĠBe bauung
so fa
ĠÃĦn gste
ĠGest ern
wissenschaft lichen
ĠRent ner
Ġein gesetzten
ĠLeich tigkeit
b elt
Sch warz
Ġgest anden
ĠBest eller
ĠDat ent
Ġab zum
ĠArch Ã¤
> <
ufakt ur
ĠW itter
ĠL AN
ĠLauf schuhe
omet rie
ĠSkla ven
gehÃ¶r igkeit
Ġausge tragen
Ġstatt gefunden
as a
ĠF aszin
ĠT ech
Ġge prÃ¤
ik ator
ĠMit arbeit
ĠStud iums
ab ler
Ġp ers
lÃ¤uf igen
ĠI HK
Spiel er
Port al
Ġer eig
Ġal ters
ĠLu zern
ĠE iche
CH EN
ĠVerf asser
um feld
Ġmonat lichen
ĠMater ie
Ġst Ã¤ndigen
ĠAbm essungen
ĠF ul
ber ichten
Ġdeut lichen
Ġausge prÃ¤
ĠMed itation
ĠSpir itu
ĠCount ry
F D
r ungen
ĠP ers
Ġver samm
fla schen
w urz
Ġerg onom
Ġdor tigen
ĠKop ien
ĠTÃ¼b ingen
Ġgem Ã¤ss
stÃ¤n der
e vent
Ġkomfort able
Ġvirt uelle
Ġn ebst
ĠK ran
ĠÃ¶ff entlicher
M y
m Ã¼d
ig hlight
ĠKatastrop hen
ĠF eiern
ĠMor al
ĠP ak
kon zepte
Ġthe oretisch
ĠgÃ¼nstig sten
herr schaft
re fer
ĠSch affung
Ġnutz bar
M L
ĠerÃ¶ff nete
hal l
lad ungen
G old
te au
ĠServer n
B C
sch einen
Ġver lÃ¤ss
ĠprÃ¤ sent
Ġbef assen
Ġd rast
sp Ã¤t
Ġab nehm
rÃ¤ uch
Ġ12 8
ĠHaar en
ĠBe fÃ¼r
d Ã¼n
Ġnach denken
gel esen
ĠErf indung
sc ar
% )
ran sport
ĠBeruf serfahrung
besch Ã¤f
S amm
ĠIn frarot
Ġseit her
Ġ197 8
Ġtrocken en
ĠEnter prise
ĠÃ¼bersch reiten
T or
o y
ĠFl ammen
ĠDos is
ĠVerstÃ¤r kung
Ġer baut
Ġle b
Ġzentr aler
n g
at al
ĠAuf wendungen
ĠPrÃ¤z ision
vit ra
p x
ĠN O
ĠSchw ing
ĠElekt ron
ĠText dateien
st rei
ĠG a
Ġpart y
ĠSpark asse
Ġsch icke
Ġst oÃŁen
ĠProgramm ierung
ĠCE O
Ġgleichnam igen
re zept
Ġvor zunehmen
ĠMaÃŁ stab
ĠCh i
tier ungs
brem se
ĠvorÃ¼ber gehend
ĠK ristall
Ġan stelle
ru it
bezogen en
umm i
Ġhistor isch
Ġauf weist
ĠR io
ĠH its
Ġverb raucht
ĠDe te
Ġge bur
Ġge drÃ¼ckt
Ġp ack
ĠgewÃ¶hn t
W O
ĠB aus
Ġbe wirken
ĠmittelstÃ¤nd ische
ĠWir t
ĠKrank heits
Ġl Ã¤ch
deck el
Ġschnell es
Engl isch
ĠMar athon
Ġbeg Ã¼nst
ĠWÃ¤l der
In dustrie
AR D
or chester
Ġwahl weise
G ast
B aden
wick ler
ĠWort es
Ger Ã¤te
rock ner
Ġfair e
ĠPf le
sch le
ator ium
ĠMehr ere
an ia
ĠF Ã¤r
.... ..
ĠKenn zeichen
Ġf lieÃŁt
auf gang
Grund sÃ¤tzlich
ĠgehÃ¶r ten
ĠVerteidig ungs
te ams
Ġschwier ige
Ġg igan
dat ei
aller y
ĠGÃ¼n ther
mit h
Ġverz weif
ĠT iger
Ġl uft
ĠWir kungen
pÃ¤dagog ik
12 0
freund lichen
ĠZ eile
ĠVer tretern
sicht liche
ĠSt y
ĠAb o
B it
ĠS ix
pert oire
uf er
ĠPh otos
yr am
Frei e
N ame
T unes
ĠEr langen
ĠPh antasie
M obil
ĠK aka
ĠGesellschaft s
it Ã¤re
ĠLa ien
Ġan rufen
ens ystem
ĠBe arbeitungs
erk onto
Ġe G
plan er
ĠNAT O
Ġbe absichtig
Ġzwangs lÃ¤ufig
o ft
ĠW atch
our ce
bin sel
ĠKan Ã¤le
ĠSamm ler
ĠZu hÃ¶rer
Ã¤lt in
ĠRÃ¼ck stand
ro g
iker in
Ġgek Ã¼rzt
Ġausreichen de
Ġentdeck te
rÃ¤ dern
te u
ĠVer an
ĠBe eintrÃ¤ch
ĠDu ell
A bt
En dlich
Ġrelev ante
au scht
an es
ĠInhalts stoffe
Ġg Ã¶tt
rie t
tel ler
Ã¤ch tigen
Ġvers uchten
Ġein bringen
ĠE du
ĠEnt scheiden
ĠAuÃŁen bereich
ĠSt yl
Zus Ã¤tzlich
R ot
Ġein gew
ĠL etzte
ĠSehn sucht
Ġer lassen
ĠSo hle
ĠK Ã¶st
ĠP ra
er ten
ograph ischen
d etails
ĠVer gabe
ĠBl ind
ĠSym p
! ).
Ġbes ichtigen
ĠEle f
Ġsamm elt
st Ã¤tigkeit
Ġer wiesen
Ġp ark
ac o
Ġklar er
Â® -
ĠErscheinungs bild
ĠBen achr
Ġdamal ige
r achten
Ġge druckt
Ġan wesend
AT E
Ġt rin
ĠzurÃ¼ck halten
ĠCl ip
p lex
Ġfest zustellen
Ġfotograf ieren
ĠS ha
Ġirgend einer
Ġbelieb ter
ĠXX L
ĠV ok
Ġsch utz
Ġwar nt
at her
Ġz itiert
ĠSt Ã¼hle
Ġautomat isiert
Ġbevorzu gen
ĠJ ord
Ġbeh and
Kont akt
ĠNeuse eland
sp reise
Ã¼hr ungen
Ġt ur
Ġauf t
Ġhand elte
gef angen
ĠHor ror
ĠGewerk schaften
Ġk al
Â¦ Â¦
ĠLiefer zeit
Ġbeeindrucken de
ĠK el
hau be
ĠLei h
n oten
au chen
lÃ¤ nen
V ideos
zen zen
ĠKon rad
f ind
varian te
H C
Ġz art
Ġwachsen de
be zeichnung
Ġdipl om
ie sen
Ġm ak
Ġm ega
us k
am as
ĠEr ich
wirt scha
Ġtrock nen
Ġpro p
ĠWeiter bildungs
fo od
leiter in
Ġbesei tigt
Ġw Ã¼ten
Ġt raten
sp ritzen
ass istent
ĠunnÃ¶ tig
ĠTschech ien
fe der
Ġte ure
ungsver trag
ES CO
ĠWest falen
aufent halt
ĠSte ffen
ĠLog in
Ġeleg anten
G EL
ic on
Ġmeist ern
B ack
j ak
Ġvorgesehen en
Dis play
ck ig
opp eln
ill y
att an
Ġausge gangen
ĠWart ungs
ĠDe pression
Ġ198 2
ĠAn weisungen
ĠMaschinen bau
ĠDirekt werbung
spe ktive
ĠGrundstÃ¼ck s
wir k
ĠSw itch
Ġ13 5
Ġein zustellen
ĠUnter schrift
P il
Ġbequem e
se ktor
ĠFuÃŁ boden
ĠFranz osen
Ġw ilden
zeu ger
og ie
ĠMa is
IV E
ĠRelev anz
Ġ197 5
Ġeth ik
ĠB lÃ¤
ir o
Ġein sehen
Ã¤m men
ph abet
schw Ã¤
Ġhind urch
S im
zu bringen
bl Ã¤ttern
et scher
ĠDach reinigung
zÃ¼nd ungen
Ġver legen
Ġ| --
sk rise
ĠerwÃ¤hn ten
ĠSchwar zwald
D etails
ĠD HL
Ġges undes
Ġgew aschen
ĠAnwesen heit
Ġf ielen
log gen
ĠUrlau ber
D ein
Ges undheit
Ġst r
ist ern
ĠBen jamin
fel dern
z elle
ĠR oss
Ġgesundheit lichen
Ġ hr
an sprÃ¼chen
ĠK W
ĠH immels
ĠR ind
ĠSe gen
Ġgebrauch te
ĠRenten versicherung
Â Ĵ
Ġeffe ktiver
kÃ¤ se
Ġprof itiert
Ġbeleg te
Ġgr enz
Ġdeut licher
wa schen
ĠstÃ¤d tischen
Ã¤ tigt
ĠT Ã¶ne
ĠBed rohung
ĠAuf preis
ĠRend ite
ĠT ausch
Ġfrei gegeben
ran gem
Ġausge dehn
h eute
ĠLeben sst
ĠSchw ule
ĠLiefer ungen
v ard
ku gel
ĠEs stisch
d ay
ĠL Ã¼cke
Ġan zuf
ĠEnt sprechend
Ġt ru
wer tig
... "
aut os
ĠSend ungen
ĠEpis ode
e der
Ġent fÃ¤llt
ho u
ĠÃ¼bert rieben
o cker
ĠTechn ischen
ĠBro wn
Ġbemer kte
L uft
p orno
ĠM ik
Ġschnell st
Ġer fahr
ho de
gesetz e
ĠPar tien
ĠFrage stellungen
flu ÃŁ
ut sche
Ġ: -
b ag
ĠTem p
ĠW ink
I EL
ĠE ichen
ck ing
S obald
ĠK ampagnen
Ã¤r bt
ĠVor lieben
ĠRÃ¼ck sendung
S H
in halt
Ġaus zul
Ġe Book
Ġqualifiz ierten
Ġge fÃ¼t
Ã¼s ste
ĠSch er
ĠZeit ungs
ĠSchrÃ¶ der
ĠRau chen
ĠkÃ¼ndig te
Ġverring ern
Ġb d
Ġan k
Ġhal bes
Ġ197 2
Ġbenachbar ten
b zw
Ġar men
wand lung
ĠB ER
ing o
Ġt u
B D
ĠAus steller
ĠBad eschuhe
ĠGar n
ĠstÃ¤rk sten
ĠMÃ¼ hlen
Ġgeist ige
Al b
ĠRei sel
ĠCas ual
ĠVerk Ã¤ufers
ĠMas ke
ĠKa i
ĠS agen
ĠP unk
ser gebnisse
ĠBeruf e
F amilie
st Ã¼r
ĠAn bindung
ĠUn recht
ĠS ektor
zus prechen
ĠSt Ã¼tz
ĠHarmon ie
H y
ra it
Ġ4 000
Ġdar zustellen
reg ionen
br Ã¼cken
ĠF alt
Ġkompeten ten
ĠMÃ¼ hle
ĠHoll and
G estern
Ġm Ã¼ÃŁ
verteidig er
Ġausgestatte te
ĠOrganis mus
ĠkÃ¶rper lich
ĉ ĉ
ĠIn t
An fang
Ġempf unden
Ġgenehm igt
ĠNort h
F arbe
K urs
sch aum
ĠK i
f oto
Ġf un
ĠT Ã¶ch
Ġber Ã¼hr
ĠK FZ
bas ierten
fest ival
Ġselten er
H Ã¶
k reisen
ĠSl ip
ĠIr rt
Ġt Ã¶d
hle ten
die se
ĠkÃ¼nst liche
D anach
ĠEr lÃ¤uter
ys ik
ĠVol t
zut eilen
ĠExpl os
ĠM is
um l
Ġ á
Ġun ternehmer
ĠOrg ane
ĠGeschÃ¤fts fÃ¼hrung
ĠGl Ã¼h
Ġpriv ater
ĠT reue
Ġdiesbe zÃ¼glich
rei tete
ĠBr Ã¶tchen
ĠStrÃ¤n de
ĠE P
ĠKonkur renten
n ik
s eit
ser gÃ¤n
ĠC M
her um
Ġheraus finden
gemÃ¤ ÃŁen
ĠSport wetten
Ġzahl reicher
Ġp al
ĠG all
ĠVer vielfÃ¤l
ĠS itzen
Ã¶ gen
ad es
ĠEnt tÃ¤u
Ġein fallen
Ġind irekt
g raf
Ġdunk ler
ĠNikol aus
O ption
qu es
berech tigung
ĠUn der
br icht
ĠA ve
Ġj u
Ġliefer bar
Ġder jenige
ĠÃ¶ff nete
ĠC osta
op ft
Ġarg umen
y ers
Ġbe zeichnete
lu ster
ĠEin sicht
ĠMahl zeiten
1 000
Ġson nen
hei de
ĠPul s
ĠL kw
ĠY or
ĠG abel
h unde
sch rÃ¤nke
de b
Lin ks
sper re
in tegr
Ġtau sende
pla ys
l ime
ĠD iensten
Ġaus nahm
ĠH Ã¼lle
ĠC ore
ĠBl Ã¼te
ĠLe v
Ġ197 9
farb ig
gesch icht
Ġabge holt
Ġdies jÃ¤hrige
ĠMigr ations
F OR
em ale
ver lag
W ater
ĠB D
ĠG ieÃŁen
w Ã¶ch
Ġd ringen
Ġaller lei
fahr zeugen
ĠÃľber gangs
ĠfÃ¼ gt
ĠArchite kt
Ġed len
ĠN am
ĠS Ã¶hne
Ġaus lÃ¤ndische
ĠBefest igung
b ischof
f ell
Sch nitt
r inger
Ã Ĺ
ĠUn ited
E uro
ĠÃ¼ber arbeitet
ĠBack up
l inger
Ġfrei lich
ĠErd gas
ausschuss es
ĠKonsequ enz
ĠDiagnost ik
ĠTu S
j an
Ġl Ã¼cken
Ġag ieren
Part y
i am
t v
Ġnorm aler
H ei
ĠR asse
ĠTr ik
ĠDem nach
M Ã¤r
ĠDem enz
Ġplatz ieren
Ġv en
ĠT in
betrieb nahme
ĠHoff mann
e ed
Ġd rum
polit ischen
ĠL Ã¼cken
Ġzu lassen
Ġges ell
ffiz ienten
**** ****
ul ierte
Ã¶ hr
ĠVir us
Ġanstren gend
Ġd uf
ant on
Ġwes entlicher
ĠVorgehen sweise
ĠEin verstÃ¤ndnis
ĠIm port
O rt
Ġ !!
Ã¤ k
ĠP ion
ðŁ ĺ
Ġulti m
ĠF rÃ¤
Ġr ollen
ĠRe den
ĠCont roller
ĠKon stanz
ĠAt hen
K opf
ĠG Ã¶r
ĠJahr tau
los ung
ition s
wir te
Ġhinter en
ĠT arife
sp raxis
ĠGerichts hof
is her
ig ator
ĠConsult ing
ĠÃľberein stimmung
Ġhei raten
Ġk ul
be cher
ĠColle ge
ĠDe pot
ĠW itt
ĠBau stellen
ĠTurn schuhe
ĠrÃ¼ck t
ĠN on
Ġverd anken
Ġaufgel Ã¶st
Ã¤ ser
Ġbet rug
Mod elle
ĠImpul s
mak ler
g ungs
ge heim
Ġm ul
ver sprechen
Ġle gal
Ġbas ierend
ĠExempl are
F lug
d os
Ġzu viel
ver trages
dienst leistungen
V ort
age gen
h on
geb rauch
ograph ische
ĠT es
ĠO mas
ĠV alle
u ktion
ĠAn tik
ĠlÃ¤nger er
Kl ar
ĠDownload s
ĠPay pal
Ä ±
Ġer sichtlich
Ã¶r tern
Ġgetr enn
Ġgeg ner
Ã¤ ÃŁe
Ġpop ulÃ¤r
ĠW eiden
ĠFir m
fÃ¼ll ten
Ġent fallen
Ã¤ck chen
ĠWert pap
Ġw ilde
spart nern
ĠS etzen
Ġwo von
ĠG ern
ĠSp ritz
Ġent nommen
ĠMÃ¤r kten
komm ission
ĠG Ã¼te
ĠH A
ĠL ith
Ġherr liche
ĠdÃ¼n ne
ĠApothe ken
ĠjÃ¼ng ste
Ġabwechslungs reiche
Ġgra v
Ġab genommen
send ungen
Ġehemal iger
vor bereitung
ish ing
b ell
ĠKl icks
Ġvorlie gende
Ġil lustr
ĠED V
Ġvort eil
ĠAn sehen
Ġbes orgen
mitgl iedern
Ġs kepti
Ġte uren
Ġ% .
ĠS av
ĠWissen schaften
uÃŁ t
ĠTransa ktion
ĠM arburg
ĠL TE
ĠDaten er
Ġgest ohlen
Ġ \
ĠR Ã¶ntgen
Ġst ein
um satz
daten schutz
w urst
Ġspr ingt
ĠBefrag ten
Ġprim Ã¤r
r ale
un ch
Ã¶glich keiten
Ġhand els
ĠRoll stuhl
le d
ĠUm kreis
s how
Ġs eh
mitt lungs
ĠDo uble
ĠGra v
ĠSch recken
Ġunter such
ĠFor ums
hel os
ĠG Ã¤rtner
Ġsel be
test s
Ġkap ital
Ġatt raktiver
Ġgolden e
Ġte xt
ĠJubilÃ¤um s
W A
ĠProgramm ier
ĠModern isierung
Ġpsych ische
un ten
ĠP ech
Ġan leitung
Ù Ħ
Ġkon kur
ver eine
ĠEin bindung
ĠBi ologie
z ed
ru str
Ġhier von
er be
Ġwei s
Ã¼ndig t
M aster
fl ation
Ġgleich mÃ¤ÃŁig
ĠDurch gang
ĠSa fe
s im
ĠSu ppe
Ġpsych ischen
ĠMikro fon
ĠSe ehofer
ĠZ Ã¼nd
all em
ĠBefrei ung
ĠT il
Ġmin i
Ġunters agt
ĠM Ã¶rder
unter laden
ath an
Ġ% ,
Ġvert raglich
g ottes
st atten
Ġwar te
ĠUr sprungs
Ġemotion ale
ĠAus strahlung
Ã¤nder te
schlie sslich
ĠÃ¼ bel
en er
Ġbelieb igen
Ġangemessen en
n ick
ĠB ow
18 0
Ġelektr isch
ĠIng olstadt
ĠEx pert
Ġschar fe
Ġt herm
ĠVerm ietung
cl us
ĠO ri
Ã¤chs ische
an bul
ste cker
ĠRe cycling
ĠChrist ine
ĠTÃ¤n zer
ĠBestand s
rie bst
od ien
ĠF inde
ER S
ĠSicherheit sl
Ġversch m
merk male
ell ungen
ĠAb holung
ĠPat ch
hostw riting
N O
si bil
st ube
An alyse
Mit te
Ġget rieben
ĠJ ag
ĠVer stoÃŁ
wei ser
Ġverl Ã¤ngern
g ur
en ergie
Ġer mu
eu tet
ĠerhÃ¤lt st
ĠÃ¼ber zeug
Ġvoraus gesetzt
ĠgefÃ¤hr lichen
Ġgra de
ĠM astur
Ġein treten
le gend
ĠLad ung
be stÃ¤ndig
gesch ickt
ĠBrun o
Ġwahnsinn ig
Ġabgeb rochen
ĠAttra ktionen
ĠGesch lechter
techn isch
ĠLeit faden
Ġmaxim alen
u alisierung
sch alen
Ġbeherr scht
ĠGel enke
ĠTau chen
greif end
ĠPro grammen
ĠjÃ¼d ische
ĠVf B
R el
Ġaus bauen
zei ger
Ġzw ang
Ã¤u ber
ĠTier heim
ĠK V
ant a
Ġgesch icht
sk rank
off iz
ĠTa ste
ĠKomplex itÃ¤t
kolle gen
ĠAl m
ĠProf ile
ĠMaster arbeit
aus flug
ĠH appy
ĠTre kk
f reu
ĠT olle
ent ar
Ġevent uelle
Ġvorzu bereiten
ĠA gen
ĠIn ser
Ġange stre
ĠAlters vorsorge
Ġaufgew achsen
ste xt
k Ã¤mpfe
Ġp osten
ĠSamm lungen
c raft
Ġb aum
Ã¶l ler
T age
Ġge liefer
ĠVerÃ¶ffentlich ungen
an fall
Ġaus drucken
ĠGeheim nisse
Ur laub
Ġan ziehen
Ġt schech
ĠAl gor
Ein er
ĠOn kel
ĠC redit
ä ¸
Ġin wie
chte ten
or ing
Ġstren gen
ĠGegeben heiten
ĠS eiden
Ġaus genommen
Ġerstmal ig
Ġgesonder t
ik ten
ĠArbeits recht
ĠVers uchen
ĠZukunft s
ĠH obb
Ph il
ĠAn forderung
mit arbeiter
ĠÃ¼berw achen
Ã £
ĠPf eil
polit ische
Ġzu einander
Ġab holen
wei ht
Ã¤u b
heil kunde
ĠBreit band
Ġnachfol gend
Ġb ank
ĠÃ¼ber qu
Ġgelie bt
ĠG G
Ġge merkt
wer bst
ĠVerz icht
ĠBetreu er
ĠT ische
ik ern
Ġkosten loser
ĠTelefon sex
ĠHo hl
werk zeug
B ek
o od
ĠprÃ¤ gen
st abil
ĠKar ib
ĠG eil
ĠFlie ger
ĠKl ienten
ĠAdmin istrat
Ġbeh oben
ĠBeu tel
ĠAm ph
ĠRes onanz
K an
Ġg lu
che ck
Ġbef riedigen
ĠDo sen
wander er
aiss ance
Ġvorh ers
p ots
ĠW arten
men d
Ġmei ste
Ġlande te
rech net
ĠV Ã¤ter
ĠRe f
sver trag
neu e
Ġdarf st
Ġgest euert
ĠFr anzÃ¶s
ĠAnt eile
Ġsl ot
ĠP akete
od ge
Ġ19 00
ĠStud ios
og nit
ĠSand ra
m ie
Ġfest halten
beg eister
hÃ¤ fen
k ru
ost al
ĠSc reens
ĠWissenschaft s
Leben s
Ġb Ã¼r
Ġdies el
Ġern euert
P ap
Ġmit genommen
fot ografie
ĠSchal ke
al la
Ġb at
freund lichkeit
Ġaltern ativ
Ġausgie big
ĠVersicher er
ĠBe antwortung
Ġange zogen
ĠEl be
ĠM ieten
Ġben utzer
ĠKomment aren
D oppel
dr ig
setz ungs
ĠKreuz fahrt
ĠProp he
ĠKrim i
Ġwei se
ĠStre am
C up
Ġad d
ĠB ie
og gen
Ġab schlieÃŁend
Ġst Ã¼rzen
Ġtags Ã¼ber
N utzer
ĠMar gar
ĠRuhr gebiet
ĠSp rit
aku um
Ġt akti
Ġsl ots
ĠOr angen
ti zen
Ġab en
ĠErneuer bare
Ġa v
Ġstaat lich
Ġk alk
all es
ĠSalz burger
Ġwer ben
ĠDis c
ĠSchiff s
ĠBaut eile
fl ikt
ograf ischen
ĠExper iment
ĠBetreu ungs
Ġ197 7
Ġsch ieÃŁen
Ġp oppen
Ġse c
ĠjÃ¤hr liche
ĠHild esheim
ĠBoden see
ĠTisch tennis
ĠVern unft
ĠSel f
Ġunver Ã¤ndert
ĠkÃ¼nf tige
Ġweiterentwick elt
ĠEr le
tig ter
ĠAb nahme
ĠSpr inger
Ġstabil en
ĠWeis heit
ĠE uer
Ġ198 1
ĠS ide
Ġauf fallen
ĠDoppel zimmer
Ġkop iert
ĠzÃ¼ gig
ad i
ĠAusser dem
K ategorien
ĠSchnitt stellen
Ġeur o
ĠÃĦsthet ik
Zun Ã¤chst
ĠB VB
wor ks
Ġc am
bil anz
ĠStar ter
ĠJeden falls
G ibt
Ġmit teilte
gr ab
ĠsÃ¤m tlicher
Ġmonat liche
b rie
s ur
ip e
ĠPo int
ĠReisen den
Ġm ethod
ĠIntens itÃ¤t
ir me
Ġen ormen
Na ja
qu est
ĠS ite
ĠJ ones
Ġsicher stellen
way s
ĠEnts orgung
ĠImmun system
Ġ ach
Ġbes p
ĠAd el
ĠSign ale
grÃ¶ÃŁ te
Ġherausragen de
ĠWohn mobil
ĠDr ama
ĠPublik ums
ĠKle be
ĠPrior itÃ¤t
Ġweg zu
f Ã¶rder
be werber
Ġweiter geben
Ġreg ulÃ¤ren
spro jekte
ĠPlan et
ĠW ollen
Ġauf halten
Ġda te
ĠanschlieÃŁen den
G ute
ĠEint racht
ĠÐ ¿
h anden
Ġdem selben
Ġunter brochen
richt linie
ĠStand punkt
ĠzuverlÃ¤ss igen
ĠSch ei
ĠDigit ale
Ġlang es
Ġvert rieben
Ġt rÃ¤umen
ĠFest e
ownlo aden
ĠHu bert
D L
all ye
Ġauszu Ã¼ben
lÃ¤uf ige
ĠKul isse
Ġanspruchs voll
ĠImplemen tierung
Å į
Ã¤l tigung
ĠFahrzeug s
Ġamb ition
ĠAll gÃ¤u
Ġ197 6
Ġorden tlichen
ĠKul issen
ĠStrei tigkeiten
ĠReg ierungen
ĠAufsichts behÃ¶rde
X L
ĠT reu
Man chmal
ĠAma te
Ġspr achen
ĠFle ck
Ġerk annte
h Ã¤lfte
ĠP auschal
ĠOb ama
ĠÃ¼b licherweise
Ã¤uÃŁ ert
ĠSt rumpf
bÃ¼r ste
Ġbetrieb lichen
ĠTag ungs
ĠM C
ver w
ĠAus wÃ¤r
ab o
Ġverb indlich
ĠRad fahrer
âĤ¬ .
ĠBeruf ungs
Ġgeb rauchen
ĠberÃ¼hm t
Ġl okal
itt le
L IN
al ische
kont roll
ik atoren
ĠVer ab
Ġfestge legten
ĠD il
ĠPro stat
ĠLeitungswasser filter
n ieder
ĠG reif
ĠAktu alisierung
mens ionen
Ġmod ell
Ġnied rige
g reg
p et
ĠKe vin
ĠFrise ur
ĠH ebel
ĠStadt rat
Ġor ange
gesch altet
ĠH ong
tern acht
Ġprof it
W Ã¼r
Ġgest richen
ynam ik
Ã¤rm t
ĠOlymp ia
Ġbed acht
ĠAp ost
ĠGesprÃ¤ch s
ĠGebrauchs spuren
ĠF len
ĠP ian
ver stÃ¤r
ĠUn sicherheit
ĠZu vor
Ġ197 4
Ġkat zen
ĠLekt Ã¼re
D G
e per
ĠDaten banken
Ġsepar ate
Ġku schel
B EN
Ġge steckt
Ġverm ein
Ãĸ ff
Ã¤n ze
B lack
ra tete
ver sch
ĠauÃŁerorden tlich
n ose
utz end
ĠSperr ung
ĠAufbew ahrungs
Ġim plemen
ĠBeispiel sweise
ĠSÃ¤ ure
ĠgrÃ¶s ser
W F
In fo
ĠBl ond
ĠGo od
ĠKolle ge
B al
Ġerinner te
ĠFotograf ien
st ande
re am
ĠAn w
Ġwer be
ĠPark ett
Ġ arr
Ġum gew
Ġeiniger maÃŁen
rie bes
ĠZwie beln
ĠHalte stelle
Ãľb rigens
D aher
ĠP utin
Ġg if
Ġkn ack
Ġauf tauchen
Ġaus suchen
ack el
qu en
ĠNeu jahr
amer ikanische
Ġzeit nah
ĠD ance
ber ry
ĠZ ent
Ġra ffin
ĠM ahn
ĠMark et
Ġtrocken e
ĠQue en
Ġm ind
ĠEnd gerÃ¤t
beg riffen
ĠÃĸ le
app t
Ġanzu zeigen
Ġ, ,
ĠSal on
ĠLÃ¶ w
Ġf emin
ĠZ Ã¤hl
ĠAb nehmen
Ġselten en
Ġkop ieren
anz ahl
ĠWei ber
ĠAu ktion
Ġlo cken
Ġun ges
ĠG itter
Ġaus fÃ¼llen
pro vis
ĠLu pe
Ġbedeuten de
Ġm utter
ser ien
ĠI R
ĠBr utto
Ġkn all
ĠWiderruf sfrist
ĠVerwand ten
ĠZigar etten
ĠEin richten
freund licher
ĠTri b
ĠProzess or
Ġirgend etwas
ĠThÃ¼r inger
ĠTrack ing
ĠAb bruch
ĠLe e
Ġwechsel te
ĠInszen ierung
ĠSch Ã¶pfung
maÃŁ nahme
Ġurheber rechtlich
Ġvor zustellen
ĠKu h
ĠFreund innen
Ġprofession eller
spor ter
ĠÃľbrigen s
sisten z
Ġann Ã¤h
er fahrung
wind igkeiten
ĠD umm
ĠE valu
Ġober e
Ġkontakt anzeigen
steil nehmer
ĠK ri
ĠSpark assen
ĠBundes verband
ĠBedien ungsanleitung
Ġbef indlichen
ĠNÃ¤ here
ĠD ra
Ġk reis
ut s
Ġindividu eller
stechn iken
Ġschlecht es
ĠX P
ĠS her
ĠJack pot
ĠC art
Ġmusikal isch
Ġignor iert
Ġer richten
Ġam ateur
Po int
Ġpfle gel
Ġversch Ã¤r
ĠCli ent
ĠC PU
Ġbesch rÃ¤nken
ĠBek Ã¤mpfung
ĠUN ESCO
ĠEss zimmer
ĠAus ge
ĠStadt werke
urt eile
Ġw ort
Ġrei che
b isch
ĠAn ker
Ġ19 30
Ġausges ucht
Ġchem ische
sprodu kt
Ġn etz
ĠM IN
ĠKl einer
gest alten
ĠTradition en
b unt
Ġun zul
oo f
ent ag
Ġs etze
Ġb ig
ĠZ iegen
Ġlie fen
ĠZahl ungsver
nach richten
ĠStraÃŁen verkehr
ĠVari ationen
ape te
ĠK redite
bl Ã¼ten
ĠE ig
ĠIn vent
zeug nis
ĠTau send
Ġein bauen
Ġâ Ļ
schw ester
speicher ung
S an
ĠF ont
om bo
Ġam Ã¼s
ĠBir ken
ch arakter
ĠD Ã¼r
sp rinzip
Ġverw altet
ĠZiel gruppen
ĠModer ator
ĠO pt
Po wer
ster ben
Ġrespe kti
ifiz ierung
ĠFound ation
Ġ3 65
ain t
ĠGar agen
seh bar
Ġjen es
ĠVor wort
ĠHand arbeit
? ,
ĠnatÃ¼r licher
ĠtÃ¼rk ische
Ġcle ver
O ST
ĠC ho
ĠReich tum
Ġherz lichen
x y
ĠGrund sÃ¤tze
Vert rag
A lex
ĠBesch l
ĠgefÃ¤hr liche
W olf
ĠAl ben
Ġfr ucht
ĠB uche
Ġver lieÃŁ
ĠFac etten
ĠAuf sicht
Ġsorg ten
d rei
ĠAn leitungen
Ġgewe ckt
m Ã¼ll
Ġaben teuer
ĠB echer
ĠGut haben
bes ucher
ĠGewÃ¼r z
N ie
ĠS K
Ã¼ber tragung
S ing
k Ã¤ufe
ĠK ragen
ĠH ay
ĠÃ ¢
ĠOrt steil
Ġabw eichen
Au ÃŁen
ur se
ĠgrÃ¶ÃŁer er
Ġ197 3
ĠSne akers
Ġgelegen e
Ġess ay
l lt
r iert
Ġsch Ã¤r
ĠInstr umenten
ĠEin richtungs
ĠHy d
Ġschar fen
ge fahren
ĠE id
ĠNieder Ã¶sterreich
um men
ron om
ĠBi om
ĠBÃ¤ der
an tien
Ġblei be
ĠBuch ungs
Ġentstanden en
instr ument
Ġfolgend em
ĠGr at
ĠProdu ktivitÃ¤t
ĠB orn
achte ten
get riebe
Ġbem erk
Ger Ã¤t
mer s
ru hen
ĠKap elle
ĠD ES
ĠN it
W Ã¤hlen
Ġi Tunes
ĠLe be
ĠÃľberw ach
ĠV odafone
Ġsch malen
ĠCh irurgie
ĠHÃ¼hn er
â ľ
Ġun geh
Ġsa ison
r ike
ĠB I
Ġgesch Ã¼tzten
ĠJahrhunder te
Ġabzu geben
Sow eit
ag ing
str Ã¶
Ġdeutsch es
G ott
× Ļ
Ã¤u er
stag s
kÃ¤ sten
Ġim pos
alis ierungs
ĠDem okrat
wÃ¼rdig keit
S zene
ĠD schungel
berech tigt
schÃ¼t zer
ĠApothe ker
K u
ĠPark s
Ġgegr Ã¼ndete
: .
ĠR iver
stud ie
Ġchrist liche
b iss
h us
ogen e
ĠFahr rÃ¤der
Ġanspruchs vollen
Ġ19 0
ĠAuff orderung
O ne
P olitik
Ġ( -
ĠnÃ¶r dlichen
Ġbean spr
ĠP ens
ĠSch lafen
schlag s
schn eider
bl asen
str ichen
ĠZul etzt
F uÃŁball
Ġwar tete
ĠĠĠĠ ĠĠĠĠ
ĠR iv
Ã¤tig ungs
ĠBeam te
b recher
Ġrei st
G ER
Ġal arm
ĠVolle yball
ro ph
qu emen
ĠB isch
ĠK amp
verein barung
sproblem e
O kt
Ġbe waff
ĠC arbon
be vÃ¶lkerung
ech ten
Ġges ungen
ĠHÃ¼ ft
ĠVerb Ã¤nde
ĠHÃ¶ hlen
sen kirchen
ĠGra fen
um pen
Ġhoch zeit
verfahren s
il Ã¤um
ord neten
gemein den
co unts
ele ge
ĠDoppel bett
Ã¤mmer ung
Ġauf bau
ĠVer dienst
Ġregel recht
ĠViet nam
C asino
M ai
ĠR ied
Ġl ud
Ġem pir
ĠUS D
einer ziehen
Web site
ĠUnterhalt ungs
ĠT rieb
Ġge forder
vor stellung
ĠWeb design
Ġaufge teilt
Ġerg reifen
an wendungen
aus rÃ¼stung
ĠFest platten
ĠSt roh
Ġst illen
Ñģ ÑĤ
Ġz B
ĠE y
Ġall jÃ¤hr
ĠVerschieden e
ĠFertig stellung
ĠV ital
zy linder
ĠFavor it
d ichtung
ĠE b
ĠSommer ferien
Ġrobu ste
sp erson
eig te
sol e
ĠWind kraft
Ġextrem e
ĠZit ronen
ĠS Ã¤mtliche
ĠP E
ĠZ iegel
ĠC in
ĠMin us
AC K
vor stellungen
ĠPhil osoph
ĠFel gen
ol as
Ġfl Ã¼
S R
n Ã¤ck
ĠMit hilfe
ĠBr at
str Ã¶m
ĠMittel stand
rechn ungen
Ġge fl
ĠFl ut
Ġbl Ã¶d
ĠStraf ver
R at
p us
is iko
ĠAus lieferung
ĠTh ese
ĠkÃ¶nnte st
programm s
M at
stÃ¤nd lich
ĠgroÃŁzÃ¼ gig
ĠHalb finale
ĠÃ¼berw acht
k auft
og as
ĠLe o
Ġkrank en
ĠT ruppe
ĠAktion s
Ġat mungsaktiv
k ante
es kop
Ġrenov iert
Ġopti sche
re ste
lin sen
du len
ĠWest e
Ġn ack
ĠW unden
Ġbl Ã¼hen
Ġwirk liche
ĠK Ã¤mpfe
ĠVor wÃ¼rfe
ĠSaarb rÃ¼cken
ĠVerein barungen
B rem
Ã¤hr st
ĠAbteil ungen
m eln
stell igen
ĠAuf regung
Ġbet onen
Schlag wÃ¶rter
00 00
ĠFil ialen
Ġgetr unken
P ack
in ett
ĠS AT
sch Ã¤d
ĠG h
ess a
rest aurant
Ġbl ut
au ÃŁer
on ischen
ĠG ent
Sch au
ĠVari zen
ĠD ose
ĠBundes lÃ¤nder
Ġlangsam er
Ġstrateg ischen
begl eiter
strate gien
Ġbenutz e
ĠWieder holung
Fahr er
Ġc urren
ĠBeh Ã¤lter
Jahr es
ĠAb gas
Ġt anz
ĠHD MI
] [
ĠArt hr
ĠCont in
Ġmut maÃŁ
Ġh as
ĠstÃ¤r kt
veranst alter
k eller
In halt
zy klus
W ER
Ġlie ge
Ġausge zeichneten
ĠFol gende
Ġbed Ã¼rfen
A pr
Ġun ange
ster i
Ġrenomm ierte
ĠN enn
L ine
alitÃ¤t s
ĠHal binsel
ĠEreig nissen
Ġeffizien ter
Tele fon
krit ik
ann el
ĠSch rott
ĠzurÃ¼ck kehren
Ġern euten
Gl Ã¼ck
mont age
Ġbr as
ĠLeiter in
ĠZ ehen
ĠAutomat isierung
ĠD eg
Ġf asst
d Ã¤mpfer
ĠUn ent
wissenschaft liche
Ġfach arbeit
P ersonen
ern et
ot in
Ġaus machen
ĠProjekt management
ĠMulti media
F amilien
z erne
Ġerfolgreich sten
ĠSter ben
Ġ196 9
Ġaufgel istet
Ġlern te
ĠHex en
ar tikeln
Sch Ã¶ne
ĠDe ad
bo ards
AN K
Ġkan ad
Ġ eil
Ġan klicken
B u
L ei
Ġind es
Ġwissenschaft licher
ĠAn wohner
S onder
ĠEr ic
ĠTra il
Ġl asst
si us
Ġverw Ã¶hnt
ĠhÃ¶her er
Ġschwed ischen
ab wehr
ĠH ur
Ġunter richten
tieren de
an frage
ĠG Ã¶
ĠPf alz
ĠÃ¶k ologischen
Ġgar nicht
leb te
Ġs et
ĠVen edig
Ġeindrucks voll
comm a
sch Ã¼sse
An lagen
ĠR AM
ĠN ap
Ãĸ sterreich
st al
form ationen
Ġmus lim
Th emen
ĠSÃ¤u len
ĠN ett
ĠBe eren
eb ung
ĠFer r
ĠSch loÃŁ
Ġgegen einander
ĠkÃ¶n ig
ĠAt hleten
ĠEhe paar
D irekt
ĠM Hz
ĠLau ra
ĠPro te
ess elt
Ġdrin nen
F it
ch ain
sch ach
Ġwelt weite
ĠJ as
ĠOper ationen
Ġbe acht
ĠLe gende
C loud
Ġer teilen
ĠEr den
ĠG ot
af r
ĠKandid at
ĠAus schreibung
pflicht versicherung
rechn ungs
t ausch
Ġsp enden
ĠKu schel
M useum
d iensten
" ),
o z
ĠBuchst abe
B aum
Ġ Ø
ĠB G
ĠL CD
imm obil
ĠKar os
ommer z
Ġbegr Ã¼nden
po int
p osten
ĠUm so
ĠTr enn
ĠAus legung
Ġerfolgreich es
ĠRelig ionen
ĠB uÃŁ
ĠJ Ã¤nner
gleich heit
st agen
ĠSchul ungen
ĠArbeits losigkeit
ĠDisziplin en
ĠG L
ieb te
Ġunglaub liche
ir en
ĠHilf est
ĠOlymp ischen
ĠalltÃ¤ glichen
Ġhor izont
U B
ĠBar ock
ĠBened ikt
ĠF ieber
ĠEin kaufen
ĠZu ordnung
ĠLehr erin
ĠHeil ige
ĠKÃ¼n ste
ĠN ut
Ġp or
ĠRÃ¼ck gabe
nach weis
ĠAB S
m isch
Ġber eichern
ĠAbl Ã¤ufe
athl on
S ec
fÃ¼l lungs
Ġrichtig er
Ġrest aur
p rin
Ġ Ã¤t
ĠMus lime
W ahl
w eichen
Ġfr ischer
ĠgroÃŁ artigen
Mag azin
el ia
ĠVerm eidung
k ow
ĠF F
j ust
ub a
Ġeinzigar tiges
V R
s z
vers orger
klÃ¤r ungs
Vor sitzen
ĠAktu elles
k ate
etz ungs
ĠEr Ã¶ff
kreis es
ĠrÃ¶m ischen
ant worten
ichtig ungen
Ġbereit gestellten
ĠGet rÃ¤nken
Ġlie gende
22 3
ĠPort o
Ġklass ischer
ĠMÃ¶n chengladbach
l ange
Ġk opf
Ġverf ein
f ia
ge werbe
ĠW itten
IT Z
Ġsch Ã¤len
Ġseit lich
ĠThr iller
Ġfot os
Ġverm ute
ti zip
", "
ĠBro ker
Ġs ingt
ĠBesch leun
ĠEvangel ischen
Ġdokumen tieren
it tern
ill igt
An wendungen
velop ment
ĠB ahnen
Ġin ne
Ġst imme
ĠWasser schuhe
ĠRefer enten
ĠKar in
deck ungen
b old
spiel s
Ġli zenz
Ġj ahren
ust ik
Ġnutz te
F azit
Ein stellungen
ĠBo y
US S
Ġkompeten ter
ĠVul kan
ent zÃ¼ndung
Ã¤uf ern
Ġein satz
ĠMon ika
ĠWie so
Ġchem ischen
Ġvermein tlich
Ġs agten
Mark e
\ \
ĠAb kÃ¼r
el ementen
ul ierten
ĠLi ft
Ġmod ische
schlies send
ĠZu gleich
Ġorganis ierte
Ġfreu te
an meldung
ĠRÃ¼ck blick
ĠInd iz
Log o
R T
ĠBas ic
f ranken
Ġp ay
Ġirgendw el
ĠSt Ã¼rmer
Ġeinz ut
kap elle
Ġbade zimmer
kla ppen
Ġgebur t
Ġf Ã¶rder
drÃ¼ck e
Ã¤ hen
ĠHoch wasser
ĠAppl ikationen
N ER
d n
ĠLandes hauptstadt
lass ungen
ĠW alt
ĠVer pflegung
uÃŁ te
ĠPor zellan
ĠT alente
ĠZ a
lei te
sst Ã¶rungen
ĠM M
ĠSch wie
ĠÃ¼ber schau
Ġeinmal igen
ĠTit an
ĠK h
ĠH d
Ġunver wechsel
mord et
So und
Sch wer
Ġbeg reifen
ĠB acken
ech e
ĠVer lin
ĠZusammen stellung
ĠAd olf
Ġzeit gleich
Re gel
o h
sp ause
Ġgem ischt
Ġverlie f
A chtung
ĠA alen
Ġn er
ĠGut achter
ĠjÃ¼nger e
at om
ra p
Ġspiel erisch
ĠS is
ĠK L
fas ern
ĠSport arten
mittag s
Ġ196 7
Ġdis sertation
ĠGe fr
ĠT HE
Ein satz
ĠHaupts ache
ï »¿
ĠLebens raum
ĠS yl
Ġr utsch
Ġkomp akte
N utzen
Ġs mart
Ir gend
ge stÃ¼t
an as
Ġer lern
Ġst arr
fest igkeit
por tion
sp rÃ¼f
sk anzlei
ĠKaffe em
ĠPresse konferenz
ĠN uss
ss icher
ĠLes ern
ĠHen ry
ĠJon as
Ġn or
Ber atung
Ġfort gesetzt
Her zlich
sicht lichen
ĠWander er
ĠOld timer
g ames
st our
an satz
ĠK anzlerin
ĠVer spÃ¤t
sst ruktur
si den
Ã¡ n
Ġwin z
W en
Ar ab
Ġbeh eben
ĠSonnen schutz
ĠSau di
ĠT ester
Ġerst aunt
ĠÃľber schrift
reichen d
wa ffe
ĠRechts schutz
ĠMar y
ĠÃ¼b liche
Ġman gel
ĠInternet browser
ĠDemonstr ation
ĠH aufen
schen den
CH E
Te ams
ĠProfession al
Ġpreis wert
ĠZÃ¼r cher
ĠDatenÃ¼ber trag
ĠHandt uch
Ġnach lesen
gem einer
sver kehr
T raining
ei ver
P op
Ġt Ã¶
ĠRegen er
Ġvorder en
. ]
ĠRest aur
ĠBerufs ausbildung
ĠHol ger
ar es
ĠSa un
ĠHeil praktiker
Ġumfassen des
Ġaufger egt
Ġres pekt
Ġkathol ische
P resse
ĠG S
ĠL ars
Ġdurch gehend
Ġfaszin ierende
ĠÃĦuÃŁer ungen
k ing
Ġzum ut
Ġindustr iellen
f irmen
W eg
ĠFein de
ĠLin sen
ĠTim es
Schn ell
Ġu krain
seh er
K enn
T ages
Ġmit bekommen
Ġer weist
St rategie
Ġabgeb ildet
[...]
